{
  "version": "1.0",
  "truncation": null,
  "padding": null,
  "added_tokens": [
    {
      "id": 0,
      "content": "[UNK]",
      "single_word": false,
      "lstrip": false,
      "rstrip": false,
      "normalized": false,
      "special": true
    },
    {
      "id": 1,
      "content": "[CLS]",
      "single_word": false,
      "lstrip": false,
      "rstrip": false,
      "normalized": false,
      "special": true
    },
    {
      "id": 2,
      "content": "[SEP]",
      "single_word": false,
      "lstrip": false,
      "rstrip": false,
      "normalized": false,
      "special": true
    },
    {
      "id": 3,
      "content": "[PAD]",
      "single_word": false,
      "lstrip": false,
      "rstrip": false,
      "normalized": false,
      "special": true
    },
    {
      "id": 4,
      "content": "[MASK]",
      "single_word": false,
      "lstrip": false,
      "rstrip": false,
      "normalized": false,
      "special": true
    }
  ],
  "normalizer": null,
  "pre_tokenizer": null,
  "post_processor": null,
  "decoder": null,
  "model": {
    "type": "BPE",
    "dropout": null,
    "unk_token": "[UNK]",
    "continuing_subword_prefix": null,
    "end_of_word_suffix": null,
    "fuse_unk": false,
    "byte_fallback": false,
    "ignore_merges": false,
    "vocab": {
      "[UNK]": 0,
      "[CLS]": 1,
      "[SEP]": 2,
      "[PAD]": 3,
      "[MASK]": 4,
      " ": 5,
      "!": 6,
      "\"": 7,
      "&": 8,
      "'": 9,
      "(": 10,
      ")": 11,
      "*": 12,
      ",": 13,
      "-": 14,
      ".": 15,
      "/": 16,
      "0": 17,
      "1": 18,
      "2": 19,
      "3": 20,
      "4": 21,
      "5": 22,
      "6": 23,
      "7": 24,
      "8": 25,
      "9": 26,
      ":": 27,
      ";": 28,
      "?": 29,
      "A": 30,
      "B": 31,
      "C": 32,
      "D": 33,
      "E": 34,
      "F": 35,
      "G": 36,
      "H": 37,
      "I": 38,
      "J": 39,
      "K": 40,
      "L": 41,
      "M": 42,
      "N": 43,
      "O": 44,
      "P": 45,
      "Q": 46,
      "R": 47,
      "S": 48,
      "T": 49,
      "U": 50,
      "V": 51,
      "W": 52,
      "X": 53,
      "Y": 54,
      "Z": 55,
      "[": 56,
      "]": 57,
      "a": 58,
      "b": 59,
      "c": 60,
      "d": 61,
      "e": 62,
      "f": 63,
      "g": 64,
      "h": 65,
      "i": 66,
      "j": 67,
      "k": 68,
      "l": 69,
      "m": 70,
      "n": 71,
      "o": 72,
      "p": 73,
      "q": 74,
      "r": 75,
      "s": 76,
      "t": 77,
      "u": 78,
      "v": 79,
      "w": 80,
      "x": 81,
      "y": 82,
      "z": 83,
      "{": 84,
      "}": 85,
      "ç": 86,
      "é": 87,
      "ï": 88,
      "ü": 89,
      "—": 90,
      "〈": 91,
      "〉": 92,
      "e ": 93,
      " t": 94,
      " a": 95,
      " th": 96,
      "in": 97,
      "er": 98,
      "on": 99,
      "s ": 100,
      "d ": 101,
      "en": 102,
      ", ": 103,
      "t ": 104,
      " the ": 105,
      "of": 106,
      "re": 107,
      " an": 108,
      "y ": 109,
      "or": 110,
      "an": 111,
      "ti": 112,
      "th": 113,
      "es": 114,
      "ou": 115,
      "o ": 116,
      "ar": 117,
      "of ": 118,
      "hi": 119,
      " and ": 120,
      "is": 121,
      "at": 122,
      "al": 123,
      ". ": 124,
      "ing": 125,
      "tion": 126,
      "it": 127,
      "ch": 128,
      "om": 129,
      "ed": 130,
      " to ": 131,
      "ed ": 132,
      "as": 133,
      ", w": 134,
      "ec": 135,
      " a ": 136,
      "er ": 137,
      "ll": 138,
      "pr": 139,
      "ha": 140,
      "os": 141,
      "con": 142,
      "is ": 143,
      "su": 144,
      " the": 145,
      "ir": 146,
      "ent": 147,
      "st": 148,
      "ce": 149,
      "li": 150,
      "se": 151,
      "ce ": 152,
      "in ": 153,
      "si": 154,
      "at ": 155,
      "for": 156,
      "ver": 157,
      "ch ": 158,
      ", th": 159,
      "ith": 160,
      "no": 161,
      "le": 162,
      ", and ": 163,
      "he ": 164,
      " to": 165,
      "ation": 166,
      "ly ": 167,
      "of the ": 168,
      "de": 169,
      "ing ": 170,
      "le ": 171,
      "ve ": 172,
      "ur": 173,
      "our": 174,
      "ex": 175,
      "ma": 176,
      "be": 177,
      "be ": 178,
      " and": 179,
      "op": 180,
      "or ": 181,
      "us": 182,
      "fr": 183,
      " w": 184,
      "ow": 185,
      " ar": 186,
      "em": 187,
      "his ": 188,
      "pre": 189,
      "un": 190,
      "it ": 191,
      "ere ": 192,
      "es ": 193,
      "di": 194,
      "ci": 195,
      "gh": 196,
      "per": 197,
      "man": 198,
      "hich ": 199,
      "am": 200,
      "int": 201,
      "qu": 202,
      "im": 203,
      "from": 204,
      "ac": 205,
      "al ": 206,
      "ab": 207,
      "en ": 208,
      "ul": 209,
      "on ": 210,
      "ev": 211,
      "ent ": 212,
      ". T": 213,
      "ut": 214,
      "oth": 215,
      "ll ": 216,
      "com": 217,
      "der": 218,
      "ob": 219,
      "with": 220,
      "ect": 221,
      "pos": 222,
      "ff": 223,
      "s, ": 224,
      "ir ": 225,
      " that ": 226,
      "dis": 227,
      "oun": 228,
      "par": 229,
      ", a": 230,
      "s of ": 231,
      "ity": 232,
      ", wh": 233,
      "ter": 234,
      "ri": 235,
      "oul": 236,
      "ain": 237,
      "ly": 238,
      " their ": 239,
      "e th": 240,
      "by ": 241,
      " this ": 242,
      "pro": 243,
      "; ": 244,
      "gre": 245,
      "mor": 246,
      "ol": 247,
      "vi": 248,
      " of ": 249,
      "as ": 250,
      "in the ": 251,
      " are ": 252,
      ": ": 253,
      "by": 254,
      "have ": 255,
      "ut ": 256,
      "ence ": 257,
      " to the ": 258,
      ", and": 259,
      ", that": 260,
      "ould ": 261,
      "end": 262,
      "pe": 263,
      "and ": 264,
      "tr": 265,
      "not ": 266,
      "an ": 267,
      "la": 268,
      " any ": 269,
      "ag": 270,
      "sel": 271,
      "him": 272,
      " as": 273,
      "so ": 274,
      "ough": 275,
      "ess": 276,
      "du": 277,
      ", which ": 278,
      "our ": 279,
      " them": 280,
      "pres": 281,
      "sion": 282,
      "wh": 283,
      "very ": 284,
      ". The ": 285,
      "and": 286,
      "ment": 287,
      "est": 288,
      "e, ": 289,
      "over": 290,
      "; and ": 291,
      ", the ": 292,
      "mon": 293,
      "ish": 294,
      "ese ": 295,
      "sh": 296,
      ", that ": 297,
      "reas": 298,
      " ac": 299,
      "ind": 300,
      "all": 301,
      "more ": 302,
      "ert": 303,
      "ity ": 304,
      "e of ": 305,
      "ca": 306,
      "n ": 307,
      "hich": 308,
      "ces": 309,
      "gi": 310,
      "ure": 311,
      "ous": 312,
      " all": 313,
      "ence": 314,
      " they ": 315,
      "nat": 316,
      "one ": 317,
      "able ": 318,
      "had ": 319,
      "we ": 320,
      "me": 321,
      "ne": 322,
      "il": 323,
      " the s": 324,
      "may ": 325,
      " as ": 326,
      "y, ": 327,
      "ever ": 328,
      ". I": 329,
      "to ": 330,
      "ed to ": 331,
      "fi": 332,
      "ad": 333,
      "no ": 334,
      "from ": 335,
      "ame ": 336,
      "ject": 337,
      ". A": 338,
      "with ": 339,
      "up": 340,
      " these ": 341,
      "was ": 342,
      " al": 343,
      "sp": 344,
      "ant": 345,
      "um": 346,
      "ard": 347,
      "ate ": 348,
      "pl": 349,
      "et": 350,
      "form": 351,
      "id": 352,
      "sen": 353,
      "prin": 354,
      "f ": 355,
      "a ": 356,
      "ra": 357,
      "ose ": 358,
      " an ": 359,
      "other": 360,
      "mos": 361,
      "; and": 362,
      "ist": 363,
      "so": 364,
      "som": 365,
      "tion ": 366,
      "not": 367,
      "ple": 368,
      "we": 369,
      "to": 370,
      "for ": 371,
      "tic": 372,
      "fe": 373,
      "ble ": 374,
      "mo": 375,
      " all ": 376,
      "pas": 377,
      "ig": 378,
      "sa": 379,
      " ap": 380,
      "which ": 381,
      "but ": 382,
      "ser": 383,
      "fo": 384,
      "king": 385,
      "e the ": 386,
      "es, ": 387,
      "reason": 388,
      "str": 389,
      "the ": 390,
      "inf": 391,
      "sub": 392,
      "ust ": 393,
      "ance ": 394,
      "ous ": 395,
      "diff": 396,
      "he": 397,
      "ar ": 398,
      "other ": 399,
      "ation ": 400,
      "ance": 401,
      "wi": 402,
      "I ": 403,
      " at": 404,
      "can ": 405,
      "w ": 406,
      "most ": 407,
      "natur": 408,
      "its ": 409,
      "ke ": 410,
      ". B": 411,
      "min": 412,
      "tu": 413,
      "mu": 414,
      "coun": 415,
      "sti": 416,
      "hat ": 417,
      "prop": 418,
      "s and ": 419,
      "every ": 420,
      "lu": 421,
      "must ": 422,
      "were ": 423,
      "gen": 424,
      "by the ": 425,
      "ide": 426,
      "od": 427,
      "lic": 428,
      ", with": 429,
      "pp": 430,
      "some ": 431,
      " ad": 432,
      "ve": 433,
      "from the ": 434,
      "ound": 435,
      " that": 436,
      "conc": 437,
      "ing the ": 438,
      " ag": 439,
      "ere": 440,
      "man ": 441,
      "ect ": 442,
      ", to ": 443,
      "ong": 444,
      "ion": 445,
      "ter ": 446,
      "des": 447,
      "inter": 448,
      "men": 449,
      "gu": 450,
      " ab": 451,
      "reg": 452,
      "el": 453,
      "iv": 454,
      "on the ": 455,
      "it is ": 456,
      "ic": 457,
      ", who ": 458,
      "cont": 459,
      ", as ": 460,
      "but": 461,
      "s of the ": 462,
      "ot": 463,
      "ay": 464,
      ", in ": 465,
      "hu": 466,
      ". W": 467,
      "? ": 468,
      "gl": 469,
      "red": 470,
      "st ": 471,
      "comm": 472,
      "fa": 473,
      "self": 474,
      "s of": 475,
      "ord": 476,
      "gener": 477,
      "est ": 478,
      "igh": 479,
      "consi": 480,
      "object": 481,
      "great": 482,
      "princi": 483,
      "peri": 484,
      "mag": 485,
      "e and ": 486,
      "cour": 487,
      "has ": 488,
      "all ": 489,
      "AN": 490,
      "los": 491,
      "ed, ": 492,
      "ed the ": 493,
      "ally ": 494,
      "inc": 495,
      "uth": 496,
      "s, and ": 497,
      "gover": 498,
      "lo": 499,
      "differ": 500,
      "ate": 501,
      "dist": 502,
      "rel": 503,
      "The ": 504,
      "cas": 505,
      "govern": 506,
      " those ": 507,
      ", which": 508,
      "pow": 509,
      "order": 510,
      "fac": 511,
      "ed by ": 512,
      "great ": 513,
      " tr": 514,
      "ak": 515,
      "you": 516,
      "been ": 517,
      "fir": 518,
      "consider": 519,
      "such": 520,
      ", we ": 521,
      "now": 522,
      "oy": 523,
      "cep": 524,
      " with": 525,
      "fore": 526,
      "es of ": 527,
      " though": 528,
      "ear": 529,
      "ang": 530,
      "ju": 531,
      "sur": 532,
      "pers": 533,
      "fin": 534,
      "are ": 535,
      "duc": 536,
      "enti": 537,
      " to be ": 538,
      "edi": 539,
      "po": 540,
      "out ": 541,
      "bet": 542,
      " at ": 543,
      "y of ": 544,
      "cr": 545,
      ". H": 546,
      "ection": 547,
      "cert": 548,
      "of a ": 549,
      "obser": 550,
      "pleas": 551,
      " att": 552,
      "here ": 553,
      " the same ": 554,
      "En": 555,
      "ort": 556,
      "'s ": 557,
      "pla": 558,
      ", that the ": 559,
      "pa": 560,
      "bec": 561,
      "br": 562,
      "ea": 563,
      "t of ": 564,
      "passion": 565,
      "Engl": 566,
      "dom": 567,
      "de ": 568,
      "eff": 569,
      "which": 570,
      "ure ": 571,
      "caus": 572,
      " we ": 573,
      "ment ": 574,
      "contr": 575,
      "go": 576,
      "only ": 577,
      "would ": 578,
      "ther": 579,
      "sion ": 580,
      "know": 581,
      "itt": 582,
      "res": 583,
      "such ": 584,
      "part": 585,
      "present": 586,
      "ill": 587,
      "ves": 588,
      "seem": 589,
      "her": 590,
      " appe": 591,
      " all the ": 592,
      "never ": 593,
      "ew": 594,
      "ition": 595,
      "ise ": 596,
      "should ": 597,
      "ties": 598,
      "les": 599,
      "out": 600,
      "able": 601,
      "s to ": 602,
      "sup": 603,
      "s the ": 604,
      "his": 605,
      "qual": 606,
      "wor": 607,
      "human ": 608,
      "eas": 609,
      "into": 610,
      "in a ": 611,
      "much ": 612,
      "ther ": 613,
      "ven": 614,
      "uthor": 615,
      "into ": 616,
      "can": 617,
      "imag": 618,
      "ari": 619,
      "ext": 620,
      "ren": 621,
      "ful": 622,
      "hilos": 623,
      "hilosop": 624,
      "found": 625,
      "ticul": 626,
      "suppos": 627,
      "us ": 628,
      "et ": 629,
      "nec": 630,
      "ves ": 631,
      " aff": 632,
      "mar": 633,
      "oc": 634,
      "will ": 635,
      "who": 636,
      "way": 637,
      "own ": 638,
      "particul": 639,
      "kind": 640,
      "ign": 641,
      "philosop": 642,
      "could ": 643,
      " again": 644,
      "requ": 645,
      "possi": 646,
      "ity, ": 647,
      " af": 648,
      "king ": 649,
      "ary": 650,
      "ary ": 651,
      ". An": 652,
      "peop": 653,
      "An": 654,
      ". It ": 655,
      "ever": 656,
      "pri": 657,
      "if": 658,
      "same ": 659,
      "ub": 660,
      "use": 661,
      " there ": 662,
      "ain ": 663,
      "red ": 664,
      "inst": 665,
      "rec": 666,
      "od ": 667,
      "exp": 668,
      "regard": 669,
      "k ": 670,
      "ast": 671,
      "mann": 672,
      "her ": 673,
      "eith": 674,
      "power": 675,
      "se ": 676,
      "necess": 677,
      "sec": 678,
      "imagin": 679,
      "still ": 680,
      "poss": 681,
      "both": 682,
      "ow ": 683,
      "ap": 684,
      "ite ": 685,
      "vant": 686,
      "under": 687,
      "ble": 688,
      "mat": 689,
      "for the ": 690,
      "own": 691,
      "ici": 692,
      "law": 693,
      "mind": 694,
      "soci": 695,
      "many ": 696,
      "hen": 697,
      "irtu": 698,
      "bl": 699,
      ", or ": 700,
      "common": 701,
      "ern": 702,
      "car": 703,
      "dec": 704,
      "ed with": 705,
      "was": 706,
      "uni": 707,
      "wo ": 708,
      " tim": 709,
      "if ": 710,
      "enc": 711,
      ". But ": 712,
      "y and ": 713,
      "may be ": 714,
      "ref": 715,
      "pub": 716,
      "tions": 717,
      ", though": 718,
      "nature": 719,
      "virtu": 720,
      "ers": 721,
      "vantag": 722,
      "long": 723,
      "person": 724,
      "self ": 725,
      "medi": 726,
      "ed with ": 727,
      "sist": 728,
      "being ": 729,
      "ant ": 730,
      "sy": 731,
      "effect": 732,
      "ward": 733,
      "ation of ": 734,
      ", by ": 735,
      "ret": 736,
      "happ": 737,
      "y th": 738,
      "reat": 739,
      "; but ": 740,
      "senti": 741,
      "ge": 742,
      "public": 743,
      " author": 744,
      ", he ": 745,
      "; w": 746,
      "ed in ": 747,
      "mong": 748,
      "EN": 749,
      "my ": 750,
      "perf": 751,
      "is the ": 752,
      "even ": 753,
      "av": 754,
      "of their ": 755,
      "chi": 756,
      "what ": 757,
      "tim": 758,
      "subject": 759,
      ", they ": 760,
      "ject ": 761,
      "to the ": 762,
      "each ": 763,
      "suc": 764,
      "give ": 765,
      "US": 766,
      "ond": 767,
      " they": 768,
      "gr": 769,
      "ity of ": 770,
      "ed to": 771,
      "emp": 772,
      "disc": 773,
      "first ": 774,
      "observ": 775,
      "cir": 776,
      "even": 777,
      "government": 778,
      "circ": 779,
      "reli": 780,
      "char": 781,
      "concern": 782,
      "nation": 783,
      "sol": 784,
      "ed by the ": 785,
      ", a ": 786,
      "lat": 787,
      ", and the ": 788,
      "migh": 789,
      "noth": 790,
      "RO": 791,
      "experi": 792,
      "imp": 793,
      " them ": 794,
      "hat": 795,
      "prob": 796,
      "und": 797,
      "you ": 798,
      "lib": 799,
      "ish ": 800,
      "ep": 801,
      ", in": 802,
      ". N": 803,
      "pret": 804,
      "spec": 805,
      "well": 806,
      "find": 807,
      " their": 808,
      "make ": 809,
      "erefore": 810,
      "ld": 811,
      "ust": 812,
      "ceiv": 813,
      "him ": 814,
      "pur": 815,
      "tive ": 816,
      "tion of ": 817,
      ". S": 818,
      "suff": 819,
      "eng": 820,
      "num": 821,
      "produ": 822,
      "interest": 823,
      "supp": 824,
      "the": 825,
      "had": 826,
      "abl": 827,
      "influ": 828,
      "either ": 829,
      "war": 830,
      "fort": 831,
      "mean": 832,
      ", are ": 833,
      "nor ": 834,
      "use ": 835,
      "present ": 836,
      "betwe": 837,
      "dep": 838,
      " than": 839,
      ", therefore": 840,
      "entire": 841,
      "bar": 842,
      "ances": 843,
      "religi": 844,
      "upon ": 845,
      "s in ": 846,
      "stand": 847,
      "00": 848,
      "tis": 849,
      " am": 850,
      "empl": 851,
      "whole ": 852,
      " among": 853,
      "immedi": 854,
      "ill ": 855,
      "comp": 856,
      "principle": 857,
      "any ": 858,
      "is a ": 859,
      "made ": 860,
      ". But": 861,
      "ef": 862,
      "far": 863,
      "But ": 864,
      "ies": 865,
      "ed by": 866,
      "sentiment": 867,
      ". F": 868,
      "sequ": 869,
      "usti": 870,
      " alway": 871,
      " appear": 872,
      "uc": 873,
      "fu": 874,
      "fer": 875,
      "ge ": 876,
      ". This ": 877,
      "himself": 878,
      " this": 879,
      "d of ": 880,
      "rea": 881,
      "fam": 882,
      "hy": 883,
      "t, ": 884,
      "new ": 885,
      "general ": 886,
      "fore ": 887,
      "urn": 888,
      "such a ": 889,
      "circum": 890,
      "s are ": 891,
      "justi": 892,
      "er of ": 893,
      "oppos": 894,
      "ion ": 895,
      "anc": 896,
      "sem": 897,
      "pression": 898,
      "vers": 899,
      "different ": 900,
      "gn": 901,
      "ast ": 902,
      "prev": 903,
      ". Th": 904,
      "ving ": 905,
      "reasoning": 906,
      "conclu": 907,
      "exist": 908,
      " which ": 909,
      "certain": 910,
      "circumst": 911,
      "mer": 912,
      "particular ": 913,
      "cor": 914,
      " themsel": 915,
      "opin": 916,
      "icul": 917,
      " with ": 918,
      "en the ": 919,
      "establ": 920,
      "shall ": 921,
      "cot": 922,
      "mis": 923,
      "difficul": 924,
      "manner": 925,
      "ty": 926,
      "inu": 927,
      "lig": 928,
      "must be ": 929,
      "nothing ": 930,
      "ce of ": 931,
      "prov": 932,
      "evid": 933,
      "with the ": 934,
      "societ": 935,
      "ties ": 936,
      "consequ": 937,
      "liam": 938,
      "exc": 939,
      "oper": 940,
      "how": 941,
      "litt": 942,
      ", it ": 943,
      " arm": 944,
      "cap": 945,
      "idea": 946,
      "lin": 947,
      "of this ": 948,
      "ed to the ": 949,
      "ound ": 950,
      "parliam": 951,
      "relation": 952,
      "like ": 953,
      ", where ": 954,
      "Scot": 955,
      "ud": 956,
      "of that ": 957,
      ": An": 958,
      "little ": 959,
      "sim": 960,
      "dur": 961,
      "nes": 962,
      "ed a ": 963,
      ", when ": 964,
      "ES": 965,
      "men ": 966,
      "people": 967,
      ". A ": 968,
      "infer": 969,
      ". He ": 970,
      "less ": 971,
      "ty ": 972,
      "order to ": 973,
      "stor": 974,
      "jud": 975,
      "ple ": 976,
      "termin": 977,
      "ence of ": 978,
      "cur": 979,
      "led": 980,
      "land": 981,
      "att": 982,
      "ans": 983,
      "now ": 984,
      "viol": 985,
      "cause": 986,
      "common ": 987,
      "sever": 988,
      "hand": 989,
      "put": 990,
      "llow": 991,
      "conn": 992,
      " as the ": 993,
      "fav": 994,
      "becom": 995,
      "establish": 996,
      "orig": 997,
      "age ": 998,
      "England": 999,
      "cri": 1000,
      "og": 1001,
      "ber": 1002,
      "enr": 1003,
      ", but ": 1004,
      "conduc": 1005,
      "sum": 1006,
      "degre": 1007,
      "say": 1008,
      "continu": 1009,
      "hile ": 1010,
      "oblig": 1011,
      "both ": 1012,
      "fami": 1013,
      "has": 1014,
      "determin": 1015,
      "of these ": 1016,
      "es the ": 1017,
      "ould": 1018,
      "satis": 1019,
      "kingdom": 1020,
      "dic": 1021,
      "ght": 1022,
      "suffici": 1023,
      "It ": 1024,
      ", were ": 1025,
      "sensi": 1026,
      "y, and ": 1027,
      " accoun": 1028,
      "beca": 1029,
      "ive ": 1030,
      "es and ": 1031,
      "itu": 1032,
      "being": 1033,
      "equ": 1034,
      "one": 1035,
      "only": 1036,
      "object ": 1037,
      ", though ": 1038,
      "sent": 1039,
      "val": 1040,
      "might ": 1041,
      "Fr": 1042,
      "charac": 1043,
      "jo": 1044,
      "th ": 1045,
      ", without ": 1046,
      "depend": 1047,
      ", was ": 1048,
      "will": 1049,
      "dang": 1050,
      "s, which ": 1051,
      "yet ": 1052,
      "she ": 1053,
      "tion, ": 1054,
      "natural ": 1055,
      "ell": 1056,
      "strong": 1057,
      "greater ": 1058,
      "libert": 1059,
      "fri": 1060,
      " against": 1061,
      "AR": 1062,
      "But": 1063,
      " than ": 1064,
      "ison": 1065,
      "ence, ": 1066,
      "bod": 1067,
      "act": 1068,
      "e to ": 1069,
      "inv": 1070,
      "ce and ": 1071,
      "exam": 1072,
      "beli": 1073,
      "upon": 1074,
      "spir": 1075,
      "immediate": 1076,
      "bit": 1077,
      "ok": 1078,
      "ens": 1079,
      "ce, ": 1080,
      "mak": 1081,
      "beg": 1082,
      "e the": 1083,
      "quali": 1084,
      "entirely ": 1085,
      "s.": 1086,
      "sin": 1087,
      "distinc": 1088,
      "fact": 1089,
      "render": 1090,
      "fre": 1091,
      "mi": 1092,
      "receiv": 1093,
      " acqu": 1094,
      "sens": 1095,
      "; and the ": 1096,
      "knowled": 1097,
      "cord": 1098,
      "in their ": 1099,
      " any": 1100,
      "pea": 1101,
      "nature ": 1102,
      "gument": 1103,
      "possible ": 1104,
      "read": 1105,
      "countr": 1106,
      "himself ": 1107,
      "natural": 1108,
      "good ": 1109,
      "aint": 1110,
      "pop": 1111,
      "stem": 1112,
      ", than": 1113,
      "fic": 1114,
      "earl": 1115,
      "cording": 1116,
      "IAN": 1117,
      "hap": 1118,
      "lim": 1119,
      "proce": 1120,
      "who ": 1121,
      "possess": 1122,
      "y to ": 1123,
      "mankind": 1124,
      "ideas": 1125,
      "employ": 1126,
      "judg": 1127,
      " was ": 1128,
      "feel": 1129,
      "dou": 1130,
      "e, and ": 1131,
      "s were ": 1132,
      "ences": 1133,
      "into the ": 1134,
      " after": 1135,
      "arch": 1136,
      "enem": 1137,
      "stat": 1138,
      "lif": 1139,
      "system": 1140,
      "ness": 1141,
      "ru": 1142,
      "discover": 1143,
      "friend": 1144,
      "TH": 1145,
      " ta": 1146,
      "resp": 1147,
      ". O": 1148,
      "prom": 1149,
      "superi": 1150,
      "part ": 1151,
      "view": 1152,
      ". And ": 1153,
      " always ": 1154,
      "ER": 1155,
      "fortun": 1156,
      "Henr": 1157,
      "kin": 1158,
      "; but": 1159,
      "plain": 1160,
      "pleasure": 1161,
      "refl": 1162,
      "impression": 1163,
      "IN": 1164,
      "ON": 1165,
      " thr": 1166,
      "leg": 1167,
      ", who": 1168,
      "mind ": 1169,
      "just": 1170,
      "in this ": 1171,
      "ed in the ": 1172,
      "ecu": 1173,
      ": T": 1174,
      "este": 1175,
      "must": 1176,
      " though ": 1177,
      ". And": 1178,
      "shi": 1179,
      "lear": 1180,
      "old": 1181,
      ", and to ": 1182,
      " advantag": 1183,
      "favour": 1184,
      "har": 1185,
      "ine ": 1186,
      "ently ": 1187,
      "mand": 1188,
      "mone": 1189,
      " that the ": 1190,
      "influence ": 1191,
      " to a ": 1192,
      "bea": 1193,
      "produc": 1194,
      "world": 1195,
      "opinion": 1196,
      "esteem": 1197,
      "ove ": 1198,
      "s a ": 1199,
      " two ": 1200,
      ", is ": 1201,
      "enter": 1202,
      "general": 1203,
      "parliament": 1204,
      "div": 1205,
      "meas": 1206,
      "ail": 1207,
      "joy": 1208,
      "ver ": 1209,
      " agre": 1210,
      "oft": 1211,
      "of any ": 1212,
      "cannot ": 1213,
      "produce ": 1214,
      "religion": 1215,
      "t to ": 1216,
      "year": 1217,
      "ques": 1218,
      "had been ": 1219,
      "tion of the ": 1220,
      ". We ": 1221,
      "posses": 1222,
      "chang": 1223,
      "ed and ": 1224,
      " against ": 1225,
      "public ": 1226,
      " anim": 1227,
      "es, and ": 1228,
      "perhap": 1229,
      "follow": 1230,
      "good": 1231,
      "ful ": 1232,
      "eal": 1233,
      ", I ": 1234,
      "remo": 1235,
      ", without": 1236,
      "purpos": 1237,
      "ach": 1238,
      "histor": 1239,
      "cause ": 1240,
      "mark": 1241,
      "RE": 1242,
      "do": 1243,
      "mem": 1244,
      "om ": 1245,
      "dispos": 1246,
      "ated ": 1247,
      "cient ": 1248,
      "danger": 1249,
      "ue ": 1250,
      " wh": 1251,
      "former": 1252,
      ", as well": 1253,
      "den": 1254,
      "id ": 1255,
      "represent": 1256,
      ". E": 1257,
      "ation, ": 1258,
      "ement": 1259,
      " also ": 1260,
      ". It is ": 1261,
      " they are ": 1262,
      "speci": 1263,
      " tak": 1264,
      "prof": 1265,
      "have been ": 1266,
      "ROM": 1267,
      "deriv": 1268,
      ", ac": 1269,
      "ly, ": 1270,
      "ility": 1271,
      "vari": 1272,
      "ines": 1273,
      "itself": 1274,
      ". The": 1275,
      "certain ": 1276,
      "equal": 1277,
      "two ": 1278,
      "indu": 1279,
      "ceive ": 1280,
      ", there ": 1281,
      "CE": 1282,
      "ire ": 1283,
      ": The ": 1284,
      "regul": 1285,
      "particular": 1286,
      "ave ": 1287,
      "creat": 1288,
      "sci": 1289,
      " thin": 1290,
      "end ": 1291,
      "def": 1292,
      "advantag": 1293,
      "expect": 1294,
      "encreas": 1295,
      "succes": 1296,
      "origin": 1297,
      "having ": 1298,
      "compar": 1299,
      "propor": 1300,
      ", to": 1301,
      "me ": 1302,
      "resem": 1303,
      "high": 1304,
      "ces ": 1305,
      "ations": 1306,
      "oursel": 1307,
      "emper": 1308,
      "divi": 1309,
      "human": 1310,
      "considerable ": 1311,
      "people ": 1312,
      "engag": 1313,
      "earl of ": 1314,
      "hon": 1315,
      "ro": 1316,
      "ende": 1317,
      "crown": 1318,
      " authority": 1319,
      "ad ": 1320,
      "ted ": 1321,
      "life": 1322,
      "cal": 1323,
      "t the ": 1324,
      " another": 1325,
      "lik": 1326,
      "principl": 1327,
      "AL": 1328,
      "cust": 1329,
      "s or ": 1330,
      "ulti": 1331,
      "reason ": 1332,
      " attend": 1333,
      "bo": 1334,
      "lan": 1335,
      "lar": 1336,
      "been": 1337,
      ", at ": 1338,
      ", when": 1339,
      "where ": 1340,
      "y thing ": 1341,
      "istr": 1342,
      "may": 1343,
      "maint": 1344,
      "e them": 1345,
      "moder": 1346,
      "priz": 1347,
      "hop": 1348,
      "s; and ": 1349,
      "rep": 1350,
      "civi": 1351,
      ", as": 1352,
      "extre": 1353,
      "endeav": 1354,
      "hum": 1355,
      "situ": 1356,
      ", or": 1357,
      "event": 1358,
      "ric": 1359,
      "ought ": 1360,
      "ation of the ": 1361,
      "ship": 1362,
      "ben": 1363,
      "of all ": 1364,
      "y of the ": 1365,
      "prac": 1366,
      " aris": 1367,
      "most": 1368,
      "ance of ": 1369,
      "hear": 1370,
      "can be ": 1371,
      "character": 1372,
      "IS": 1373,
      "co": 1374,
      "rit": 1375,
      "cho": 1376,
      ", af": 1377,
      "ribut": 1378,
      "duk": 1379,
      " adm": 1380,
      "da": 1381,
      "of them": 1382,
      "rema": 1383,
      "idea ": 1384,
      "should be ": 1385,
      "each other": 1386,
      "sensible ": 1387,
      " argument": 1388,
      "CH": 1389,
      "dra": 1390,
      "sm": 1391,
      "ed from ": 1392,
      ". In ": 1393,
      "upon the ": 1394,
      "philosopher": 1395,
      "industr": 1396,
      "s in the ": 1397,
      "sign": 1398,
      ", that, ": 1399,
      " allow": 1400,
      "easi": 1401,
      "vol": 1402,
      "rest": 1403,
      "ed, and ": 1404,
      "force ": 1405,
      "ght ": 1406,
      "moral": 1407,
      " as a ": 1408,
      ". In": 1409,
      "ance, ": 1410,
      "propert": 1411,
      "tit": 1412,
      "ed his ": 1413,
      "some": 1414,
      "IT": 1415,
      "t and ": 1416,
      "ing a ": 1417,
      "ass": 1418,
      "excep": 1419,
      "by a ": 1420,
      "stitu": 1421,
      "univers": 1422,
      "connex": 1423,
      "air": 1424,
      "ing, ": 1425,
      "entert": 1426,
      " and the ": 1427,
      "intell": 1428,
      "which we ": 1429,
      "experience": 1430,
      "support": 1431,
      "since ": 1432,
      "your ": 1433,
      "〉〉": 1434,
      "of his ": 1435,
      "pass": 1436,
      "objects": 1437,
      "place ": 1438,
      "solut": 1439,
      "pretend": 1440,
      "ef ": 1441,
      "enjoy": 1442,
      "const": 1443,
      "bey": 1444,
      ", with ": 1445,
      "love ": 1446,
      "society": 1447,
      "become ": 1448,
      "immediately ": 1449,
      "popul": 1450,
      "found ": 1451,
      "over ": 1452,
      "ran": 1453,
      "〈〈": 1454,
      " there": 1455,
      "dea": 1456,
      "king's ": 1457,
      "hous": 1458,
      "before ": 1459,
      "much": 1460,
      ", therefore, ": 1461,
      "prevail": 1462,
      "; the ": 1463,
      "GRE": 1464,
      " ter": 1465,
      "real": 1466,
      ", would ": 1467,
      "prec": 1468,
      "naturally ": 1469,
      "Ed": 1470,
      "sla": 1471,
      "usu": 1472,
      "iness": 1473,
      "in his ": 1474,
      "he had ": 1475,
      "direc": 1476,
      ": But ": 1477,
      "former ": 1478,
      "simil": 1479,
      "doub": 1480,
      "do ": 1481,
      "preser": 1482,
      "occas": 1483,
      "because ": 1484,
      "gra": 1485,
      "in any ": 1486,
      "moral ": 1487,
      "matter": 1488,
      "ors": 1489,
      "it, ": 1490,
      "ed, that ": 1491,
      "impossible ": 1492,
      "greatest ": 1493,
      "power ": 1494,
      "first": 1495,
      "sion of ": 1496,
      "its": 1497,
      "ity and ": 1498,
      "government ": 1499,
      "measure": 1500,
      "bes": 1501,
      "cl": 1502,
      "ely ": 1503,
      "ts ": 1504,
      "enqu": 1505,
      ", and that ": 1506,
      "proper ": 1507,
      "carri": 1508,
      "lab": 1509,
      "pain": 1510,
      "ond ": 1511,
      "monarch": 1512,
      "causes": 1513,
      "numb": 1514,
      "my": 1515,
      "priv": 1516,
      "conf": 1517,
      "tern": 1518,
      "what": 1519,
      "prince ": 1520,
      "imagination": 1521,
      "evident": 1522,
      "duke of ": 1523,
      "is not ": 1524,
      " action": 1525,
      "able to ": 1526,
      "principle ": 1527,
      "fal": 1528,
      "ired": 1529,
      "sul": 1530,
      "dition": 1531,
      "ulg": 1532,
      "; nor ": 1533,
      "difference ": 1534,
      "join": 1535,
      " against the ": 1536,
      "fur": 1537,
      "mom": 1538,
      "ly be ": 1539,
      " which": 1540,
      "que": 1541,
      "inclin": 1542,
      ": And": 1543,
      "proceed": 1544,
      "custom": 1545,
      "entertain": 1546,
      "eri": 1547,
      "separ": 1548,
      "rich": 1549,
      "prot": 1550,
      "import": 1551,
      "examin": 1552,
      "proportion": 1553,
      ", t": 1554,
      "Sir ": 1555,
      "cess": 1556,
      "call": 1557,
      "sw": 1558,
      "remark": 1559,
      "arr": 1560,
      "ated": 1561,
      "conven": 1562,
      "without ": 1563,
      "resol": 1564,
      " take ": 1565,
      "beaut": 1566,
      "maintain": 1567,
      "omen": 1568,
      "e that ": 1569,
      ". I ": 1570,
      "plac": 1571,
      "interest ": 1572,
      " account ": 1573,
      "Th": 1574,
      "s. The ": 1575,
      " another ": 1576,
      "ord ": 1577,
      "ing to ": 1578,
      "consist": 1579,
      "from a ": 1580,
      "so much ": 1581,
      "ign ": 1582,
      "sent ": 1583,
      "sive ": 1584,
      "ous and ": 1585,
      "poli": 1586,
      "gether ": 1587,
      "), ": 1588,
      "cal ": 1589,
      "fl": 1590,
      "s, the ": 1591,
      "ed of ": 1592,
      "course ": 1593,
      "find ": 1594,
      "Phi": 1595,
      ", it is ": 1596,
      " too ": 1597,
      "deli": 1598,
      "cil": 1599,
      "percep": 1600,
      "press": 1601,
      "ity of the ": 1602,
      "few ": 1603,
      "destr": 1604,
      " above ": 1605,
      "effect ": 1606,
      "appe": 1607,
      "probab": 1608,
      " themselves": 1609,
      "wa": 1610,
      "yet": 1611,
      " arise ": 1612,
      "meth": 1613,
      "person ": 1614,
      "contrary": 1615,
      "under ": 1616,
      "civil": 1617,
      "occasion": 1618,
      "17": 1619,
      "Nor": 1620,
      "ey": 1621,
      "less": 1622,
      "xt": 1623,
      "inde": 1624,
      "ory": 1625,
      " are the ": 1626,
      "betwi": 1627,
      " affection": 1628,
      "requis": 1629,
      "full": 1630,
      "several ": 1631,
      "col": 1632,
      "ties, ": 1633,
      "ism": 1634,
      ". M": 1635,
      "ence and ": 1636,
      "can never ": 1637,
      "ordin": 1638,
      "case ": 1639,
      "pleasure ": 1640,
      "perfect": 1641,
      "standing": 1642,
      "000": 1643,
      "frequ": 1644,
      "mal": 1645,
      "ution": 1646,
      " the most ": 1647,
      "infin": 1648,
      "domin": 1649,
      "concerning the ": 1650,
      "S ": 1651,
      "orr": 1652,
      "prison": 1653,
      "super": 1654,
      "commo": 1655,
      "disput": 1656,
      ": H": 1657,
      "which he ": 1658,
      "propos": 1659,
      "regard to ": 1660,
      "commonly ": 1661,
      "often ": 1662,
      "'s": 1663,
      "aff": 1664,
      "bour": 1665,
      "ho": 1666,
      "ire": 1667,
      "mas": 1668,
      "vo": 1669,
      " tri": 1670,
      "in that ": 1671,
      ". L": 1672,
      "susp": 1673,
      "his own ": 1674,
      "s, or ": 1675,
      "when": 1676,
      "overe": 1677,
      ", in order to ": 1678,
      "commer": 1679,
      "instance": 1680,
      "secur": 1681,
      ", according": 1682,
      "ative ": 1683,
      "of those ": 1684,
      "tiz": 1685,
      "ties of ": 1686,
      "ingu": 1687,
      "ed on ": 1688,
      ", than ": 1689,
      " were ": 1690,
      ", which is ": 1691,
      "ed to be ": 1692,
      "struc": 1693,
      "English ": 1694,
      "king of ": 1695,
      "univer": 1696,
      "circumstances": 1697,
      "however ": 1698,
      ": And ": 1699,
      "(17": 1700,
      "a(17": 1701,
      "bur": 1702,
      "ious ": 1703,
      "son": 1704,
      "sing": 1705,
      "for a ": 1706,
      "fix": 1707,
      "faction": 1708,
      "scar": 1709,
      "xim": 1710,
      "ent to ": 1711,
      "ford": 1712,
      "unt": 1713,
      ", at": 1714,
      ", that they ": 1715,
      "near": 1716,
      "AND": 1717,
      "marri": 1718,
      "long ": 1719,
      "excit": 1720,
      "honour": 1721,
      "best": 1722,
      "last ": 1723,
      "mut": 1724,
      "tal": 1725,
      "least ": 1726,
      "soon": 1727,
      ". These ": 1728,
      "knowledg": 1729,
      "resembl": 1730,
      "GREE": 1731,
      "s, and": 1732,
      "practi": 1733,
      "enquir": 1734,
      "A ": 1735,
      "IC": 1736,
      "fall": 1737,
      "rup": 1738,
      "tain": 1739,
      "wis": 1740,
      "off": 1741,
      "when ": 1742,
      "form ": 1743,
      "cours": 1744,
      " after ": 1745,
      "country": 1746,
      "THEN": 1747,
      "reflection": 1748,
      "learn": 1749,
      " tra": 1750,
      "ention": 1751,
      "isi": 1752,
      ". C": 1753,
      "ed him": 1754,
      "pros": 1755,
      "ations ": 1756,
      "ame": 1757,
      "have a ": 1758,
      "neigh": 1759,
      "courag": 1760,
      ", which are ": 1761,
      "possib": 1762,
      " themselves ": 1763,
      "neighbour": 1764,
      "ister": 1765,
      "not to ": 1766,
      "seems ": 1767,
      "between the ": 1768,
      "species of ": 1769,
      "iz": 1770,
      "real ": 1771,
      "refin": 1772,
      "constitu": 1773,
      "path": 1774,
      "chief": 1775,
      ", without any ": 1776,
      "endeavour": 1777,
      "mere": 1778,
      "s to": 1779,
      "ve, ": 1780,
      "maxim": 1781,
      "es of the ": 1782,
      ", whose ": 1783,
      "tical ": 1784,
      " absolut": 1785,
      "commun": 1786,
      "English": 1787,
      "possible": 1788,
      "latter": 1789,
      "Scotland": 1790,
      ", as well as ": 1791,
      "ension": 1792,
      "ly to ": 1793,
      "mention": 1794,
      "judi": 1795,
      "ment of ": 1796,
      "operation": 1797,
      "ROMAN": 1798,
      "sovere": 1799,
      " able ": 1800,
      " thos": 1801,
      "in all ": 1802,
      "ed from": 1803,
      "ve the ": 1804,
      "exer": 1805,
      "it was ": 1806,
      "act ": 1807,
      "ly the ": 1808,
      "weak": 1809,
      " tran": 1810,
      "which the ": 1811,
      "known": 1812,
      " affair": 1813,
      "perfect ": 1814,
      "principles": 1815,
      "conveni": 1816,
      "Fren": 1817,
      "roy": 1818,
      "scep": 1819,
      "e or ": 1820,
      "that ": 1821,
      "ed on": 1822,
      "sure": 1823,
      "set": 1824,
      "extr": 1825,
      "compre": 1826,
      "compos": 1827,
      ", that he ": 1828,
      " alone ": 1829,
      "count": 1830,
      "ignor": 1831,
      "ed with the ": 1832,
      "sym": 1833,
      "empt": 1834,
      "France": 1835,
      "original ": 1836,
      "eable ": 1837,
      "y or ": 1838,
      "least": 1839,
      "cid": 1840,
      "gres": 1841,
      "have no ": 1842,
      "ousand ": 1843,
      "place": 1844,
      "which they ": 1845,
      "wards ": 1846,
      "ward ": 1847,
      ". For": 1848,
      "author": 1849,
      "itself ": 1850,
      "habit": 1851,
      " ass": 1852,
      " also": 1853,
      " at the ": 1854,
      "geni": 1855,
      "matter ": 1856,
      "chief ": 1857,
      "between ": 1858,
      "limit": 1859,
      ". They ": 1860,
      "remain": 1861,
      "hen ": 1862,
      "ni": 1863,
      "word": 1864,
      ". P": 1865,
      "return": 1866,
      "success": 1867,
      "latter ": 1868,
      "during the ": 1869,
      "conduct": 1870,
      "respect": 1871,
      "anim": 1872,
      "ates ": 1873,
      "see": 1874,
      "dimin": 1875,
      "obvi": 1876,
      " that of ": 1877,
      "s of his ": 1878,
      "ought": 1879,
      "never": 1880,
      "not the ": 1881,
      "servi": 1882,
      "if we ": 1883,
      "We ": 1884,
      "agre": 1885,
      "gain": 1886,
      "s; ": 1887,
      "ist ": 1888,
      "in our ": 1889,
      "in order to ": 1890,
      " what ": 1891,
      "ack": 1892,
      "said": 1893,
      "eld": 1894,
      "crim": 1895,
      " amb": 1896,
      "compan": 1897,
      "dividu": 1898,
      "jeal": 1899,
      " tend": 1900,
      "individu": 1901,
      "ers ": 1902,
      ", if ": 1903,
      "tifi": 1904,
      " to their ": 1905,
      "action": 1906,
      ", whe": 1907,
      "more th": 1908,
      "proper": 1909,
      "different": 1910,
      "certaint": 1911,
      "number": 1912,
      " animal": 1913,
      "number of ": 1914,
      "ati": 1915,
      "ke": 1916,
      "ok ": 1917,
      "uti": 1918,
      "once ": 1919,
      ", of ": 1920,
      "rebe": 1921,
      "ed from the ": 1922,
      "conv": 1923,
      ": But": 1924,
      ", which we ": 1925,
      "; and he ": 1926,
      "soon ": 1927,
      "full ": 1928,
      "qualities": 1929,
      "disposition": 1930,
      "OR": 1931,
      ", had ": 1932,
      "prid": 1933,
      "prud": 1934,
      "laim": 1935,
      "gives ": 1936,
      "prince": 1937,
      "magistr": 1938,
      "would be ": 1939,
      " among the ": 1940,
      "however": 1941,
      "creature": 1942,
      "connexion": 1943,
      "intellig": 1944,
      ",000": 1945,
      "ies ": 1946,
      "y.": 1947,
      "y the ": 1948,
      "ed, that": 1949,
      "confin": 1950,
      "state ": 1951,
      "liz": 1952,
      ". There ": 1953,
      "neith": 1954,
      ". If": 1955,
      " appro": 1956,
      "still": 1957,
      "distingu": 1958,
      "concerning ": 1959,
      " among ": 1960,
      "opposite ": 1961,
      "superior": 1962,
      "draw": 1963,
      "supersti": 1964,
      "mutu": 1965,
      "There ": 1966,
      "adic": 1967,
      "ban": 1968,
      "ld ": 1969,
      "s from ": 1970,
      " to his ": 1971,
      ", will ": 1972,
      "ection ": 1973,
      "is no ": 1974,
      "irm": 1975,
      "del": 1976,
      "others": 1977,
      "ight": 1978,
      "either": 1979,
      ". For ": 1980,
      "e their ": 1981,
      "superior ": 1982,
      "situation": 1983,
      " therefore ": 1984,
      "IA": 1985,
      "II": 1986,
      "ired ": 1987,
      "phen": 1988,
      ", by": 1989,
      ", while ": 1990,
      "conqu": 1991,
      "le of ": 1992,
      "prefer": 1993,
      "unc": 1994,
      "oung": 1995,
      "not be ": 1996,
      "new": 1997,
      "observe": 1998,
      "promis": 1999,
      "requisite ": 2000,
      "phenomen": 2001,
      "sc": 2002,
      " then ": 2003,
      "of an": 2004,
      "ancient ": 2005,
      ", was": 2006,
      "lean": 2007,
      "exce": 2008,
      "cient": 2009,
      ". When": 2010,
      " time ": 2011,
      "they ": 2012,
      "free ": 2013,
      "kind ": 2014,
      "question": 2015,
      "labour": 2016,
      "gave ": 2017,
      "mitt": 2018,
      "run": 2019,
      "reven": 2020,
      " answ": 2021,
      "ous, ": 2022,
      "ard ": 2023,
      "ing of ": 2024,
      "ur ": 2025,
      "old ": 2026,
      ", that it ": 2027,
      "fig": 2028,
      " absur": 2029,
      "passions": 2030,
      "contradic": 2031,
      "will be ": 2032,
      "bodi": 2033,
      "van": 2034,
      ", in the ": 2035,
      "ing his ": 2036,
      "urb": 2037,
      "it be ": 2038,
      "age": 2039,
      "philosophi": 2040,
      "readi": 2041,
      "idea of ": 2042,
      "family": 2043,
      "liberty": 2044,
      "kind of ": 2045,
      "a(175": 2046,
      "AT": 2047,
      "ATHEN": 2048,
      "In": 2049,
      "I am": 2050,
      "dut": 2051,
      "hund": 2052,
      "s to the ": 2053,
      "ven ": 2054,
      "thr": 2055,
      ". Y": 2056,
      "ement ": 2057,
      "it of ": 2058,
      "part of ": 2059,
      "sense": 2060,
      " adv": 2061,
      "but a ": 2062,
      "s of a ": 2063,
      "philosophy": 2064,
      "conclusion": 2065,
      "inferi": 2066,
      " through": 2067,
      "small ": 2068,
      "easily ": 2069,
      "course of ": 2070,
      "PE": 2071,
      "bound": 2072,
      "cent": 2073,
      "just ": 2074,
      "nor": 2075,
      "young": 2076,
      "offi": 2077,
      "ort ": 2078,
      "ing that ": 2079,
      "side": 2080,
      "evil": 2081,
      " all these ": 2082,
      "tic ": 2083,
      " app": 2084,
      "facul": 2085,
      "under the ": 2086,
      "carr": 2087,
      "miser": 2088,
      "judgment": 2089,
      "langu": 2090,
      "private ": 2091,
      "moment": 2092,
      "app": 2093,
      "bal": 2094,
      "ecut": 2095,
      "concep": 2096,
      "lef": 2097,
      "prejudi": 2098,
      "ility ": 2099,
      "firm": 2100,
      " thought": 2101,
      "point": 2102,
      "materi": 2103,
      "says ": 2104,
      "valu": 2105,
      " arises ": 2106,
      "death": 2107,
      "sovereign": 2108,
      "fut": 2109,
      "lord ": 2110,
      "mist": 2111,
      "of an ": 2112,
      "ree ": 2113,
      "resul": 2114,
      "nob": 2115,
      "extern": 2116,
      " will ": 2117,
      "unit": 2118,
      ". To ": 2119,
      "disorder": 2120,
      "ity, and ": 2121,
      "allow": 2122,
      "princes": 2123,
      "rais": 2124,
      "gether": 2125,
      ". On": 2126,
      "ourselves": 2127,
      "spe": 2128,
      "e a ": 2129,
      "art": 2130,
      "ed in": 2131,
      "fru": 2132,
      "riv": 2133,
      "minister": 2134,
      "vey": 2135,
      "desir": 2136,
      ", who had ": 2137,
      "objects ": 2138,
      "od of ": 2139,
      "expedi": 2140,
      "necessary": 2141,
      "possession": 2142,
      "ISH": 2143,
      "pen": 2144,
      "pat": 2145,
      "ision": 2146,
      "pra": 2147,
      "suit": 2148,
      "expos": 2149,
      "explain": 2150,
      "it is": 2151,
      "quar": 2152,
      "progres": 2153,
      ", that this ": 2154,
      "over the ": 2155,
      ". If ": 2156,
      "; and that ": 2157,
      "observe ": 2158,
      "regard to the ": 2159,
      " authority ": 2160,
      "between": 2161,
      "It is ": 2162,
      "equally ": 2163,
      "Clean": 2164,
      "GL": 2165,
      "s and": 2166,
      "ory ": 2167,
      "state": 2168,
      ", this ": 2169,
      "open": 2170,
      " would ": 2171,
      " as to ": 2172,
      "passion ": 2173,
      "king, ": 2174,
      "reasoning ": 2175,
      "head": 2176,
      "into a ": 2177,
      "observation": 2178,
      "reach": 2179,
      "strong ": 2180,
      "life ": 2181,
      "enterpriz": 2182,
      "scarce": 2183,
      "communic": 2184,
      "Cleanth": 2185,
      "St": 2186,
      "bra": 2187,
      "mir": 2188,
      "s;": 2189,
      "vot": 2190,
      " turn": 2191,
      "one, ": 2192,
      "es a ": 2193,
      " and un": 2194,
      "educ": 2195,
      "light": 2196,
      "noble": 2197,
      " to that ": 2198,
      "vid": 2199,
      " than the ": 2200,
      "baron": 2201,
      "opposition": 2202,
      " think": 2203,
      "universe": 2204,
      "exerc": 2205,
      "far ": 2206,
      "ious": 2207,
      "ed.": 2208,
      "ed their ": 2209,
      "ed as ": 2210,
      "in every ": 2211,
      "le, ": 2212,
      "did ": 2213,
      "with a ": 2214,
      "ender ": 2215,
      "together ": 2216,
      "ideas ": 2217,
      "such as ": 2218,
      "ENGL": 2219,
      "experience ": 2220,
      "becaus": 2221,
      "friendship": 2222,
      "part of the ": 2223,
      "sympath": 2224,
      " or ": 2225,
      "Char": 2226,
      "EU": 2227,
      "This ": 2228,
      "blo": 2229,
      "ition ": 2230,
      "independ": 2231,
      "ator": 2232,
      "alway": 2233,
      "ed them": 2234,
      "befor": 2235,
      "vic": 2236,
      ", and a ": 2237,
      "endow": 2238,
      "to be ": 2239,
      "serve ": 2240,
      "philosoph": 2241,
      "; which ": 2242,
      "justice": 2243,
      "prevent": 2244,
      "appear": 2245,
      "bus": 2246,
      "gent": 2247,
      "hend": 2248,
      "jection": 2249,
      "multi": 2250,
      "pi": 2251,
      "re ": 2252,
      "ine": 2253,
      "err": 2254,
      "is not": 2255,
      "he was ": 2256,
      "execu": 2257,
      " add": 2258,
      " with the ": 2259,
      " time": 2260,
      "liber": 2261,
      "farther ": 2262,
      "Henry": 2263,
      "merely ": 2264,
      "bish": 2265,
      "day": 2266,
      "late ": 2267,
      "nam": 2268,
      "pec": 2269,
      "of t": 2270,
      "live": 2271,
      " war": 2272,
      " art": 2273,
      "embr": 2274,
      "right": 2275,
      ", that a ": 2276,
      "for his ": 2277,
      "moti": 2278,
      "subject ": 2279,
      "has been ": 2280,
      ", we may ": 2281,
      " affect": 2282,
      "US ": 2283,
      "circumstance": 2284,
      "corresp": 2285,
      "besid": 2286,
      "queen": 2287,
      " assert": 2288,
      "IL": 2289,
      "eg": 2290,
      "poth": 2291,
      "scr": 2292,
      "{V": 2293,
      " thing": 2294,
      "receive ": 2295,
      "or the ": 2296,
      "for their ": 2297,
      "exact": 2298,
      "us, ": 2299,
      "from that ": 2300,
      "court": 2301,
      "if the ": 2302,
      "hypoth": 2303,
      "connect": 2304,
      "obliged to ": 2305,
      "eculi": 2306,
      ": He ": 2307,
      "UL": 2308,
      "bu": 2309,
      "ck": 2310,
      "peculi": 2311,
      "ugh": 2312,
      "s have ": 2313,
      "ison ": 2314,
      "condition": 2315,
      "bear": 2316,
      "belong": 2317,
      "emo": 2318,
      "notwith": 2319,
      " truth": 2320,
      "able, ": 2321,
      "human nature": 2322,
      "happines": 2323,
      "hatred": 2324,
      "single ": 2325,
      "correspond": 2326,
      "Jam": 2327,
      "Ri": 2328,
      "doc": 2329,
      "inno": 2330,
      "er, ": 2331,
      "s with ": 2332,
      "is, ": 2333,
      "ates": 2334,
      "ure of ": 2335,
      "exper": 2336,
      "opp": 2337,
      "us to ": 2338,
      "viv": 2339,
      "well ": 2340,
      "content": 2341,
      ", which, ": 2342,
      " trans": 2343,
      "time ": 2344,
      "ready ": 2345,
      "purpose": 2346,
      "regular": 2347,
      ", after": 2348,
      "preced": 2349,
      "bishop": 2350,
      "cred": 2351,
      "narr": 2352,
      "ves, ": 2353,
      "vulg": 2354,
      "tigu": 2355,
      "them": 2356,
      " to this ": 2357,
      " was": 2358,
      "command": 2359,
      ", as the ": 2360,
      " any other ": 2361,
      "we may ": 2362,
      "we are ": 2363,
      "rather": 2364,
      " approb": 2365,
      "men, ": 2366,
      "extend": 2367,
      "opinion ": 2368,
      "money ": 2369,
      " able to ": 2370,
      ", to the ": 2371,
      "claim": 2372,
      "ele": 2373,
      "fall ": 2374,
      "oh": 2375,
      "put ": 2376,
      "ris": 2377,
      "s, that ": 2378,
      "would": 2379,
      " thousand ": 2380,
      "esti": 2381,
      "enter ": 2382,
      "demand": 2383,
      "evol": 2384,
      "ress": 2385,
      "instances": 2386,
      "necessary ": 2387,
      "provin": 2388,
      "body": 2389,
      "remot": 2390,
      "cident": 2391,
      "neither ": 2392,
      "hypothes": 2393,
      "OL": 2394,
      "aordin": 2395,
      "der ": 2396,
      "how ": 2397,
      "sac": 2398,
      "wise ": 2399,
      "s in": 2400,
      "alth": 2401,
      "sex": 2402,
      "defin": 2403,
      "dign": 2404,
      "understanding": 2405,
      "specul": 2406,
      "established ": 2407,
      "famili": 2408,
      "sufficient ": 2409,
      "makes ": 2410,
      "ultiv": 2411,
      "extreme": 2412,
      "extraordin": 2413,
      "distinguish": 2414,
      "! ": 2415,
      "FR": 2416,
      "bor": 2417,
      "e of the ": 2418,
      "ers, ": 2419,
      "reject": 2420,
      "revol": 2421,
      "pron": 2422,
      "conce": 2423,
      "deb": 2424,
      "express": 2425,
      " assem": 2426,
      " ascri": 2427,
      "ument ": 2428,
      "strain": 2429,
      "father": 2430,
      "And ": 2431,
      "still more ": 2432,
      "numer": 2433,
      "their ": 2434,
      "barbar": 2435,
      "immediate ": 2436,
      "principles of ": 2437,
      "capac": 2438,
      "large ": 2439,
      "house of ": 2440,
      "In ": 2441,
      "jur": 2442,
      " treat": 2443,
      "inhabit": 2444,
      "erg": 2445,
      "re, ": 2446,
      "ou ": 2447,
      "ed, that the ": 2448,
      "consent": 2449,
      "iment": 2450,
      "in the same ": 2451,
      "fear": 2452,
      "strang": 2453,
      "concur": 2454,
      " true ": 2455,
      "surpriz": 2456,
      "necessari": 2457,
      "virtue": 2458,
      "perfection": 2459,
      "degree of ": 2460,
      "equal ": 2461,
      "perhaps, ": 2462,
      ", after ": 2463,
      "sometim": 2464,
      "〉〉}": 2465,
      "similar": 2466,
      "keep": 2467,
      "doctr": 2468,
      "pronoun": 2469,
      ", their ": 2470,
      "De": 2471,
      "Joh": 2472,
      "af": 2473,
      "gri": 2474,
      "mere ": 2475,
      "oqu": 2476,
      "pun": 2477,
      "rise ": 2478,
      "tible ": 2479,
      "tho": 2480,
      "ate the ": 2481,
      "ed at ": 2482,
      "ll the ": 2483,
      "les ": 2484,
      "ation and ": 2485,
      "from their ": 2486,
      "comple": 2487,
      "by his ": 2488,
      ", that there ": 2489,
      "one of the ": 2490,
      "self-": 2491,
      "foreign": 2492,
      "better ": 2493,
      "brother": 2494,
      "known ": 2495,
      "party": 2496,
      "illi": 2497,
      "decla": 2498,
      "refus": 2499,
      "justice ": 2500,
      "merit": 2501,
      "character ": 2502,
      "universal ": 2503,
      ",000 ": 2504,
      "external ": 2505,
      "pic": 2506,
      "ate, ": 2507,
      "al, ": 2508,
      "ing any ": 2509,
      "ing them": 2510,
      " to have ": 2511,
      "ed into ": 2512,
      "lea": 2513,
      " tot": 2514,
      "uneas": 2515,
      "citiz": 2516,
      "perform": 2517,
      "vig": 2518,
      ": 〈〈": 2519,
      "eloqu": 2520,
      "existence": 2521,
      "origin ": 2522,
      "distinct ": 2523,
      "knowledge ": 2524,
      "life, ": 2525,
      "histori": 2526,
      "benevol": 2527,
      "direct": 2528,
      "confess": 2529,
      "GREEK": 2530,
      "French ": 2531,
      "sett": 2532,
      "jealous": 2533,
      "peci": 2534,
      "  ": 2535,
      " in ": 2536,
      "ew ": 2537,
      "mit": 2538,
      "mil": 2539,
      "nici": 2540,
      "s, to ": 2541,
      "oured": 2542,
      "alli": 2543,
      "ham": 2544,
      "ation, and ": 2545,
      "prove ": 2546,
      "petu": 2547,
      " assist": 2548,
      "shew": 2549,
      "met ": 2550,
      "fid": 2551,
      "? W": 2552,
      "s of their ": 2553,
      "such an ": 2554,
      "foreign ": 2555,
      "controver": 2556,
      "out the ": 2557,
      "every thing ": 2558,
      "secret": 2559,
      "ROPE": 2560,
      ". No ": 2561,
      "hysi": 2562,
      "correc": 2563,
      "conduct ": 2564,
      "Henry ": 2565,
      "does ": 2566,
      "dangerous ": 2567,
      " taken ": 2568,
      "except ": 2569,
      "colour": 2570,
      "commodi": 2571,
      "master": 2572,
      "low": 2573,
      "rul": 2574,
      "render ": 2575,
      "ta": 2576,
      "en, ": 2577,
      "reduc": 2578,
      "al and ": 2579,
      "ally": 2580,
      "ed. The ": 2581,
      "execut": 2582,
      "ity.": 2583,
      ", and are ": 2584,
      ", which he ": 2585,
      "pression ": 2586,
      "should": 2587,
      "past ": 2588,
      "contain": 2589,
      "s of that ": 2590,
      "s of this ": 2591,
      "cast": 2592,
      "could not ": 2593,
      "was the ": 2594,
      "ength": 2595,
      "ed by a ": 2596,
      "parliament ": 2597,
      "belief": 2598,
      "IANS": 2599,
      "enemies": 2600,
      "method of ": 2601,
      "diminish": 2602,
      "philosophical ": 2603,
      "EUROPE": 2604,
      " of the ": 2605,
      "med": 2606,
      "ue": 2607,
      "vent": 2608,
      " au": 2609,
      "y in ": 2610,
      "pernici": 2611,
      "intend": 2612,
      "impos": 2613,
      "acqu": 2614,
      "disgu": 2615,
      "so far": 2616,
      "shall": 2617,
      "said ": 2618,
      "I have ": 2619,
      "supposition": 2620,
      "manner ": 2621,
      "happiness": 2622,
      "grant": 2623,
      "existence ": 2624,
      "capable ": 2625,
      "has a ": 2626,
      "ROME": 2627,
      "beyond": 2628,
      "beyond ": 2629,
      "young ": 2630,
      "punish": 2631,
      "; that ": 2632,
      "abe": 2633,
      "hom": 2634,
      "pay": 2635,
      "s, who ": 2636,
      "inconveni": 2637,
      "s which ": 2638,
      "ensive ": 2639,
      ", is": 2640,
      "ret ": 2641,
      "republic": 2642,
      " ancient ": 2643,
      "ouse": 2644,
      "ing and ": 2645,
      ", what ": 2646,
      "conceiv": 2647,
      "step": 2648,
      "lip": 2649,
      "lied ": 2650,
      "for that ": 2651,
      " army ": 2652,
      "cious ": 2653,
      "s, he ": 2654,
      "right ": 2655,
      "again": 2656,
      "we have ": 2657,
      "sense ": 2658,
      "ance and ": 2659,
      "design": 2660,
      "fail": 2661,
      " appear ": 2662,
      "sufficient to ": 2663,
      "rule": 2664,
      "ourselves ": 2665,
      "whatever ": 2666,
      "frequently ": 2667,
      "isible ": 2668,
      ", whether ": 2669,
      "embrac": 2670,
      "cultiv": 2671,
      "etr": 2672,
      "ph": 2673,
      "tak": 2674,
      "zeal": 2675,
      " a t": 2676,
      "on this ": 2677,
      "especi": 2678,
      ". D": 2679,
      "ing their ": 2680,
      " to us": 2681,
      "conver": 2682,
      "very": 2683,
      "leave ": 2684,
      " to any ": 2685,
      "delic": 2686,
      "provid": 2687,
      "ety of ": 2688,
      "work": 2689,
      "ock": 2690,
      ". It is": 2691,
      "child": 2692,
      "farther": 2693,
      "satisfaction": 2694,
      "comparison ": 2695,
      "usual ": 2696,
      "civil ": 2697,
      "betwix": 2698,
      "lizabe": 2699,
      "inhabitant": 2700,
      "; as ": 2701,
      "ice ": 2702,
      "rest ": 2703,
      "reign": 2704,
      "y is ": 2705,
      "es.": 2706,
      "ary, ": 2707,
      "stri": 2708,
      "see ": 2709,
      "in its ": 2710,
      "be the ": 2711,
      "othing ": 2712,
      "proof": 2713,
      "; yet ": 2714,
      "short": 2715,
      "ence, and ": 2716,
      " almost ": 2717,
      "; and this ": 2718,
      "council": 2719,
      "order ": 2720,
      ", which they ": 2721,
      "seems to ": 2722,
      "much more ": 2723,
      " afford": 2724,
      "conclud": 2725,
      "spirit": 2726,
      "begin": 2727,
      "similar ": 2728,
      "infinit": 2729,
      " approach": 2730,
      "mutual ": 2731,
      " absurd": 2732,
      "tholic": 2733,
      "\" ": 2734,
      "; a ": 2735,
      "; though ": 2736,
      "spr": 2737,
      "sour": 2738,
      "on, ": 2739,
      "of their": 2740,
      "there ": 2741,
      "es are ": 2742,
      "comman": 2743,
      "essenti": 2744,
      "serv": 2745,
      "other hand": 2746,
      "ately ": 2747,
      "relation ": 2748,
      "ed with a ": 2749,
      "happen": 2750,
      "belie": 2751,
      " term": 2752,
      "doubt": 2753,
      "perception": 2754,
      ", according to the ": 2755,
      "ROMAN ": 2756,
      "always ": 2757,
      "ach ": 2758,
      "cop": 2759,
      "get": 2760,
      "house": 2761,
      "writ": 2762,
      " any thing ": 2763,
      "thing ": 2764,
      "ed that ": 2765,
      "confirm": 2766,
      "lies ": 2767,
      "let": 2768,
      "let ": 2769,
      "perpetu": 2770,
      "inten": 2771,
      "displa": 2772,
      "ity to ": 2773,
      ", whom ": 2774,
      "ence of the ": 2775,
      "ough ": 2776,
      "ous to ": 2777,
      "rather ": 2778,
      " appre": 2779,
      "ministr": 2780,
      " abstr": 2781,
      "but the ": 2782,
      "committ": 2783,
      " though the ": 2784,
      "cru": 2785,
      "contrary ": 2786,
      "resist": 2787,
      "consequences": 2788,
      " acquaint": 2789,
      "judgment ": 2790,
      "Edward": 2791,
      "betwixt": 2792,
      "constitution": 2793,
      " those of ": 2794,
      " tendenc": 2795,
      "Or": 2796,
      "god": 2797,
      " tal": 2798,
      "of all the ": 2799,
      "escap": 2800,
      "eck": 2801,
      "seiz": 2802,
      " wor": 2803,
      "persu": 2804,
      "ult": 2805,
      "ute ": 2806,
      "obedi": 2807,
      "obtain": 2808,
      "e that": 2809,
      " actu": 2810,
      "motion": 2811,
      "ance of the ": 2812,
      "every one ": 2813,
      "commis": 2814,
      "poin": 2815,
      " attain": 2816,
      "imagination ": 2817,
      "virtue ": 2818,
      "pursu": 2819,
      "consequence": 2820,
      "money": 2821,
      "divid": 2822,
      "popular ": 2823,
      "bestow": 2824,
      "endeavour to ": 2825,
      "royal ": 2826,
      "I am ": 2827,
      "mistak": 2828,
      "exercis": 2829,
      "experiment": 2830,
      "BR": 2831,
      "Be": 2832,
      "Elizabe": 2833,
      "Lond": 2834,
      "bre": 2835,
      "batt": 2836,
      "fanc": 2837,
      "last": 2838,
      "s it ": 2839,
      "s for ": 2840,
      "arm": 2841,
      "ed for ": 2842,
      "ed him ": 2843,
      "is more ": 2844,
      "in some ": 2845,
      "sid": 2846,
      "dem": 2847,
      "preme ": 2848,
      "utmost ": 2849,
      "; since ": 2850,
      "him to ": 2851,
      "so many ": 2852,
      "so much": 2853,
      " actions": 2854,
      "indulg": 2855,
      " alter": 2856,
      ". When ": 2857,
      "disturb": 2858,
      "consider the ": 2859,
      " affirm": 2860,
      "useful": 2861,
      ". Su": 2862,
      "principles ": 2863,
      "simple ": 2864,
      "bitr": 2865,
      "e they ": 2866,
      "Philip": 2867,
      "way ": 2868,
      "fully ": 2869,
      "affection": 2870,
      "matter of ": 2871,
      "ISH ": 2872,
      "extremely ": 2873,
      "illiam": 2874,
      "gument ": 2875,
      "pan": 2876,
      "insist": 2877,
      "offer": 2878,
      "that": 2879,
      "ing to the ": 2880,
      "confid": 2881,
      "lie ": 2882,
      "lead": 2883,
      "ation.": 2884,
      "urn ": 2885,
      "acy": 2886,
      "compa": 2887,
      "given ": 2888,
      "from his ": 2889,
      "foll": 2890,
      "interrup": 2891,
      "it is impossible ": 2892,
      "relat": 2893,
      "which are ": 2894,
      "required": 2895,
      "pretension": 2896,
      "exclu": 2897,
      "continued ": 2898,
      "object of ": 2899,
      "qualities ": 2900,
      "possessed ": 2901,
      "double ": 2902,
      "enemy": 2903,
      " advantage": 2904,
      "comparison": 2905,
      "bene": 2906,
      "small": 2907,
      "rank": 2908,
      "false": 2909,
      "Philo": 2910,
      "destroy": 2911,
      "dominion": 2912,
      "orrow": 2913,
      "chiefly ": 2914,
      "speak": 2915,
      "SP": 2916,
      "ger": 2917,
      "hal": 2918,
      "iet": 2919,
      "nation ": 2920,
      "oop": 2921,
      "s; and": 2922,
      "s to be ": 2923,
      "ted": 2924,
      "usur": 2925,
      " temper": 2926,
      "s on ": 2927,
      ", be ": 2928,
      ", being ": 2929,
      "of all": 2930,
      "prim": 2931,
      "sil": 2932,
      "force": 2933,
      "of the same ": 2934,
      "amp": 2935,
      ". That ": 2936,
      "not only ": 2937,
      "ought to ": 2938,
      "sh ": 2939,
      "catholic": 2940,
      "field": 2941,
      "fidel": 2942,
      "soli": 2943,
      " attention": 2944,
      "pain ": 2945,
      "sion of the ": 2946,
      "whole": 2947,
      "; where ": 2948,
      ": The": 2949,
      " agreeable ": 2950,
      "change ": 2951,
      "member": 2952,
      "likew": 2953,
      "volunt": 2954,
      "destruc": 2955,
      "more than ": 2956,
      "left ": 2957,
      "future ": 2958,
      "au": 2959,
      "call ": 2960,
      "e, the ": 2961,
      "junc": 2962,
      "nex": 2963,
      "s: ": 2964,
      "usi": 2965,
      "on a ": 2966,
      "t or ": 2967,
      "of them ": 2968,
      "reti": 2969,
      "argument": 2970,
      " a man ": 2971,
      "ste": 2972,
      "st the ": 2973,
      "forces": 2974,
      "det": 2975,
      "expression": 2976,
      "mad": 2977,
      "event ": 2978,
      "whe": 2979,
      " they were ": 2980,
      "plan": 2981,
      "vel": 2982,
      "greater": 2983,
      "period": 2984,
      "course": 2985,
      "relation of ": 2986,
      "every": 2987,
      "instea": 2988,
      "second": 2989,
      "; while ": 2990,
      "produces": 2991,
      "produces ": 2992,
      "mission": 2993,
      " army": 2994,
      ", where the ": 2995,
      "ness of ": 2996,
      "violent ": 2997,
      " who ": 2998,
      " absolute ": 2999,
      " is ": 3000,
      "lord": 3001,
      "sha": 3002,
      "want": 3003,
      "y are ": 3004,
      "e to": 3005,
      " and in": 3006,
      "liv": 3007,
      "ford ": 3008,
      "man, ": 3009,
      "comb": 3010,
      "e this ": 3011,
      "ence to ": 3012,
      " assur": 3013,
      "near ": 3014,
      " all his ": 3015,
      "subsist": 3016,
      "I shall ": 3017,
      "? The ": 3018,
      ", we shall ": 3019,
      "ortun": 3020,
      "species": 3021,
      "might be ": 3022,
      "preserv": 3023,
      "infinite ": 3024,
      "comprehen": 3025,
      " answer": 3026,
      "figure": 3027,
      "prais": 3028,
      "scrup": 3029,
      "DI": 3030,
      "EL": 3031,
      "PH": 3032,
      "land ": 3033,
      "moun": 3034,
      "oll": 3035,
      "ogi": 3036,
      "son ": 3037,
      "ert ": 3038,
      "s be ": 3039,
      "s not ": 3040,
      "enci": 3041,
      "is there ": 3042,
      "alog": 3043,
      "it.": 3044,
      "chur": 3045,
      "ed in a ": 3046,
      "is it ": 3047,
      "side ": 3048,
      "force and ": 3049,
      " to them": 3050,
      "intro": 3051,
      "objection": 3052,
      "s, in ": 3053,
      "monstr": 3054,
      " acknowledg": 3055,
      "ity or ": 3056,
      "cession": 3057,
      "ously ": 3058,
      " altogether ": 3059,
      "ticism": 3060,
      "few": 3061,
      "propens": 3062,
      "consider ": 3063,
      "England ": 3064,
      "seem ": 3065,
      "world ": 3066,
      "mind, ": 3067,
      "religious ": 3068,
      "merit ": 3069,
      "satisfac": 3070,
      "believ": 3071,
      "promot": 3072,
      "connexion ": 3073,
      "constant ": 3074,
      "deliver": 3075,
      "suspici": 3076,
      "security": 3077,
      "genius": 3078,
      ", they are ": 3079,
      "PL": 3080,
      "Rom": 3081,
      "Su": 3082,
      "UR": 3083,
      "ice": 3084,
      "ies, ": 3085,
      "pit": 3086,
      "wo": 3087,
      " ty": 3088,
      " thes": 3089,
      " three ": 3090,
      "onder": 3091,
      "recon": 3092,
      "really ": 3093,
      "recourse ": 3094,
      "tici": 3095,
      "time": 3096,
      "es to ": 3097,
      "ating ": 3098,
      "ing this ": 3099,
      "convey": 3100,
      "contigu": 3101,
      "ses ": 3102,
      "noble ": 3103,
      ", ad": 3104,
      "s of men": 3105,
      ", and that": 3106,
      "monar": 3107,
      "gives": 3108,
      "meet": 3109,
      "ility of ": 3110,
      "which is ": 3111,
      "submit": 3112,
      ", to be ": 3113,
      ". Where ": 3114,
      ", which the ": 3115,
      "power of ": 3116,
      ". His ": 3117,
      "occur": 3118,
      "even the ": 3119,
      "sufficiently ": 3120,
      "mix": 3121,
      "peace": 3122,
      "naturally": 3123,
      "state of ": 3124,
      "e them ": 3125,
      "comprehend": 3126,
      "hundred ": 3127,
      "blood": 3128,
      ", an ": 3129,
      "William": 3130,
      "best ": 3131,
      "ities": 3132,
      "oint": 3133,
      "sist ": 3134,
      " tast": 3135,
      "erog": 3136,
      "org": 3137,
      "ant of ": 3138,
      "es; and ": 3139,
      " and most ": 3140,
      "prerog": 3141,
      "convers": 3142,
      "sud": 3143,
      "ations, ": 3144,
      "ourish": 3145,
      "olog": 3146,
      ": [": 3147,
      "by their ": 3148,
      " assign": 3149,
      ", which was ": 3150,
      "whose ": 3151,
      " alli": 3152,
      " the sec": 3153,
      "somew": 3154,
      "too ": 3155,
      "subst": 3156,
      "intern": 3157,
      "guil": 3158,
      ", we are ": 3159,
      "better": 3160,
      "passions ": 3161,
      "domes": 3162,
      "foundation ": 3163,
      "retain": 3164,
      "happy ": 3165,
      "difficulty ": 3166,
      "Scotti": 3167,
      "causes ": 3168,
      "family ": 3169,
      "humility": 3170,
      "industry": 3171,
      "rann": 3172,
      "politic": 3173,
      "individual": 3174,
      ". On the ": 3175,
      "Rich": 3176,
      "believe ": 3177,
      "commission": 3178,
      "somewhat ": 3179,
      "Ar": 3180,
      "Gu": 3181,
      "dr": 3182,
      "iti": 3183,
      "know ": 3184,
      "soul": 3185,
      "tag": 3186,
      ", nor ": 3187,
      "repe": 3188,
      "ori": 3189,
      " and more ": 3190,
      "is an ": 3191,
      "omin": 3192,
      "confu": 3193,
      "consci": 3194,
      ", and of ": 3195,
      "beha": 3196,
      " and a ": 3197,
      "man of ": 3198,
      "term": 3199,
      "ridic": 3200,
      "ly to the ": 3201,
      " ask": 3202,
      " accident": 3203,
      "all the ": 3204,
      "e of his ": 3205,
      " as well": 3206,
      "reasonable ": 3207,
      "contriv": 3208,
      "facil": 3209,
      " appea": 3210,
      "was a ": 3211,
      "US, ": 3212,
      "ground": 3213,
      ", inde": 3214,
      ". Now": 3215,
      "people, ": 3216,
      "distinction": 3217,
      "wisdom": 3218,
      "rebell": 3219,
      "before the ": 3220,
      "vivac": 3221,
      "estimon": 3222,
      "London": 3223,
      "'S ": 3224,
      "Ch": 3225,
      "Con": 3226,
      "could": 3227,
      "e.": 3228,
      "furn": 3229,
      "ires": 3230,
      "kill": 3231,
      "lam": 3232,
      "pol": 3233,
      "went": 3234,
      "your": 3235,
      " tit": 3236,
      "ender": 3237,
      "t of the ": 3238,
      "ann": 3239,
      "ancient": 3240,
      "es, the ": 3241,
      "itary ": 3242,
      "conjunc": 3243,
      "lebr": 3244,
      "ing of the ": 3245,
      "perceive ": 3246,
      "manu": 3247,
      "quan": 3248,
      "improv": 3249,
      "without": 3250,
      "dissol": 3251,
      ", that all ": 3252,
      "lay": 3253,
      " according": 3254,
      ". As ": 3255,
      " along": 3256,
      ". What ": 3257,
      "cannot": 3258,
      "founded on ": 3259,
      "supposed to ": 3260,
      "necessity": 3261,
      "secret ": 3262,
      " time, ": 3263,
      "subjects": 3264,
      "make a ": 3265,
      "influence": 3266,
      "mixt": 3267,
      "IAN ": 3268,
      "fortune ": 3269,
      "remov": 3270,
      "modern ": 3271,
      "draw ": 3272,
      "Edward ": 3273,
      "can never be ": 3274,
      "util": 3275,
      "rebel": 3276,
      "carry ": 3277,
      "sometimes ": 3278,
      "BRIT": 3279,
      "Mon": 3280,
      "RA": 3281,
      "cen": 3282,
      "gold": 3283,
      "ias": 3284,
      "kep": 3285,
      "ated by ": 3286,
      "it to ": 3287,
      "ed an": 3288,
      "ed on the ": 3289,
      "condi": 3290,
      "is so ": 3291,
      "stric": 3292,
      "celebr": 3293,
      " towards ": 3294,
      "may, ": 3295,
      "uncertaint": 3296,
      "our own ": 3297,
      "; and it is ": 3298,
      "ured": 3299,
      "we can ": 3300,
      "meet ": 3301,
      "form a ": 3302,
      "mov": 3303,
      "commend": 3304,
      "princip": 3305,
      "cause and ": 3306,
      "easy ": 3307,
      ". But the ": 3308,
      "reach ": 3309,
      "immediately": 3310,
      "peace ": 3311,
      " advantage ": 3312,
      "derived from the ": 3313,
      ", at least": 3314,
      " admir": 3315,
      "property ": 3316,
      "usual": 3317,
      "queen ": 3318,
      "inclination": 3319,
      "pride and ": 3320,
      "scarcely ": 3321,
      "opportun": 3322,
      "AIN": 3323,
      "Dem": 3324,
      "If": 3325,
      "To ": 3326,
      "What ": 3327,
      "]}": 3328,
      "clear": 3329,
      "egi": 3330,
      "hor": 3331,
      "hos": 3332,
      "here": 3333,
      "pt": 3334,
      "ting ": 3335,
      "inform": 3336,
      ", on": 3337,
      ", in a ": 3338,
      "conceive ": 3339,
      "set ": 3340,
      "deep": 3341,
      "impression ": 3342,
      "ably ": 3343,
      "ent of ": 3344,
      ", what": 3345,
      "olk": 3346,
      "ility, ": 3347,
      " the so": 3348,
      "ant and ": 3349,
      "foreg": 3350,
      "hea": 3351,
      " at the same ": 3352,
      "guard": 3353,
      "objects, ": 3354,
      " at present": 3355,
      " at last ": 3356,
      "plain ": 3357,
      "privi": 3358,
      "uniform": 3359,
      "succe": 3360,
      "probable": 3361,
      "ness and ": 3362,
      "succession": 3363,
      "endeavoured": 3364,
      "property": 3365,
      "something ": 3366,
      "further ": 3367,
      "separate ": 3368,
      "perfectly ": 3369,
      "GREECE": 3370,
      "material": 3371,
      "piec": 3372,
      "cruel": 3373,
      "forego": 3374,
      "Nat": 3375,
      "cre": 3376,
      "mid": 3377,
      "ry": 3378,
      "s that ": 3379,
      "wr": 3380,
      ", his ": 3381,
      "thert": 3382,
      "tions of ": 3383,
      "ed as": 3384,
      "supreme ": 3385,
      "ent, ": 3386,
      ", and is ": 3387,
      " what": 3388,
      "among": 3389,
      "from them": 3390,
      "poster": 3391,
      "disagre": 3392,
      ", ab": 3393,
      ", all ": 3394,
      "true ": 3395,
      "negl": 3396,
      "from one ": 3397,
      "antly ": 3398,
      "not a ": 3399,
      "saf": 3400,
      "foot": 3401,
      "ation or ": 3402,
      "counter": 3403,
      " age": 3404,
      "contribut": 3405,
      "faith": 3406,
      "case, ": 3407,
      " thought ": 3408,
      "what is ": 3409,
      "timate ": 3410,
      "support ": 3411,
      ". Thus": 3412,
      "conclude": 3413,
      "circumstance ": 3414,
      "ness ": 3415,
      "body ": 3416,
      ", who, ": 3417,
      ": That ": 3418,
      "divine ": 3419,
      " agree": 3420,
      "memor": 3421,
      "larg": 3422,
      "replied ": 3423,
      "daugh": 3424,
      "ITAL": 3425,
      "enjoyment": 3426,
      "love and ": 3427,
      "preserve ": 3428,
      "remarkable ": 3429,
      "convinc": 3430,
      "superstition": 3431,
      "conquest": 3432,
      "readily ": 3433,
      "inferior": 3434,
      "vict": 3435,
      "peculiar ": 3436,
      ", they": 3437,
      "bir": 3438,
      "cul": 3439,
      "wonder": 3440,
      "x ": 3441,
      "xur": 3442,
      "ere, ": 3443,
      "encourag": 3444,
      "or a ": 3445,
      "this ": 3446,
      "hithert": 3447,
      "ing, and ": 3448,
      "ed all ": 3449,
      "condem": 3450,
      "sive": 3451,
      ", and even ": 3452,
      " to those ": 3453,
      "or of ": 3454,
      "ush": 3455,
      "imit": 3456,
      "on his ": 3457,
      "by that ": 3458,
      "have the ": 3459,
      "given": 3460,
      "melan": 3461,
      "nego": 3462,
      ". All ": 3463,
      "? And ": 3464,
      "difference": 3465,
      "cept": 3466,
      "extensive ": 3467,
      "manners": 3468,
      "laws of ": 3469,
      "soldi": 3470,
      "curi": 3471,
      "obligation": 3472,
      "system of ": 3473,
      "perhaps ": 3474,
      "memb": 3475,
      " think ": 3476,
      "modern": 3477,
      "false ": 3478,
      "further": 3479,
      "indeed ": 3480,
      "ires ": 3481,
      "practice ": 3482,
      "crimin": 3483,
      " ambition": 3484,
      "excell": 3485,
      "lively ": 3486,
      "notwithstand": 3487,
      "especially ": 3488,
      "Elizabeth": 3489,
      "solid": 3490,
      "stead": 3491,
      "behavi": 3492,
      "manufact": 3493,
      "melancho": 3494,
      "Al": 3495,
      "CA": 3496,
      "The": 3497,
      "cles": 3498,
      "rom": 3499,
      "s, we ": 3500,
      "wit": 3501,
      "ince ": 3502,
      "instruc": 3503,
      ", by the ": 3504,
      " the whole ": 3505,
      "essi": 3506,
      "aris": 3507,
      "ali": 3508,
      "ed, in ": 3509,
      " to him": 3510,
      "er of the ": 3511,
      "pride": 3512,
      "stock": 3513,
      "deem": 3514,
      " arbitr": 3515,
      "unknown": 3516,
      "cial": 3517,
      "mankind ": 3518,
      "mortal": 3519,
      ": N": 3520,
      "our of the ": 3521,
      ". The same ": 3522,
      "cester": 3523,
      " all their ": 3524,
      "met": 3525,
      " an in": 3526,
      "; and as ": 3527,
      "subdu": 3528,
      "head ": 3529,
      "look": 3530,
      "distance ": 3531,
      "distant ": 3532,
      "earth": 3533,
      " attribut": 3534,
      "seemed ": 3535,
      "worth": 3536,
      "second ": 3537,
      "time, ": 3538,
      "impul": 3539,
      "merch": 3540,
      "difficulty": 3541,
      "senses": 3542,
      "justly ": 3543,
      "often": 3544,
      ". Every ": 3545,
      "derived from ": 3546,
      "royal": 3547,
      "nobility": 3548,
      "Cleanthes": 3549,
      "bishop of ": 3550,
      "elev": 3551,
      "remote ": 3552,
      "sacri": 3553,
      "historian": 3554,
      "persuad": 3555,
      "DE": 3556,
      "etern": 3557,
      "gg": 3558,
      "go ": 3559,
      "ili": 3560,
      "m ": 3561,
      "oy ": 3562,
      "ty of ": 3563,
      "ull": 3564,
      " aver": 3565,
      " thir": 3566,
      "restrain": 3567,
      "alter": 3568,
      "ed; and ": 3569,
      ", and which ": 3570,
      " we": 3571,
      " argument ": 3572,
      "presum": 3573,
      "intention": 3574,
      "from this ": 3575,
      "project": 3576,
      " of his ": 3577,
      "laid ": 3578,
      "age, ": 3579,
      " them to ": 3580,
      "ity is ": 3581,
      "need ": 3582,
      "; and that": 3583,
      "propag": 3584,
      ", with the ": 3585,
      "contempl": 3586,
      "ott": 3587,
      "has no ": 3588,
      " attempt": 3589,
      "necessi": 3590,
      "could be ": 3591,
      "explic": 3592,
      "dece": 3593,
      "if he ": 3594,
      "virtues": 3595,
      "wards": 3596,
      "y thing": 3597,
      "suffer": 3598,
      "means of ": 3599,
      "society, ": 3600,
      "ideas of ": 3601,
      "crib": 3602,
      "satisfact": 3603,
      ", than the ": 3604,
      "system ": 3605,
      "cannot be ": 3606,
      "formerly ": 3607,
      "sciences": 3608,
      "defend": 3609,
      "coll": 3610,
      "grati": 3611,
      "protection": 3612,
      "resolution": 3613,
      "prisoner": 3614,
      "neighbouring ": 3615,
      " absolutely ": 3616,
      "banish": 3617,
      "scen": 3618,
      "a(1754": 3619,
      "quarrel": 3620,
      "mirac": 3621,
      "ENGLAND": 3622,
      "multip": 3623,
      "{Va(1754": 3624,
      "narrow ": 3625,
      "capable of ": 3626,
      "confusion": 3627,
      "Le": 3628,
      "ST": 3629,
      "back": 3630,
      "four": 3631,
      "hin": 3632,
      "ily ": 3633,
      "sch": 3634,
      "ue, ": 3635,
      "y, the ": 3636,
      "s us": 3637,
      "s from the ": 3638,
      "s on the ": 3639,
      ", from the ": 3640,
      "or, ": 3641,
      "tiqu": 3642,
      ". G": 3643,
      "it, and ": 3644,
      "chas": 3645,
      "osity": 3646,
      "conjoin": 3647,
      "ently": 3648,
      "sto": 3649,
      "deform": 3650,
      "ure and ": 3651,
      " arr": 3652,
      "accoun": 3653,
      ", ap": 3654,
      "; it ": 3655,
      "; because ": 3656,
      "vice ": 3657,
      "have been": 3658,
      "pell": 3659,
      "ments": 3660,
      ", that we ": 3661,
      " the senti": 3662,
      "with regard to ": 3663,
      " an un": 3664,
      "wel": 3665,
      "say, ": 3666,
      "submission": 3667,
      "luxur": 3668,
      "? H": 3669,
      ". Here ": 3670,
      "brought ": 3671,
      "supposed ": 3672,
      "longer ": 3673,
      " authority, ": 3674,
      ", when he ": 3675,
      "violence": 3676,
      "summon": 3677,
      "beget": 3678,
      ": That": 3679,
      "favourable ": 3680,
      "influence on the ": 3681,
      "denomin": 3682,
      ", when we ": 3683,
      "humour": 3684,
      " transi": 3685,
      "individual ": 3686,
      "appoint": 3687,
      " approbation": 3688,
      "John ": 3689,
      "reconci": 3690,
      "organ": 3691,
      "Demea": 3692,
      "behaviour": 3693,
      "{Va(1754), ": 3694,
      ", an": 3695,
      "ET": 3696,
      "God": 3697,
      "band": 3698,
      "cup": 3699,
      "e, who ": 3700,
      "ga": 3701,
      "ler": 3702,
      "native ": 3703,
      "odi": 3704,
      "tend": 3705,
      ", so ": 3706,
      " to our ": 3707,
      "consent ": 3708,
      "suscep": 3709,
      "before": 3710,
      " artifi": 3711,
      "uncertain": 3712,
      "s, by ": 3713,
      "partiz": 3714,
      ", among": 3715,
      "e these ": 3716,
      ": A": 3717,
      "y, or ": 3718,
      "was not ": 3719,
      " almost": 3720,
      "to a ": 3721,
      "fellow": 3722,
      "sublim": 3723,
      "tude": 3724,
      "desire ": 3725,
      " trust": 3726,
      " with a ": 3727,
      "entire ": 3728,
      "pati": 3729,
      "became ": 3730,
      "passions, ": 3731,
      "necessity ": 3732,
      "decid": 3733,
      "persons ": 3734,
      "sentiment ": 3735,
      " always": 3736,
      "corrup": 3737,
      "consequence ": 3738,
      "like manner": 3739,
      "attend": 3740,
      "sensib": 3741,
      "only to ": 3742,
      "rule ": 3743,
      "; but the ": 3744,
      " throw": 3745,
      "legis": 3746,
      "question ": 3747,
      "like": 3748,
      "death ": 3749,
      ": And the ": 3750,
      "protest": 3751,
      "called ": 3752,
      "commerce ": 3753,
      "inferior ": 3754,
      "result ": 3755,
      "necessarily ": 3756,
      "Scottish ": 3757,
      "CI": 3758,
      "Rob": 3759,
      "TI": 3760,
      "UT": 3761,
      "bad ": 3762,
      "cus": 3763,
      "dre": 3764,
      "ft": 3765,
      "fy ": 3766,
      "fat": 3767,
      "fem": 3768,
      "hold": 3769,
      "igi": 3770,
      "low ": 3771,
      "mur": 3772,
      "vain": 3773,
      "vass": 3774,
      "ying ": 3775,
      "injur": 3776,
      "recommend": 3777,
      "ed this ": 3778,
      "conspir": 3779,
      " together": 3780,
      "us a ": 3781,
      "prepar": 3782,
      "dig": 3783,
      "acy ": 3784,
      "come ": 3785,
      "position": 3786,
      "disadvantag": 3787,
      "parti": 3788,
      ", as to ": 3789,
      "proc": 3790,
      ", that these ": 3791,
      "him a ": 3792,
      "whom": 3793,
      " action ": 3794,
      "ever be ": 3795,
      "no one ": 3796,
      "others, ": 3797,
      "wealth": 3798,
      " at a ": 3799,
      "some other ": 3800,
      ", we must ": 3801,
      "poet": 3802,
      "contract": 3803,
      "understand": 3804,
      "blame ": 3805,
      ". Nothing ": 3806,
      "depend ": 3807,
      "entirely": 3808,
      "religion ": 3809,
      "sentiments": 3810,
      "certainly ": 3811,
      "attribut": 3812,
      "France ": 3813,
      "received ": 3814,
      "country ": 3815,
      "esteemed ": 3816,
      "divin": 3817,
      "years": 3818,
      "good-": 3819,
      "regular ": 3820,
      "science": 3821,
      "high ": 3822,
      "e themsel": 3823,
      "intelligi": 3824,
      "slaves": 3825,
      "moment ": 3826,
      "countri": 3827,
      "obvious ": 3828,
      " advanc": 3829,
      "vulgar ": 3830,
      "speculative ": 3831,
      "betwixt ": 3832,
      "essential": 3833,
      "let us ": 3834,
      "internal ": 3835,
      "condemn": 3836,
      "femal": 3837,
      "AM": 3838,
      "OD": 3839,
      "OM": 3840,
      "ath": 3841,
      "city": 3842,
      "cest": 3843,
      "dread": 3844,
      "none ": 3845,
      "overy ": 3846,
      "pound": 3847,
      "round": 3848,
      "tri": 3849,
      "in an ": 3850,
      "onom": 3851,
      "on their ": 3852,
      "s it": 3853,
      "s by ": 3854,
      "enth": 3855,
      "eness": 3856,
      ", for ": 3857,
      ", but": 3858,
      "reat ": 3859,
      " ancient": 3860,
      "tiv": 3861,
      "ouch": 3862,
      "ed, the ": 3863,
      "hav": 3864,
      "sun": 3865,
      "live ": 3866,
      "urg": 3867,
      "embra": 3868,
      "es in ": 3869,
      "did": 3870,
      "cial ": 3871,
      "intri": 3872,
      "compla": 3873,
      "obst": 3874,
      "s of our ": 3875,
      ": W": 3876,
      ", and that the ": 3877,
      " as they ": 3878,
      "whom ": 3879,
      "ments of ": 3880,
      "e, in ": 3881,
      " the sens": 3882,
      " alone": 3883,
      "spect": 3884,
      "ety ": 3885,
      "fell ": 3886,
      ". By ": 3887,
      "regard ": 3888,
      "contemp": 3889,
      ". What": 3890,
      "polic": 3891,
      " attach": 3892,
      "easy": 3893,
      "suppose ": 3894,
      "march": 3895,
      "occup": 3896,
      "priest": 3897,
      "powerful ": 3898,
      "commonwealth": 3899,
      "personal ": 3900,
      "avo": 3901,
      "give a ": 3902,
      "gros": 3903,
      "might": 3904,
      ", in this ": 3905,
      "ion of ": 3906,
      "during ": 3907,
      "satisfi": 3908,
      "began": 3909,
      "states": 3910,
      ". Our ": 3911,
      "history": 3912,
      "heart": 3913,
      "remain ": 3914,
      "political ": 3915,
      "Normand": 3916,
      "marriage ": 3917,
      "service": 3918,
      "requisite to ": 3919,
      "hundred": 3920,
      "material ": 3921,
      "philosophy, ": 3922,
      "emotion": 3923,
      "James ": 3924,
      " assemb": 3925,
      "pronounce ": 3926,
      "after": 3927,
      "griev": 3928,
      "command ": 3929,
      "letter": 3930,
      "satisfaction ": 3931,
      "prerogati": 3932,
      "clesias": 3933,
      ".1": 3934,
      "0,000 ": 3935,
      ": and ": 3936,
      "Wal": 3937,
      "care ": 3938,
      "fab": 3939,
      "hus": 3940,
      "oke ": 3941,
      "s, that": 3942,
      "ty, ": 3943,
      "vain ": 3944,
      " are": 3945,
      "ors, ": 3946,
      "thir": 3947,
      "then ": 3948,
      "ed; ": 3949,
      "ed as a ": 3950,
      "sugg": 3951,
      "ent and ": 3952,
      "for this ": 3953,
      "force of ": 3954,
      "ing it": 3955,
      "mach": 3956,
      "impossible": 3957,
      "ack ": 3958,
      "parent": 3959,
      ", when the ": 3960,
      "viz": 3961,
      ": Y": 3962,
      "duce ": 3963,
      "adv": 3964,
      "from it": 3965,
      "ate and ": 3966,
      "identi": 3967,
      "rav": 3968,
      "ation is ": 3969,
      "men are ": 3970,
      ", who were ": 3971,
      " trad": 3972,
      "contrari": 3973,
      "parts of ": 3974,
      "can we ": 3975,
      "difficulties": 3976,
      "nothing but ": 3977,
      "nothing but a ": 3978,
      "judge ": 3979,
      " account": 3980,
      "profes": 3981,
      "highest ": 3982,
      "principles, ": 3983,
      "extrem": 3984,
      "myself": 3985,
      "principle of ": 3986,
      "perceptions": 3987,
      "probably ": 3988,
      "commod": 3989,
      "commerce": 3990,
      "French": 3991,
      "phenomena": 3992,
      "contradiction": 3993,
      "centur": 3994,
      "busines": 3995,
      "besides": 3996,
      "extraordinary ": 3997,
      "display": 3998,
      " apprehen": 3999,
      ". Such ": 4000,
      "likewise ": 4001,
      "church": 4002,
      "succeed": 4003,
      "neglect": 4004,
      "susceptible ": 4005,
      "Ia(175": 4006,
      "Yor": 4007,
      "four ": 4008,
      "gment": 4009,
      "ho ": 4010,
      "hur": 4011,
      "s as ": 4012,
      "ution ": 4013,
      "y. The ": 4014,
      "e in ": 4015,
      " then": 4016,
      "inven": 4017,
      "on that ": 4018,
      "s with": 4019,
      ", not ": 4020,
      "any": 4021,
      "these ": 4022,
      "ing these ": 4023,
      "ecclesias": 4024,
      "seas": 4025,
      "sick": 4026,
      " to take ": 4027,
      "making": 4028,
      "union": 4029,
      "cious": 4030,
      "perceiv": 4031,
      "al of ": 4032,
      "utter": 4033,
      "proof ": 4034,
      "view ": 4035,
      "in the world": 4036,
      "trans": 4037,
      "him, ": 4038,
      " associ": 4039,
      "and the ": 4040,
      "show": 4041,
      ", that it is ": 4042,
      " accustom": 4043,
      " the sp": 4044,
      "up ": 4045,
      " already ": 4046,
      "; and a ": 4047,
      "fel": 4048,
      "motion ": 4049,
      "ides ": 4050,
      " attemp": 4051,
      "would have ": 4052,
      "party ": 4053,
      " appetit": 4054,
      "extension": 4055,
      " afford ": 4056,
      "imagine": 4057,
      " times": 4058,
      "standard": 4059,
      "effort": 4060,
      " appearance": 4061,
      "excite ": 4062,
      "inference": 4063,
      "becomes ": 4064,
      " account of ": 4065,
      "invad": 4066,
      "beauti": 4067,
      "pretend to ": 4068,
      " terr": 4069,
      "gradu": 4070,
      " which the ": 4071,
      "important ": 4072,
      "flourish": 4073,
      "master ": 4074,
      "prosp": 4075,
      " transp": 4076,
      "obvious": 4077,
      "more than": 4078,
      ". You ": 4079,
      " applic": 4080,
      "necessary to ": 4081,
      "buil": 4082,
      "hypothesis": 4083,
      " ascribe ": 4084,
      "concurr": 4085,
      "correct": 4086,
      "commodities": 4087,
      "disgust": 4088,
      "children": 4089,
      "beginn": 4090,
      "usurp": 4091,
      "combin": 4092,
      "sudden": 4093,
      "privileg": 4094,
      "foregoing ": 4095,
      "intrigu": 4096,
      "avoid": 4097,
      "clos": 4098,
      "down": 4099,
      "fund": 4100,
      "mill": 4101,
      "pover": 4102,
      "physi": 4103,
      "ration": 4104,
      "whi": 4105,
      "yi": 4106,
      "s was ": 4107,
      ", no ": 4108,
      "issu": 4109,
      "check": 4110,
      "ed them ": 4111,
      "for the s": 4112,
      " to these ": 4113,
      " to another": 4114,
      "opul": 4115,
      "emon": 4116,
      " are not ": 4117,
      "lay ": 4118,
      " any one ": 4119,
      "ages": 4120,
      "seldom": 4121,
      "so great": 4122,
      "when the ": 4123,
      "ity in ": 4124,
      " allegi": 4125,
      ". Af": 4126,
      "with his ": 4127,
      "umber": 4128,
      "ardin": 4129,
      " appla": 4130,
      "reason, ": 4131,
      " addition": 4132,
      " ages": 4133,
      " again ": 4134,
      ", who was ": 4135,
      "magni": 4136,
      "court of ": 4137,
      "incur": 4138,
      " troop": 4139,
      "thern ": 4140,
      "renew": 4141,
      "suppose": 4142,
      "require ": 4143,
      "if they ": 4144,
      "instinc": 4145,
      "blam": 4146,
      "commonly": 4147,
      "even w": 4148,
      "ness, ": 4149,
      "sensible": 4150,
      "only the ": 4151,
      "sense of ": 4152,
      "fortune": 4153,
      "road": 4154,
      "calcul": 4155,
      "where the ": 4156,
      "populous": 4157,
      "These ": 4158,
      "when we ": 4159,
      "resemblance ": 4160,
      "fruit": 4161,
      "vulgar": 4162,
      "conceal": 4163,
      "break": 4164,
      "falseho": 4165,
      "instead of ": 4166,
      "domestic ": 4167,
      "Richard": 4168,
      "ridicul": 4169,
      "rebellion": 4170,
      "ITALY": 4171,
      ") ": 4172,
      ".3": 4173,
      "NE": 4174,
      "On": 4175,
      "Po": 4176,
      "ace ": 4177,
      "cend": 4178,
      "ccording": 4179,
      "name ": 4180,
      "rough": 4181,
      "visible ": 4182,
      "y; and ": 4183,
      " thus ": 4184,
      "in those ": 4185,
      "institu": 4186,
      "one of ": 4187,
      ", on the ": 4188,
      ", however ": 4189,
      "remed": 4190,
      "tious ": 4191,
      "of our ": 4192,
      "ite": 4193,
      "ed, and": 4194,
      "ed into": 4195,
      " a more ": 4196,
      "levi": 4197,
      " to all ": 4198,
      " took ": 4199,
      "fron": 4200,
      " their own ": 4201,
      "have any ": 4202,
      "law ": 4203,
      " assent": 4204,
      "ure, ": 4205,
      " the sour": 4206,
      "five ": 4207,
      "form of ": 4208,
      "saw": 4209,
      "safe": 4210,
      "king and ": 4211,
      "strength": 4212,
      "ance, and ": 4213,
      " that this ": 4214,
      "guid": 4215,
      ". Were ": 4216,
      "each": 4217,
      "seem to ": 4218,
      "instance ": 4219,
      "manner of ": 4220,
      "blame": 4221,
      "discover ": 4222,
      ". Not": 4223,
      ". Som": 4224,
      "reasonings ": 4225,
      "conclusion ": 4226,
      " which we ": 4227,
      "evident ": 4228,
      "inference ": 4229,
      "common life": 4230,
      ", than to ": 4231,
      "feeling": 4232,
      " after the ": 4233,
      "measure ": 4234,
      "variety of ": 4235,
      ". In the ": 4236,
      "close ": 4237,
      "clerg": 4238,
      "method": 4239,
      "North": 4240,
      "proposition": 4241,
      "suspect": 4242,
      "struct": 4243,
      "universe ": 4244,
      ", whether": 4245,
      "drawn ": 4246,
      "conquer": 4247,
      "run ": 4248,
      "credit": 4249,
      "doctrin": 4250,
      "citizen": 4251,
      "beyond the ": 4252,
      ", whom he ": 4253,
      "AG": 4254,
      "EX": 4255,
      "Lan": 4256,
      "dest": 4257,
      "hes": 4258,
      "hard": 4259,
      "horr": 4260,
      "spre": 4261,
      "s, which": 4262,
      "sorrow": 4263,
      "treat": 4264,
      "wat": 4265,
      "y-": 4266,
      "y this ": 4267,
      " ten": 4268,
      " temp": 4269,
      " testimon": 4270,
      "s his ": 4271,
      "s more ": 4272,
      "s had ": 4273,
      "env": 4274,
      ", from ": 4275,
      "restor": 4276,
      " ancest": 4277,
      "tive": 4278,
      "then": 4279,
      "outh": 4280,
      "ise": 4281,
      "also ": 4282,
      "ed or ": 4283,
      " a man": 4284,
      "light ": 4285,
      "in which ": 4286,
      ", and was ": 4287,
      "deliber": 4288,
      "ing from ": 4289,
      "bear ": 4290,
      "fra": 4291,
      "emin": 4292,
      "predomin": 4293,
      "es of": 4294,
      "on of ": 4295,
      "s, but ": 4296,
      "disci": 4297,
      "displeas": 4298,
      "disappoint": 4299,
      "s of human ": 4300,
      ", why ": 4301,
      "mort": 4302,
      " them, ": 4303,
      "ured ": 4304,
      "no other ": 4305,
      "more": 4306,
      "king's": 4307,
      "reason to ": 4308,
      ", with a ": 4309,
      " administr": 4310,
      "it is evident": 4311,
      "ical ": 4312,
      "case": 4313,
      "youth": 4314,
      "consideration": 4315,
      "ment of the ": 4316,
      "resent": 4317,
      "expect ": 4318,
      "social ": 4319,
      "nature, ": 4320,
      "wards the ": 4321,
      "reaten": 4322,
      "UST": 4323,
      ". Nor ": 4324,
      "engage ": 4325,
      "compli": 4326,
      "justice and ": 4327,
      " which he ": 4328,
      "dict": 4329,
      "ART": 4330,
      "make the ": 4331,
      " acquire ": 4332,
      "peace and ": 4333,
      " tax": 4334,
      "money, ": 4335,
      "esteem ": 4336,
      " animal ": 4337,
      "dangerous": 4338,
      "succession of ": 4339,
      "industry, ": 4340,
      "resolv": 4341,
      "probability": 4342,
      "contrary to ": 4343,
      "scepticism": 4344,
      "composition": 4345,
      "limited ": 4346,
      "frug": 4347,
      "did not ": 4348,
      "declared": 4349,
      "eloquence": 4350,
      "military ": 4351,
      " abstract ": 4352,
      "matter of fact": 4353,
      "half": 4354,
      "cause and effect": 4355,
      "birth": 4356,
      "negoci": 4357,
      "metap": 4358,
      " aversion": 4359,
      " ]": 4360,
      "'d ": 4361,
      "Ca": 4362,
      "If ": 4363,
      "Irel": 4364,
      "Som": 4365,
      "cli": 4366,
      "came ": 4367,
      "dar": 4368,
      "ell ": 4369,
      "sect": 4370,
      "s, and the ": 4371,
      "wn": 4372,
      "y, which ": 4373,
      "ink": 4374,
      "offic": 4375,
      "y with ": 4376,
      "es, which ": 4377,
      "confound": 4378,
      "is of ": 4379,
      "entr": 4380,
      "stud": 4381,
      "for any ": 4382,
      ", then": 4383,
      "notion of ": 4384,
      "deity": 4385,
      "maj": 4386,
      "open ": 4387,
      " are th": 4388,
      " arose ": 4389,
      "discourse": 4390,
      ", al": 4391,
      "rig": 4392,
      "ly a ": 4393,
      "vice and ": 4394,
      "by this ": 4395,
      "ence to the ": 4396,
      "gion": 4397,
      "able to": 4398,
      "neg": 4399,
      " the sen": 4400,
      "plant": 4401,
      "ists": 4402,
      "motive ": 4403,
      "infalli": 4404,
      "luc": 4405,
      "love": 4406,
      " those who ": 4407,
      "brok": 4408,
      "recover": 4409,
      "power and ": 4410,
      "ed in his ": 4411,
      "national ": 4412,
      "nothing": 4413,
      "means ": 4414,
      "difficult to ": 4415,
      " arms": 4416,
      "simp": 4417,
      "country, ": 4418,
      "learn ": 4419,
      " against him": 4420,
      "civiliz": 4421,
      "easily": 4422,
      "resto": 4423,
      "do not ": 4424,
      "), 2": 4425,
      "Norf": 4426,
      ". Let ": 4427,
      "soon after ": 4428,
      "operations of ": 4429,
      ". If the ": 4430,
      "notwithstanding": 4431,
      "provinces": 4432,
      "definition": 4433,
      "leader": 4434,
      " totally ": 4435,
      "uneasiness": 4436,
      "acquaint": 4437,
      "introduc": 4438,
      "monarchi": 4439,
      "tagon": 4440,
      "hitherto ": 4441,
      "schem": 4442,
      "million": 4443,
      " in the ": 4444,
      "AS": 4445,
      "Brit": 4446,
      "CO": 4447,
      "IV": 4448,
      "LAND": 4449,
      "PT": 4450,
      "cer": 4451,
      "garr": 4452,
      "hast": 4453,
      "kn": 4454,
      "length": 4455,
      "ot ": 4456,
      "pul": 4457,
      "push": 4458,
      "while ": 4459,
      " tell": 4460,
      "in their": 4461,
      "on account ": 4462,
      "ensu": 4463,
      ", however": 4464,
      ", perhaps, ": 4465,
      "repos": 4466,
      " anx": 4467,
      " antagon": 4468,
      "ory, ": 4469,
      "orator": 4470,
      "thought ": 4471,
      "of mankind": 4472,
      "is always ": 4473,
      ". R": 4474,
      ". U": 4475,
      "ingly ": 4476,
      "chain ": 4477,
      " to it": 4478,
      "stand ": 4479,
      "sea": 4480,
      "in England": 4481,
      "leag": 4482,
      ", and had ": 4483,
      "ations of ": 4484,
      "ing or ": 4485,
      "exert": 4486,
      "exces": 4487,
      "mable ": 4488,
      "ght of ": 4489,
      "many": 4490,
      "quill": 4491,
      " that of the ": 4492,
      "parties": 4493,
      "propri": 4494,
      "proach": 4495,
      "est and most ": 4496,
      ", the most ": 4497,
      "giving ": 4498,
      "need": 4499,
      "prince of ": 4500,
      "tot": 4501,
      "submitt": 4502,
      "health": 4503,
      "ation of": 4504,
      "wic": 4505,
      "nature of ": 4506,
      "stit": 4507,
      "erefore ": 4508,
      ", as it ": 4509,
      ", in every ": 4510,
      "generally ": 4511,
      "AN ": 4512,
      "sure ": 4513,
      "survey": 4514,
      "surround": 4515,
      "crown ": 4516,
      ". Hence ": 4517,
      ". How ": 4518,
      "ill-": 4519,
      "able, and ": 4520,
      "easy to ": 4521,
      "king was ": 4522,
      " there is ": 4523,
      "if it ": 4524,
      "ENCH": 4525,
      "government, ": 4526,
      "mighty ": 4527,
      ", in all ": 4528,
      ". So ": 4529,
      "suppli": 4530,
      "influence of ": 4531,
      "compens": 4532,
      "justice, ": 4533,
      "evidence ": 4534,
      "society ": 4535,
      "operate ": 4536,
      "several": 4537,
      "determine ": 4538,
      "example ": 4539,
      "sensation": 4540,
      "state, ": 4541,
      "in this particular": 4542,
      "harmon": 4543,
      "division": 4544,
      "following ": 4545,
      " takes ": 4546,
      "defence": 4547,
      "ALEX": 4548,
      "book": 4549,
      ", or the ": 4550,
      "assad": 4551,
      "love of ": 4552,
      "reality": 4553,
      "direct ": 4554,
      "protect": 4555,
      "civil war": 4556,
      "prosper": 4557,
      ": But the ": 4558,
      "readily": 4559,
      "ATHENS": 4560,
      "faculties": 4561,
      "balance ": 4562,
      "quarter": 4563,
      "gentle": 4564,
      "error": 4565,
      "execution": 4566,
      "extraordinary": 4567,
      "FRENCH": 4568,
      "declared ": 4569,
      " total ": 4570,
      "infinitely ": 4571,
      "perpetual ": 4572,
      "point of ": 4573,
      "endeavoured to ": 4574,
      "enthusi": 4575,
      "embrace ": 4576,
      "yield": 4577,
      "ALEXAND": 4578,
      "DON": 4579,
      "OS": 4580,
      "POL": 4581,
      "That ": 4582,
      "ake ": 4583,
      "fitt": 4584,
      "hy ": 4585,
      "he, ": 4586,
      "sk": 4587,
      "sound": 4588,
      "wom": 4589,
      "women": 4590,
      " till": 4591,
      " avo": 4592,
      "in all": 4593,
      "indifferent": 4594,
      "enough": 4595,
      "or to ": 4596,
      "than": 4597,
      "esid": 4598,
      "ous of ": 4599,
      " and sil": 4600,
      "alone ": 4601,
      "iter": 4602,
      "ed it": 4603,
      " a great ": 4604,
      "hab": 4605,
      "confer": 4606,
      "lev": 4607,
      "of the world": 4608,
      "expell": 4609,
      "use of ": 4610,
      " will": 4611,
      "it may be ": 4612,
      "absolut": 4613,
      "s, is ": 4614,
      "pard": 4615,
      ", whom": 4616,
      "rival": 4617,
      "e than": 4618,
      "; or ": 4619,
      "; yet": 4620,
      "by any ": 4621,
      " accur": 4622,
      "ed to his ": 4623,
      "no more ": 4624,
      "from its ": 4625,
      "umph": 4626,
      "ety": 4627,
      "; and they ": 4628,
      "weigh": 4629,
      " apt to ": 4630,
      "reason and ": 4631,
      ". Be": 4632,
      "must have ": 4633,
      "dest ": 4634,
      "it is not ": 4635,
      ", in some ": 4636,
      ". While ": 4637,
      "s of these ": 4638,
      "look ": 4639,
      "order to": 4640,
      "entit": 4641,
      "foundation of ": 4642,
      "charm": 4643,
      "finding ": 4644,
      "sentiments of ": 4645,
      " appearance ": 4646,
      ". Though": 4647,
      "capit": 4648,
      "degree": 4649,
      "sufficient": 4650,
      "liberty ": 4651,
      "body of ": 4652,
      "qualities, ": 4653,
      "mities": 4654,
      "possessed of ": 4655,
      "plainly ": 4656,
      "reflection ": 4657,
      "produce the ": 4658,
      "good and ": 4659,
      ", as well as": 4660,
      ". Even": 4661,
      "human affair": 4662,
      " admitt": 4663,
      "popular": 4664,
      "riches": 4665,
      "beauty": 4666,
      "bestow ": 4667,
      "possibly ": 4668,
      "possibly be ": 4669,
      "surely ": 4670,
      "nihi": 4671,
      "properly ": 4672,
      "bodies": 4673,
      "expedient": 4674,
      "between them": 4675,
      "business": 4676,
      "motives": 4677,
      "exactly ": 4678,
      "origin of ": 4679,
      "follow ": 4680,
      "gold and sil": 4681,
      "manufacture": 4682,
      "discipl": 4683,
      "metaphysi": 4684,
      "climat": 4685,
      "62": 4686,
      "; though": 4687,
      "ACE": 4688,
      "Ir": 4689,
      "IUS": 4690,
      "When": 4691,
      "eleg": 4692,
      "fle": 4693,
      "ive": 4694,
      "led ": 4695,
      "o, ": 4696,
      "sinc": 4697,
      "spea": 4698,
      "ution of ": 4699,
      "s us ": 4700,
      "enes": 4701,
      ", on ": 4702,
      ", may ": 4703,
      " and his ": 4704,
      "is to ": 4705,
      "is to be ": 4706,
      "it appear": 4707,
      "ches": 4708,
      "chance": 4709,
      "eder": 4710,
      "ed: ": 4711,
      "ed all the ": 4712,
      "ed himself": 4713,
      "ces of ": 4714,
      "seen ": 4715,
      "set of ": 4716,
      "in one ": 4717,
      " topic": 4718,
      "ations of the ": 4719,
      "devo": 4720,
      "exact ": 4721,
      "fram": 4722,
      "friv": 4723,
      "quic": 4724,
      "immen": 4725,
      "imperfect": 4726,
      "ent of the ": 4727,
      "complain": 4728,
      ", all the ": 4729,
      "; he ": 4730,
      "ologi": 4731,
      "vices": 4732,
      " accus": 4733,
      "care": 4734,
      ". According": 4735,
      "plent": 4736,
      "others ": 4737,
      "otherwise ": 4738,
      "; and though ": 4739,
      "infanc": 4740,
      "can only ": 4741,
      "vell": 4742,
      "veget": 4743,
      " age ": 4744,
      "desired": 4745,
      " about ": 4746,
      "hus ": 4747,
      "love, ": 4748,
      "fact ": 4749,
      " without ": 4750,
      " at present ": 4751,
      " at least ": 4752,
      "bring": 4753,
      "causes, ": 4754,
      " we may ": 4755,
      "parts": 4756,
      "work ": 4757,
      "apt to ": 4758,
      "laws": 4759,
      "decision": 4760,
      "employ ": 4761,
      ". But this ": 4762,
      ". But as ": 4763,
      "ed by any ": 4764,
      "consequently ": 4765,
      "ness of the ": 4766,
      "ES ": 4767,
      ". A man": 4768,
      "continue ": 4769,
      "invol": 4770,
      "belief ": 4771,
      "knowledge": 4772,
      " afterwards ": 4773,
      "promise ": 4774,
      "reflect": 4775,
      "representati": 4776,
      "profess": 4777,
      "created ": 4778,
      "like the ": 4779,
      "chool": 4780,
      "idea of the ": 4781,
      ". In like manner": 4782,
      ". In this ": 4783,
      "monarchy": 4784,
      "confeder": 4785,
      " trial": 4786,
      "refinement": 4787,
      " tranquill": 4788,
      "authority ": 4789,
      "seek": 4790,
      "proper to ": 4791,
      "full of ": 4792,
      "offices": 4793,
      ". One ": 4794,
      "enterprize": 4795,
      "FRAN": 4796,
      "revolution": 4797,
      "complet": 4798,
      "pernicious ": 4799,
      "taken ": 4800,
      "spring": 4801,
      "related to ": 4802,
      "exclud": 4803,
      "benefi": 4804,
      ": They ": 4805,
      "next ": 4806,
      " tyrann": 4807,
      "William ": 4808,
      ", indeed, ": 4809,
      "opportunity of ": 4810,
      ", whatever ": 4811,
      "merchant": 4812,
      "presump": 4813,
      "murder": 4814,
      "vassal": 4815,
      "having": 4816,
      "fabric": 4817,
      "York": 4818,
      "magnific": 4819,
      "frugal": 4820,
      "Ireland": 4821,
      "ceremon": 4822,
      "frivol": 4823,
      "; they ": 4824,
      "EG": 4825,
      "Lew": 4826,
      "OC": 4827,
      "Sec": 4828,
      "ay ": 4829,
      "breas": 4830,
      "city ": 4831,
      "knew": 4832,
      "lose ": 4833,
      "les, ": 4834,
      "s; but ": 4835,
      " tell ": 4836,
      "energ": 4837,
      "or any ": 4838,
      "til": 4839,
      "artifi": 4840,
      "isition": 4841,
      "ision ": 4842,
      "already ": 4843,
      "ed an ": 4844,
      "ed at": 4845,
      "ed her ": 4846,
      "econom": 4847,
      "confor": 4848,
      "irst": 4849,
      "search": 4850,
      "sides": 4851,
      "forman": 4852,
      ", then, ": 4853,
      "leas": 4854,
      ", and who ": 4855,
      "been the ": 4856,
      "performan": 4857,
      "amb": 4858,
      "actions": 4859,
      "with that ": 4860,
      "discontent": 4861,
      ", as a ": 4862,
      ", again": 4863,
      "rid": 4864,
      "vill": 4865,
      "so little ": 4866,
      "so far ": 4867,
      "andon": 4868,
      "ment, ": 4869,
      ", that no ": 4870,
      "indol": 4871,
      "giv": 4872,
      "able to the ": 4873,
      "y, he ": 4874,
      ". All": 4875,
      ". An ": 4876,
      "raise ": 4877,
      "height": 4878,
      " that they ": 4879,
      "ed by his ": 4880,
      "such as": 4881,
      "earn": 4882,
      "surrec": 4883,
      " at first ": 4884,
      "cause of ": 4885,
      "contrary, ": 4886,
      "word ": 4887,
      "both these ": 4888,
      "apt": 4889,
      "understo": 4890,
      "laws ": 4891,
      "virtue, ": 4892,
      "sentiment of ": 4893,
      "discovery ": 4894,
      "circul": 4895,
      "nations": 4896,
      "experience, ": 4897,
      "probable ": 4898,
      "attain": 4899,
      "invas": 4900,
      "distinction ": 4901,
      "various ": 4902,
      "resemble ": 4903,
      "emperor": 4904,
      ", when they ": 4905,
      "day ": 4906,
      "beauty ": 4907,
      "way of ": 4908,
      "pleasure or ": 4909,
      "singul": 4910,
      ", at the same ": 4911,
      "ed him to ": 4912,
      "counten": 4913,
      "intelligent ": 4914,
      "urbul": 4915,
      "Charles": 4916,
      "Henry's ": 4917,
      "{VIa(175": 4918,
      "peculiar": 4919,
      "innoc": 4920,
      "innov": 4921,
      "barbarous ": 4922,
      "John": 4923,
      " augment": 4924,
      "destructive ": 4925,
      "quantit": 4926,
      "kept ": 4927,
      "strict": 4928,
      "collect": 4929,
      "legislat": 4930,
      "complaint": 4931,
      "husband": 4932,
      " apprehension": 4933,
      "prospect ": 4934,
      "{VIa(1757": 4935,
      "'S": 4936,
      ".2": 4937,
      "VI": 4938,
      "Were ": 4939,
      "are": 4940,
      "cle": 4941,
      "clim": 4942,
      "dog": 4943,
      "flatter": 4944,
      "hand ": 4945,
      "itive ": 4946,
      "rob": 4947,
      "school": 4948,
      "usel": 4949,
      "vow": 4950,
      " turn ": 4951,
      "in these ": 4952,
      "insepar": 4953,
      "s is ": 4954,
      "enum": 4955,
      "enlarg": 4956,
      ", have ": 4957,
      ", even": 4958,
      ", you ": 4959,
      "of a": 4960,
      "reput": 4961,
      " analog": 4962,
      "tile ": 4963,
      "ess ": 4964,
      ". . ": 4965,
      "ingen": 4966,
      "it a ": 4967,
      " to mention": 4968,
      "ed for": 4969,
      "conject": 4970,
      " theory": 4971,
      ", and were ": 4972,
      " toler": 4973,
      "ation. The ": 4974,
      "depriv": 4975,
      "ing from the ": 4976,
      "making ": 4977,
      "it has ": 4978,
      "it will ": 4979,
      "it must be ": 4980,
      "es or ": 4981,
      "impati": 4982,
      "above ": 4983,
      ". To": 4984,
      "s, of ": 4985,
      "ity, which ": 4986,
      "e those ": 4987,
      "prove": 4988,
      "olish": 4989,
      "laud": 4990,
      ". The earl of ": 4991,
      "e, or ": 4992,
      " act": 4993,
      "fill": 4994,
      "admitt": 4995,
      "no longer ": 4996,
      ". At ": 4997,
      "uppos": 4998,
      "formed ": 4999,
      "prince, ": 5000,
      "plead": 5001,
      "licit": 5002,
      " adher": 5003,
      "interval": 5004,
      " about": 5005,
      "content ": 5006,
      ", as we ": 5007,
      "s of the mind": 5008,
      "glo": 5009,
      "generous ": 5010,
      "ed, by ": 5011,
      " attack": 5012,
      "bring ": 5013,
      "causes and ": 5014,
      "human mind": 5015,
      "kinds of ": 5016,
      "could never ": 5017,
      "priori": 5018,
      "approb": 5019,
      "underta": 5020,
      "blind": 5021,
      ", though the ": 5022,
      "persons": 5023,
      "happy": 5024,
      ", they were ": 5025,
      "give the ": 5026,
      "means, ": 5027,
      ". From": 5028,
      "proved ": 5029,
      "continually ": 5030,
      "kingdom ": 5031,
      "stronger ": 5032,
      "natural and ": 5033,
      "fiction": 5034,
      " thrown ": 5035,
      "possession ": 5036,
      "remove ": 5037,
      "cause of the ": 5038,
      " whom": 5039,
      " when ": 5040,
      "CERO": 5041,
      "crown of ": 5042,
      " attended with ": 5043,
      "hopes of ": 5044,
      "sensible of the ": 5045,
      "exception": 5046,
      "house ": 5047,
      " which they ": 5048,
      "flow": 5049,
      "enquiry": 5050,
      "There are ": 5051,
      "exceed": 5052,
      "conception": 5053,
      "valuable ": 5054,
      "praise ": 5055,
      "because the ": 5056,
      "philosophy ": 5057,
      "appearance of ": 5058,
      "familiar": 5059,
      "makes us ": 5060,
      "numerous": 5061,
      "vigour": 5062,
      "GREEKS": 5063,
      "controversy": 5064,
      "delicate ": 5065,
      " tendency to ": 5066,
      "Being": 5067,
      " appeared ": 5068,
      "daughter ": 5069,
      "partizan": 5070,
      "fellow-": 5071,
      "suggest": 5072,
      "Norfolk": 5073,
      "Britann": 5074,
      "garrison": 5075,
      "stitut": 5076,
      "; this ": 5077,
      "CY": 5078,
      "GA": 5079,
      "PER": 5080,
      "Span": 5081,
      "War": 5082,
      "bas": 5083,
      "bold": 5084,
      "breach ": 5085,
      "cat": 5086,
      "cold": 5087,
      "gall": 5088,
      "ition of the ": 5089,
      "led to ": 5090,
      "ogu": 5091,
      "sound ": 5092,
      "ten": 5093,
      "war ": 5094,
      "ze": 5095,
      " touch": 5096,
      "instr": 5097,
      "ers of ": 5098,
      "on any ": 5099,
      ", I": 5100,
      ", by a ": 5101,
      "of thing": 5102,
      "reduce ": 5103,
      "antr": 5104,
      "ed of the ": 5105,
      "pris": 5106,
      "consul": 5107,
      "in general": 5108,
      "ch of ": 5109,
      "lem": 5110,
      "he has ": 5111,
      " artic": 5112,
      "preci": 5113,
      "prepa": 5114,
      "prelat": 5115,
      "unavoid": 5116,
      "from these ": 5117,
      "utin": 5118,
      "s, I ": 5119,
      "ity. The ": 5120,
      "right of ": 5121,
      "prove the ": 5122,
      ", and to": 5123,
      "truth": 5124,
      ", which may ": 5125,
      ". The duke of ": 5126,
      "we find": 5127,
      " the sm": 5128,
      " the same": 5129,
      "from our ": 5130,
      " these two ": 5131,
      "; and to ": 5132,
      "not to be ": 5133,
      "fee": 5134,
      "model": 5135,
      "past": 5136,
      "sav": 5137,
      "subordin": 5138,
      "nature and ": 5139,
      "county ": 5140,
      "deser": 5141,
      "has been": 5142,
      "distance": 5143,
      "cases": 5144,
      "cases, ": 5145,
      " true": 5146,
      "considered as ": 5147,
      "such an": 5148,
      "fine ": 5149,
      "final ": 5150,
      "finish": 5151,
      "poly": 5152,
      ". Henr": 5153,
      "ure of the ": 5154,
      "controul": 5155,
      "in a great ": 5156,
      "useful ": 5157,
      " there are ": 5158,
      "powerful": 5159,
      "imagine ": 5160,
      "laws, ": 5161,
      "declar": 5162,
      "virtuous ": 5163,
      "medium": 5164,
      "effects": 5165,
      "effectu": 5166,
      "effects of ": 5167,
      "return ": 5168,
      "y thing that ": 5169,
      "even in ": 5170,
      "ed to a ": 5171,
      "England, ": 5172,
      "degree ": 5173,
      "continual ": 5174,
      "determined ": 5175,
      "determined to ": 5176,
      "satisfy ": 5177,
      "ARCH": 5178,
      "invit": 5179,
      "examine ": 5180,
      "spirit ": 5181,
      "rendered ": 5182,
      "nature of the ": 5183,
      "entered ": 5184,
      "years ": 5185,
      "history ": 5186,
      "deni": 5187,
      "defect": 5188,
      "calam": 5189,
      "extreme ": 5190,
      "can be more ": 5191,
      " admit of ": 5192,
      "daily ": 5193,
      "since the ": 5194,
      "slaves ": 5195,
      "carried ": 5196,
      ", till ": 5197,
      "Thom": 5198,
      "frequent ": 5199,
      "voli": 5200,
      "a(1762": 5201,
      "scarce ": 5202,
      "ROMANS": 5203,
      "surely": 5204,
      "ignorant ": 5205,
      "agreeable ": 5206,
      " ambassad": 5207,
      "bank": 5208,
      "phenomenon": 5209,
      ". When we ": 5210,
      " answer ": 5211,
      "prejudices": 5212,
      "spee": 5213,
      "connected with ": 5214,
      "risti": 5215,
      " ascrib": 5216,
      "    ": 5217,
      "rules of ": 5218,
      "point ": 5219,
      "compared": 5220,
      "whether": 5221,
      " as well as ": 5222,
      "]} ": 5223,
      " arrang": 5224,
      "Robert ": 5225,
      "viz.": 5226,
      "profession": 5227,
      " transport": 5228,
      "simplic": 5229,
      "restored": 5230,
      "immense ": 5231,
      "FRANCE": 5232,
      "AC": 5233,
      "All ": 5234,
      "IP": 5235,
      "Nav": 5236,
      "VEN": 5237,
      "YS": 5238,
      "een ": 5239,
      "fy": 5240,
      "mother": 5241,
      "name": 5242,
      "pens": 5243,
      "rou": 5244,
      "rant": 5245,
      "s,": 5246,
      "sl": 5247,
      "sal": 5248,
      "s, they ": 5249,
      "y and": 5250,
      "e with ": 5251,
      "e to the ": 5252,
      "ern ": 5253,
      "ers, and ": 5254,
      "s so ": 5255,
      "s no ": 5256,
      ", un": 5257,
      "of this": 5258,
      "rever": 5259,
      " antiqu": 5260,
      "anter": 5261,
      "tial ": 5262,
      "it the ": 5263,
      "it; and ": 5264,
      "ed against the ": 5265,
      "ed no ": 5266,
      "ed some ": 5267,
      "assist": 5268,
      "lly ": 5269,
      "have, ": 5270,
      "consum": 5271,
      "is very ": 5272,
      "ent, and ": 5273,
      "stra": 5274,
      "lives": 5275,
      "ce of the ": 5276,
      "six": 5277,
      "lead ": 5278,
      " town": 5279,
      "us the ": 5280,
      "man's ": 5281,
      "account": 5282,
      ". This": 5283,
      ": but ": 5284,
      ": A ": 5285,
      "tract": 5286,
      "lad": 5287,
      "age and ": 5288,
      "so un": 5289,
      ", which is": 5290,
      ", which had ": 5291,
      " them.": 5292,
      "share ": 5293,
      "caref": 5294,
      "may not be ": 5295,
      "etor": 5296,
      "; and that the ": 5297,
      "feat": 5298,
      "modest": 5299,
      "servant": 5300,
      "ance to ": 5301,
      "I can ": 5302,
      " abs": 5303,
      "? N": 5304,
      "courage ": 5305,
      "lost": 5306,
      " those of the ": 5307,
      "paper": 5308,
      "paint": 5309,
      "venge": 5310,
      "aries": 5311,
      "refer": 5312,
      "virtuous": 5313,
      "empire": 5314,
      "experience and ": 5315,
      " their w": 5316,
      "had the ": 5317,
      "upon him": 5318,
      "prevent ": 5319,
      "existence of ": 5320,
      "manner, ": 5321,
      "relations of ": 5322,
      "men of ": 5323,
      "only a ": 5324,
      "danger ": 5325,
      "e to be ": 5326,
      "makes": 5327,
      " acquired ": 5328,
      "ideas, ": 5329,
      ", who are ": 5330,
      "produce a ": 5331,
      ". We are ": 5332,
      "itself, ": 5333,
      ". Their ": 5334,
      "practic": 5335,
      "philosophers ": 5336,
      ", would be ": 5337,
      "precise ": 5338,
      "doubt ": 5339,
      "besides ": 5340,
      "entertainment": 5341,
      "important": 5342,
      "importance": 5343,
      "politici": 5344,
      ", according to ": 5345,
      "son, ": 5346,
      "practice": 5347,
      "possibility of ": 5348,
      "compani": 5349,
      "northern ": 5350,
      "conception ": 5351,
      "expedient ": 5352,
      "Charles ": 5353,
      ", after the ": 5354,
      " assembl": 5355,
      "GREEK ": 5356,
      "met with": 5357,
      "met with ": 5358,
      "secretly ": 5359,
      "punishment": 5360,
      "right lin": 5361,
      "conscious": 5362,
      "furnish": 5363,
      "improvement": 5364,
      "curios": 5365,
      "melancholy ": 5366,
      "DEM": 5367,
      "accounted ": 5368,
      "CICERO": 5369,
      "understanding ": 5370,
      "e themselves ": 5371,
      "umberland": 5372,
      "enthusias": 5373,
      "undertaking": 5374,
      "rouz": 5375,
      "carefull": 5376,
      "Div": 5377,
      "E ": 5378,
      "Ex": 5379,
      "For ": 5380,
      "Ro": 5381,
      "SIC": 5382,
      "UG": 5383,
      "bad": 5384,
      "big": 5385,
      "dal": 5386,
      "ear ": 5387,
      "hold ": 5388,
      "por": 5389,
      "pal": 5390,
      "ry ": 5391,
      "sedi": 5392,
      "scur": 5393,
      "ton": 5394,
      "tor": 5395,
      "win": 5396,
      "wid": 5397,
      "e his ": 5398,
      "e for ": 5399,
      " are, ": 5400,
      "on which ": 5401,
      "s for": 5402,
      "s may be ": 5403,
      ", says ": 5404,
      " the t": 5405,
      "rew": 5406,
      " ang": 5407,
      "y in the ": 5408,
      "orous ": 5409,
      "tili": 5410,
      "thought": 5411,
      "hibit": 5412,
      "altogether ": 5413,
      "ing.": 5414,
      "ing them ": 5415,
      "ed for the ": 5416,
      "ed in their ": 5417,
      "concession": 5418,
      "superf": 5419,
      "star": 5420,
      ", these ": 5421,
      "notion ": 5422,
      "novel": 5423,
      ", and other ": 5424,
      "demonstr": 5425,
      "ing in ": 5426,
      "exal": 5427,
      "exha": 5428,
      "expres": 5429,
      "betr": 5430,
      " arch": 5431,
      " art and ": 5432,
      "it not ": 5433,
      "ght, ": 5434,
      "intric": 5435,
      "from any ": 5436,
      "absur": 5437,
      "compl": 5438,
      "post": 5439,
      " that he ": 5440,
      "dispers": 5441,
      "rive ": 5442,
      "e than ": 5443,
      ", and their ": 5444,
      "peas": 5445,
      "tran": 5446,
      ", the same ": 5447,
      "short ": 5448,
      " act of ": 5449,
      " activ": 5450,
      "capri": 5451,
      "y, by ": 5452,
      "fif": 5453,
      "otherwis": 5454,
      "not, ": 5455,
      "for ever ": 5456,
      "say ": 5457,
      " appoint": 5458,
      "which it ": 5459,
      "infam": 5460,
      "heir": 5461,
      " adjust": 5462,
      "concern ": 5463,
      "men's ": 5464,
      "eldest ": 5465,
      "ical": 5466,
      ", as is ": 5467,
      ", as far": 5468,
      "? Or": 5469,
      "selfish": 5470,
      "s of any ": 5471,
      "uthor ": 5472,
      ", we find": 5473,
      " at least": 5474,
      "cro": 5475,
      "paid": 5476,
      " appeal": 5477,
      " there is a ": 5478,
      " there is no ": 5479,
      "socie": 5480,
      " times, ": 5481,
      "nature, and ": 5482,
      "; which": 5483,
      "ed together": 5484,
      "discre": 5485,
      "experienc": 5486,
      "you have ": 5487,
      "pretence ": 5488,
      "pretty ": 5489,
      "supply ": 5490,
      "supply": 5491,
      " themselves, ": 5492,
      ", it must be ": 5493,
      ", where they ": 5494,
      "violent": 5495,
      "violence ": 5496,
      "established": 5497,
      "cribe ": 5498,
      "conduct of ": 5499,
      "value ": 5500,
      "might have ": 5501,
      "Franc": 5502,
      "But the ": 5503,
      "body, ": 5504,
      "freed": 5505,
      "feel ": 5506,
      "ruin": 5507,
      "view of ": 5508,
      ". We may ": 5509,
      " animos": 5510,
      "perhaps": 5511,
      ". They": 5512,
      "advantage": 5513,
      ", together ": 5514,
      "engagement": 5515,
      "universal": 5516,
      "universally ": 5517,
      "〉〉{": 5518,
      "pain and ": 5519,
      "indeed, ": 5520,
      ". Con": 5521,
      "seek ": 5522,
      " advance ": 5523,
      "faculties ": 5524,
      "misery": 5525,
      "progress of the ": 5526,
      "Cleanthes, ": 5527,
      "nobleman": 5528,
      "exercise ": 5529,
      "subject of ": 5530,
      "〉〉} ": 5531,
      "pronounc": 5532,
      "citizens": 5533,
      "directly ": 5534,
      "controvers": 5535,
      "venture ": 5536,
      "so far as ": 5537,
      "against ": 5538,
      "betwixt the ": 5539,
      "source of ": 5540,
      " world": 5541,
      "confidence ": 5542,
      "conversation": 5543,
      " alliance ": 5544,
      "family of ": 5545,
      ". On the other hand": 5546,
      " title ": 5547,
      "mixture of ": 5548,
      "heaven": 5549,
      "season": 5550,
      ". Some ": 5551,
      "hesit": 5552,
      "GAUL": 5553,
      "superflu": 5554,
      "complish": 5555,
      ".\" ": 5556,
      ": and": 5557,
      "Beck": 5558,
      "Eur": 5559,
      "Ge": 5560,
      "YB": 5561,
      "[ ]": 5562,
      "borrow": 5563,
      "chim": 5564,
      "cover": 5565,
      "cardin": 5566,
      "e-": 5567,
      "gon": 5568,
      "hence ": 5569,
      "pure ": 5570,
      "s, are ": 5571,
      "t appear": 5572,
      " thy ": 5573,
      " threaten": 5574,
      "inher": 5575,
      "ink ": 5576,
      "ery": 5577,
      "s our ": 5578,
      "s into ": 5579,
      ", if": 5580,
      ", either ": 5581,
      ", said ": 5582,
      "of that": 5583,
      "of any": 5584,
      "of two ": 5585,
      "of thin": 5586,
      "reviv": 5587,
      "another": 5588,
      "es to the ": 5589,
      "ardi": 5590,
      "is this ": 5591,
      "ing to": 5592,
      "che": 5593,
      "ed any ": 5594,
      "ed; and": 5595,
      "ed more ": 5596,
      ", will": 5597,
      "conform": 5598,
      "in his": 5599,
      "forc": 5600,
      ", through": 5601,
      "leis": 5602,
      ", and have ": 5603,
      " towards the ": 5604,
      "bell": 5605,
      "opic": 5606,
      "oward": 5607,
      "embar": 5608,
      "unknown ": 5609,
      "unhappy ": 5610,
      "es were ": 5611,
      "diver": 5612,
      "cities": 5613,
      "quite ": 5614,
      ". That": 5615,
      "derive ": 5616,
      "dispens": 5617,
      ", at the ": 5618,
      "in the present ": 5619,
      "so long": 5620,
      "duke ": 5621,
      "e, he ": 5622,
      "ed to him": 5623,
      "admir": 5624,
      "; and these ": 5625,
      "to that ": 5626,
      "for some ": 5627,
      "for us to ": 5628,
      " all our ": 5629,
      "infer ": 5630,
      "inflam": 5631,
      "subjection": 5632,
      "every one": 5633,
      "genu": 5634,
      ", to which ": 5635,
      "desire": 5636,
      "interpos": 5637,
      "objects, and ": 5638,
      "great and ": 5639,
      "lost ": 5640,
      "related ": 5641,
      " tru": 5642,
      " thought and ": 5643,
      " to be the ": 5644,
      " attend ": 5645,
      "pay ": 5646,
      "would not ": 5647,
      "present to the ": 5648,
      "illu": 5649,
      "hero": 5650,
      "able.": 5651,
      "quality": 5652,
      "founded on the ": 5653,
      "supposed to be ": 5654,
      "required ": 5655,
      " there be ": 5656,
      "recall": 5657,
      "declin": 5658,
      ". But what ": 5659,
      "tions are ": 5660,
      "person who ": 5661,
      ", he had ": 5662,
      "what we ": 5663,
      "discern": 5664,
      "make us ": 5665,
      "purchas": 5666,
      "interests of ": 5667,
      "either of ": 5668,
      " than a ": 5669,
      "company ": 5670,
      "made a ": 5671,
      "corn": 5672,
      "misfortun": 5673,
      "difficult ": 5674,
      "evidence": 5675,
      "of this kind": 5676,
      "ESAR": 5677,
      ". He was ": 5678,
      "favour ": 5679,
      "crip": 5680,
      "degrees of ": 5681,
      "family, ": 5682,
      "dependent ": 5683,
      "example": 5684,
      "upon a ": 5685,
      "distinct": 5686,
      "senses, ": 5687,
      "nature has ": 5688,
      "good or ": 5689,
      "fortunate ": 5690,
      "impressions and ": 5691,
      "beau": 5692,
      ", without the ": 5693,
      "profit": 5694,
      "profound ": 5695,
      "derived from": 5696,
      "higher ": 5697,
      "maintain ": 5698,
      "moderate ": 5699,
      "benef": 5700,
      "choice ": 5701,
      "constanc": 5702,
      " thereby ": 5703,
      " territ": 5704,
      "power or ": 5705,
      "clam": 5706,
      "examine the ": 5707,
      ", till": 5708,
      "appell": 5709,
      " triumph": 5710,
      "nearly ": 5711,
      "weaken": 5712,
      ". For this ": 5713,
      "companion": 5714,
      "preference ": 5715,
      " appli": 5716,
      "penetr": 5717,
      "communication": 5718,
      "preceding ": 5719,
      "born": 5720,
      "Deity": 5721,
      "settle": 5722,
      " assistance ": 5723,
      "disguis": 5724,
      "against the ": 5725,
      " apprehend": 5726,
      "SPAIN": 5727,
      "suspicion": 5728,
      " appeared": 5729,
      "movement": 5730,
      " at the same time ": 5731,
      "disagree": 5732,
      "CAESAR": 5733,
      "Lei": 5734,
      ", appe": 5735,
      "reconcile ": 5736,
      "obstin": 5737,
      "utterly ": 5738,
      "beautiful": 5739,
      "Lancas": 5740,
      "dark": 5741,
      "infallible ": 5742,
      " avoid": 5743,
      "quick": 5744,
      "Second": 5745,
      "conformable ": 5746,
      "' ": 5747,
      "'d": 5748,
      ",\" ": 5749,
      "Br": 5750,
      "ED": 5751,
      "Ger": 5752,
      "Gre": 5753,
      "JU": 5754,
      "LON": 5755,
      "MAN": 5756,
      "Mary": 5757,
      "Our ": 5758,
      "ities, ": 5759,
      "ras": 5760,
      "s, which are ": 5761,
      "wish": 5762,
      "want of ": 5763,
      " treas": 5764,
      "inqu": 5765,
      "induc": 5766,
      "insurrec": 5767,
      "on account of ": 5768,
      "enabl": 5769,
      "encro": 5770,
      ", she ": 5771,
      ", having ": 5772,
      "rela": 5773,
      "reform": 5774,
      "y was ": 5775,
      "ors ": 5776,
      "es and": 5777,
      "es; ": 5778,
      "oub": 5779,
      "atom": 5780,
      ". \"": 5781,
      "ing an ": 5782,
      "chan": 5783,
      "chos": 5784,
      "ed a": 5785,
      "ed and": 5786,
      "assign": 5787,
      " a little ": 5788,
      "is in ": 5789,
      "stab": 5790,
      "stup": 5791,
      "sible ": 5792,
      " to all the ": 5793,
      "dev": 5794,
      "depart ": 5795,
      "ing in the ": 5796,
      "le and ": 5797,
      "or less ": 5798,
      "persever": 5799,
      "imprud": 5800,
      "from all ": 5801,
      "from which ": 5802,
      "accur": 5803,
      "ultimate ": 5804,
      "obscur": 5805,
      "positive ": 5806,
      ", where": 5807,
      "ter, ": 5808,
      "ly and ": 5809,
      "by an ": 5810,
      ", that their ": 5811,
      ", that any ": 5812,
      "ages ": 5813,
      "shel": 5814,
      "ousand": 5815,
      " as he ": 5816,
      "with regard": 5817,
      "with regard to the ": 5818,
      "other.": 5819,
      "tion is ": 5820,
      "note": 5821,
      "passion of ": 5822,
      "minute ": 5823,
      "counsel": 5824,
      "every other ": 5825,
      ", with which ": 5826,
      "desper": 5827,
      "desert": 5828,
      "despa": 5829,
      "election": 5830,
      "s of the same ": 5831,
      ", in which": 5832,
      "? A": 5833,
      "glor": 5834,
      "fair": 5835,
      "magn": 5836,
      "has not ": 5837,
      "fact, ": 5838,
      "you will ": 5839,
      " without": 5840,
      "place, ": 5841,
      "brother ": 5842,
      "broke ": 5843,
      "into their ": 5844,
      "extingu": 5845,
      "wholly ": 5846,
      "mind, and ": 5847,
      "many of the ": 5848,
      "commons": 5849,
      "uniform ": 5850,
      "refut": 5851,
      "effects ": 5852,
      "gran": 5853,
      "ed to their ": 5854,
      "ed to them": 5855,
      "observation ": 5856,
      "hatred ": 5857,
      "ustri": 5858,
      ". Sir ": 5859,
      "interest, ": 5860,
      "standard ": 5861,
      "sentiments ": 5862,
      " appearances": 5863,
      ". Though ": 5864,
      "establish ": 5865,
      "relations": 5866,
      ", where he ": 5867,
      "Scotland ": 5868,
      "It is": 5869,
      "France, ": 5870,
      "make them ": 5871,
      "e their": 5872,
      "qualities of ": 5873,
      "statut": 5874,
      "life and ": 5875,
      "ER ": 5876,
      "reflect ": 5877,
      " taken": 5878,
      ", there are ": 5879,
      "advantage ": 5880,
      "encrease of ": 5881,
      "proportion ": 5882,
      ", at least ": 5883,
      "heard ": 5884,
      "philosophers": 5885,
      "morality": 5886,
      "assert": 5887,
      "which we have ": 5888,
      "passage ": 5889,
      "power of the ": 5890,
      "number ": 5891,
      "examination": 5892,
      "Sir John ": 5893,
      "delight": 5894,
      " arise from ": 5895,
      " arise from the ": 5896,
      "colon": 5897,
      "000 ": 5898,
      "dispute ": 5899,
      "commerce and ": 5900,
      "struck": 5901,
      "bury": 5902,
      ", attend": 5903,
      "honourable ": 5904,
      "off the ": 5905,
      "service ": 5906,
      "convul": 5907,
      "convince ": 5908,
      "confine ": 5909,
      "blood ": 5910,
      ", we may observe": 5911,
      "circumstances ": 5912,
      "scrutin": 5913,
      "correspondence ": 5914,
      "pernicious": 5915,
      "zealous ": 5916,
      "fancy ": 5917,
      "primary ": 5918,
      "force and vivac": 5919,
      "Christi": 5920,
      "without any ": 5921,
      "BRITAIN": 5922,
      "celebrated ": 5923,
      "principal ": 5924,
      "Nature ": 5925,
      "notwithstanding the ": 5926,
      " arbitrary ": 5927,
      ": That the ": 5928,
      "UTARCH": 5929,
      "partial": 5930,
      " attachment": 5931,
      " the spir": 5932,
      "seldom ": 5933,
      ". Not to mention": 5934,
      " antagonist": 5935,
      "nihilat": 5936,
      "enumer": 5937,
      "exhaust": 5938,
      "Europ": 5939,
      "Leicester": 5940,
      "extinguish": 5941,
      "; these ": 5942,
      "Com": 5943,
      "Per": 5944,
      "Spain": 5945,
      "That": 5946,
      "YPT": 5947,
      "eth": 5948,
      "gam": 5949,
      "hol": 5950,
      "jour": 5951,
      "send": 5952,
      "swe": 5953,
      "smo": 5954,
      "s, as ": 5955,
      "s, that the ": 5956,
      " twent": 5957,
      "ins": 5958,
      "insist ": 5959,
      "ers and ": 5960,
      ", for": 5961,
      ", must ": 5962,
      ", during the ": 5963,
      "off ": 5964,
      "reward": 5965,
      "region": 5966,
      "research": 5967,
      "orbit": 5968,
      "ans ": 5969,
      "ans, ": 5970,
      "angi": 5971,
      "than ": 5972,
      "es that ": 5973,
      "is as ": 5974,
      "also": 5975,
      "ing an": 5976,
      "tion, and ": 5977,
      "itary": 5978,
      "ched ": 5979,
      "ed at the ": 5980,
      "ed upon ": 5981,
      "as a ": 5982,
      ", would": 5983,
      "constrain": 5984,
      "irregular": 5985,
      "ents": 5986,
      "stop": 5987,
      "ceas": 5988,
      "lie": 5989,
      "living ": 5990,
      "sight": 5991,
      "noti": 5992,
      "depart": 5993,
      "detain": 5994,
      " writ": 5995,
      "his subject": 5996,
      "es his ": 5997,
      "digi": 5998,
      "ament": 5999,
      "actu": 6000,
      "acknowledg": 6001,
      "s, it ": 6002,
      "s, had ": 6003,
      "ly, and ": 6004,
      "prodigi": 6005,
      "vice": 6006,
      "in the most ": 6007,
      "have not ": 6008,
      "troop": 6009,
      "age of ": 6010,
      ", which is the ": 6011,
      "why ": 6012,
      "where": 6013,
      "over to ": 6014,
      "; and in ": 6015,
      "month": 6016,
      ", that every ": 6017,
      " act ": 6018,
      " acknowledge ": 6019,
      " accommod": 6020,
      "caution": 6021,
      " all those ": 6022,
      "had no ": 6023,
      "we must ": 6024,
      "metal": 6025,
      " as possible": 6026,
      "ed to have ": 6027,
      "from each other": 6028,
      "up the ": 6029,
      "form the ": 6030,
      "ister ": 6031,
      "for instance": 6032,
      "tical": 6033,
      "infir": 6034,
      "I must ": 6035,
      "its own ": 6036,
      ". Besid": 6037,
      "stipul": 6038,
      "were the ": 6039,
      " advers": 6040,
      "veh": 6041,
      "concur ": 6042,
      " ages, ": 6043,
      "menc": 6044,
      "elect": 6045,
      ", in other ": 6046,
      "? This ": 6047,
      "ight ": 6048,
      "object, ": 6049,
      "has ever ": 6050,
      "ed by it": 6051,
      "poor": 6052,
      " at once ": 6053,
      "pleasure and ": 6054,
      "only by ": 6055,
      "partly ": 6056,
      "parts of the ": 6057,
      "human nature ": 6058,
      "every thing": 6059,
      "necessity of ": 6060,
      "ble, ": 6061,
      "laws and ": 6062,
      "refuse ": 6063,
      "y than": 6064,
      "avag": 6065,
      "give rise ": 6066,
      "nations ": 6067,
      "epith": 6068,
      "theism": 6069,
      "had a ": 6070,
      "comput": 6071,
      " with regard to ": 6072,
      "difficulties ": 6073,
      "consequently": 6074,
      "ES, ": 6075,
      "sentence ": 6076,
      "valour": 6077,
      "invari": 6078,
      " acquired": 6079,
      "favourable to ": 6080,
      "influence on ": 6081,
      "possession of ": 6082,
      "possession of the ": 6083,
      " who": 6084,
      ", as well as the ": 6085,
      "deny": 6086,
      "derived ": 6087,
      "particularly ": 6088,
      "originally ": 6089,
      "humanity": 6090,
      "report": 6091,
      "heart ": 6092,
      "choice": 6093,
      "title of ": 6094,
      "pretended ": 6095,
      "inclined to ": 6096,
      "dominion ": 6097,
      "affect": 6098,
      "holy ": 6099,
      "practice of ": 6100,
      "learning": 6101,
      "extravag": 6102,
      "cident ": 6103,
      "certainty": 6104,
      "pride or ": 6105,
      "creatures": 6106,
      ". There are ": 6107,
      ". If we ": 6108,
      "III": 6109,
      "figure ": 6110,
      "arts and ": 6111,
      "patri": 6112,
      "scarcely": 6113,
      "serve to ": 6114,
      "enter into ": 6115,
      "reduced to ": 6116,
      "seems to have ": 6117,
      " assurance ": 6118,
      "mount": 6119,
      " these": 6120,
      "recourse to ": 6121,
      "BRITISH ": 6122,
      "love and hatred": 6123,
      "criminal": 6124,
      "sacrifi": 6125,
      " weak": 6126,
      "satisfactory": 6127,
      "sublime ": 6128,
      "countries": 6129,
      "invention": 6130,
      "build": 6131,
      "rational ": 6132,
      "fronti": 6133,
      "Northumberland": 6134,
      "chain of ": 6135,
      "gold and silver": 6136,
      "EGYPT": 6137,
      "innocent ": 6138,
      "quantity of ": 6139,
      "Becket": 6140,
      "chimer": 6141,
      " his ": 6142,
      "16": 6143,
      "IUS ": 6144,
      "Lord ": 6145,
      "Mar": 6146,
      "Par": 6147,
      "So": 6148,
      "ace": 6149,
      "air ": 6150,
      "bott": 6151,
      "fan": 6152,
      "ib": 6153,
      "len": 6154,
      "mess": 6155,
      "me, ": 6156,
      "non": 6157,
      "per ": 6158,
      "pot": 6159,
      "s? ": 6160,
      "udi": 6161,
      "want ": 6162,
      " avow": 6163,
      "ine, ": 6164,
      "inanim": 6165,
      "ery ": 6166,
      "erect": 6167,
      "er and more ": 6168,
      "s its ": 6169,
      ", may be ": 6170,
      ", even ": 6171,
      " the more ": 6172,
      "of argument": 6173,
      "re-": 6174,
      "resign": 6175,
      "reserv": 6176,
      "remonstr": 6177,
      "army ": 6178,
      "army": 6179,
      "ated to ": 6180,
      "ating the ": 6181,
      "ated, ": 6182,
      "ated the ": 6183,
      ". V": 6184,
      "cher": 6185,
      "ed against ": 6186,
      " to make ": 6187,
      "ed not ": 6188,
      "ask": 6189,
      "as the ": 6190,
      "ose": 6191,
      " theolog": 6192,
      "ston": 6193,
      "forget": 6194,
      "lex": 6195,
      "leav": 6196,
      ", and may ": 6197,
      " to an ": 6198,
      "deman": 6199,
      "defer": 6200,
      "ing it ": 6201,
      "ing him": 6202,
      "ing with ": 6203,
      "ing his": 6204,
      "our attention": 6205,
      "perver": 6206,
      "action ": 6207,
      "al of the ": 6208,
      ". Thus ": 6209,
      "compassion": 6210,
      "discourag": 6211,
      "teri": 6212,
      "proach ": 6213,
      ", and all the ": 6214,
      "tru": 6215,
      "him, and ": 6216,
      " as this ": 6217,
      "so long ": 6218,
      ", the earl of ": 6219,
      "shar": 6220,
      ", that I ": 6221,
      ", that nothing ": 6222,
      " accep": 6223,
      " active ": 6224,
      " accept": 6225,
      " accomplish": 6226,
      "we shall ": 6227,
      "mechan": 6228,
      " the sam": 6229,
      ". All the ": 6230,
      "ate a ": 6231,
      "idol": 6232,
      "rap": 6233,
      " an end": 6234,
      "subver": 6235,
      "hether": 6236,
      " at all": 6237,
      "tude ": 6238,
      "it is certain": 6239,
      "ic ": 6240,
      ", who had been ": 6241,
      ", in his ": 6242,
      ". With": 6243,
      "? I": 6244,
      "fair ": 6245,
      "generation": 6246,
      "objects of ": 6247,
      "load": 6248,
      ", we have ": 6249,
      "surve": 6250,
      "surpris": 6251,
      "poetr": 6252,
      "plausi": 6253,
      "passions, and ": 6254,
      "resour": 6255,
      "parts ": 6256,
      "party, ": 6257,
      "seems": 6258,
      "hered": 6259,
      "ties and ": 6260,
      "much greater ": 6261,
      "requires ": 6262,
      "king himself": 6263,
      ". It was ": 6264,
      "powers and ": 6265,
      "secure ": 6266,
      "ation of his ": 6267,
      ", by his ": 6268,
      ", by which we ": 6269,
      ", he would ": 6270,
      "perfection ": 6271,
      "timately ": 6272,
      ", they would ": 6273,
      "each other ": 6274,
      "chard ": 6275,
      "imput": 6276,
      "interest and ": 6277,
      "thema": 6278,
      " than to ": 6279,
      "upon us": 6280,
      "s in his ": 6281,
      "00,000 ": 6282,
      " amoun": 6283,
      "compound": 6284,
      " army of ": 6285,
      ", where a ": 6286,
      "causes of ": 6287,
      "willingly ": 6288,
      "invisible ": 6289,
      "upon any ": 6290,
      "render the ": 6291,
      "IANS ": 6292,
      "possessor": 6293,
      "employed in ": 6294,
      " always be ": 6295,
      ". And though": 6296,
      "follows": 6297,
      "purpose ": 6298,
      "does": 6299,
      ". Ed": 6300,
      " also be ": 6301,
      "species ": 6302,
      "equality ": 6303,
      "expected": 6304,
      "life, and ": 6305,
      "lander": 6306,
      " admit ": 6307,
      "industry and ": 6308,
      "support the ": 6309,
      "supported by ": 6310,
      "〉〉{Va(1754), ": 6311,
      "reality ": 6312,
      "doubt, ": 6313,
      "grav": 6314,
      "myself ": 6315,
      "probability ": 6316,
      "prisoners": 6317,
      "instances of ": 6318,
      "king of France": 6319,
      "marriage": 6320,
      "fallen ": 6321,
      "refined ": 6322,
      "mentioned": 6323,
      " those": 6324,
      " those, who ": 6325,
      "weak ": 6326,
      "ignorant": 6327,
      "genius ": 6328,
      "We may ": 6329,
      "company": 6330,
      "pride ": 6331,
      "intelligence ": 6332,
      "neither": 6333,
      "mutual": 6334,
      "either to ": 6335,
      "vanity": 6336,
      "ATO": 6337,
      " through ": 6338,
      " arises from ": 6339,
      " arises from the ": 6340,
      "future": 6341,
      "allowed ": 6342,
      "patr": 6343,
      "nobleman ": 6344,
      "far from ": 6345,
      "ENGLISH": 6346,
      "ENGLISH ": 6347,
      "ed them to ": 6348,
      "execution of ": 6349,
      " address": 6350,
      "James": 6351,
      "innocent": 6352,
      "debt": 6353,
      "numerous ": 6354,
      "grief": 6355,
      "pict": 6356,
      "uneasines": 6357,
      "benevolence ": 6358,
      "rules": 6359,
      "works of ": 6360,
      "strike ": 6361,
      "obedience": 6362,
      "battle": 6363,
      "benefic": 6364,
      "voluntary ": 6365,
      "instead ": 6366,
      ", we shall find": 6367,
      "quanti": 6368,
      "meet with ": 6369,
      "pride and humility": 6370,
      "horse": 6371,
      " the sole ": 6372,
      "Nature": 6373,
      "members": 6374,
      "stock of ": 6375,
      " arbitrary": 6376,
      "impulse ": 6377,
      "sacrific": 6378,
      "drew ": 6379,
      "intelligible ": 6380,
      ". Whatever ": 6381,
      "third ": 6382,
      "ecclesiastical ": 6383,
      "instinct": 6384,
      "spread": 6385,
      "learn from ": 6386,
      "hasten": 6387,
      "understood": 6388,
      "laudable ": 6389,
      " the small": 6390,
      "Thomas ": 6391,
      "enthusiasm": 6392,
      "Divine ": 6393,
      "betray": 6394,
      "freedom": 6395,
      "; that": 6396,
      "ACH": 6397,
      "Da": 6398,
      "For": 6399,
      "Flander": 6400,
      "Glo": 6401,
      "Let ": 6402,
      "Sh": 6403,
      "Sal": 6404,
      "Suppos": 6405,
      "When ": 6406,
      "den ": 6407,
      "fit": 6408,
      "ip": 6409,
      "ming": 6410,
      "ox": 6411,
      "phe": 6412,
      "rose ": 6413,
      "s a": 6414,
      "told": 6415,
      "topic": 6416,
      "ution, ": 6417,
      "vast ": 6418,
      "yr": 6419,
      "year ": 6420,
      " therefore": 6421,
      "ind ": 6422,
      "injustice": 6423,
      "incapable of ": 6424,
      "ones": 6425,
      "s may ": 6426,
      "s not": 6427,
      "s for the ": 6428,
      "s with the ": 6429,
      "s in their ": 6430,
      ", from": 6431,
      " the one ": 6432,
      "reap": 6433,
      "orat": 6434,
      "ories": 6435,
      "analog": 6436,
      "tible": 6437,
      "oured ": 6438,
      "is the same ": 6439,
      "is another ": 6440,
      "alle": 6441,
      "alogi": 6442,
      "alogu": 6443,
      "ing all the ": 6444,
      "ed that": 6445,
      "ed as the ": 6446,
      " a new ": 6447,
      "convic": 6448,
      "consist ": 6449,
      "studi": 6450,
      "in such ": 6451,
      "in itself": 6452,
      "sight ": 6453,
      "forfe": 6454,
      "fore the ": 6455,
      "forces ": 6456,
      "ing our ": 6457,
      "ing on the ": 6458,
      "our thought": 6459,
      "exorbit": 6460,
      "being the ": 6461,
      "be not ": 6462,
      "frail": 6463,
      " where ": 6464,
      "emer": 6465,
      "it may ": 6466,
      "perish": 6467,
      "imperfect ": 6468,
      "al or ": 6469,
      "ably": 6470,
      "abstr": 6471,
      "compe": 6472,
      "obli": 6473,
      " that it ": 6474,
      ", all": 6475,
      ", aff": 6476,
      ", amid": 6477,
      "rich ": 6478,
      " are more ": 6479,
      " as an ": 6480,
      "very same ": 6481,
      "overlook": 6482,
      ", the more ": 6483,
      " action, ": 6484,
      "indul": 6485,
      "ity in the ": 6486,
      "gil": 6487,
      " as we ": 6488,
      "add": 6489,
      ". As": 6490,
      "plan ": 6491,
      "ose who ": 6492,
      "soil": 6493,
      "solicit": 6494,
      "serious ": 6495,
      "king to ": 6496,
      "e the same ": 6497,
      "es, or ": 6498,
      "ation in the ": 6499,
      "tud": 6500,
      "county": 6501,
      "lud": 6502,
      "men, and ": 6503,
      " abroad": 6504,
      "fault": 6505,
      "distri": 6506,
      "order and ": 6507,
      "persecu": 6508,
      "y of his ": 6509,
      "y of our ": 6510,
      ". How": 6511,
      " atten": 6512,
      "passions are ": 6513,
      "seems to be ": 6514,
      "never be ": 6515,
      "worship": 6516,
      "into England": 6517,
      " afflic": 6518,
      "will not ": 6519,
      "philosopher ": 6520,
      "requir": 6521,
      "price of ": 6522,
      "instance of ": 6523,
      "both of ": 6524,
      "many other ": 6525,
      "decay": 6526,
      ", though they ": 6527,
      ", he was ": 6528,
      "ENO": 6529,
      "ed to that ": 6530,
      "empire ": 6531,
      "pursuit": 6532,
      "complic": 6533,
      "ed by their ": 6534,
      " appears ": 6535,
      "sembl": 6536,
      "preval": 6537,
      "shall be ": 6538,
      "consequent": 6539,
      "operation ": 6540,
      "operations": 6541,
      " army, ": 6542,
      "conduct, ": 6543,
      "of these two ": 6544,
      "dependence ": 6545,
      "she had ": 6546,
      "liberty, ": 6547,
      "spiritu": 6548,
      "beget ": 6549,
      " acquir": 6550,
      "ready": 6551,
      "limb": 6552,
      "into the hand": 6553,
      " afterwards": 6554,
      "enemies ": 6555,
      ". Of": 6556,
      "fortune, ": 6557,
      "Henry, ": 6558,
      "favourite ": 6559,
      ", is not ": 6560,
      "profan": 6561,
      ", there is ": 6562,
      "defend ": 6563,
      "encrease ": 6564,
      " attendant": 6565,
      ", at present": 6566,
      ". In short": 6567,
      "restra": 6568,
      "preserve the ": 6569,
      "impossible for ": 6570,
      "myst": 6571,
      "; nor is there ": 6572,
      "; nor is it ": 6573,
      "beauty, ": 6574,
      "eye ": 6575,
      "proposal": 6576,
      ". Lord ": 6577,
      "security ": 6578,
      "king of Scotland": 6579,
      "nearer": 6580,
      "nearly": 6581,
      "honour and ": 6582,
      " trade": 6583,
      "sovereign ": 6584,
      "authority of the ": 6585,
      "ought to be ": 6586,
      "services": 6587,
      "magistrates ": 6588,
      "intelligence": 6589,
      ", while the ": 6590,
      "free government": 6591,
      "philosophical": 6592,
      "ATHENIANS": 6593,
      "duty": 6594,
      "north": 6595,
      "office": 6596,
      "carry": 6597,
      "language": 6598,
      "balance of ": 6599,
      "prejudice": 6600,
      "united ": 6601,
      "because they ": 6602,
      "sympathy": 6603,
      "independent ": 6604,
      "multitude": 6605,
      "name of ": 6606,
      "of tast": 6607,
      "Richard ": 6608,
      "rather than ": 6609,
      "hypothesis ": 6610,
      "commodities ": 6611,
      "shall we ": 6612,
      "happiness and ": 6613,
      "inconvenienci": 6614,
      "comparison of ": 6615,
      "command of ": 6616,
      "intention of ": 6617,
      "resistance": 6618,
      "compatible ": 6619,
      "half ": 6620,
      "voluntary": 6621,
      "retired ": 6622,
      "whether ": 6623,
      "planet": 6624,
      "; while the ": 6625,
      "produces a ": 6626,
      "PHIL": 6627,
      " these, ": 6628,
      "monarch ": 6629,
      "mixed ": 6630,
      "polit": 6631,
      "polite ": 6632,
      "utility": 6633,
      "hostili": 6634,
      " agreeable": 6635,
      " third ": 6636,
      "attended with ": 6637,
      "fatal ": 6638,
      "intelligible": 6639,
      "identity": 6640,
      "so great a ": 6641,
      " ancestors": 6642,
      "eminent ": 6643,
      " administration": 6644,
      "majest": 6645,
      "civilized ": 6646,
      "totally ": 6647,
      "OSTHEN": 6648,
      "pardon": 6649,
      "inseparable ": 6650,
      "peasant": 6651,
      "idolat": 6652,
      "; to ": 6653,
      "Dan": 6654,
      "First": 6655,
      "Here ": 6656,
      "Man": 6657,
      "Of": 6658,
      "Ox": 6659,
      "Pro": 6660,
      "RIA": 6661,
      "a, ": 6662,
      "bari": 6663,
      "brea": 6664,
      "cos": 6665,
      "ek": 6666,
      "e; and ": 6667,
      "fas": 6668,
      "fond": 6669,
      "fluc": 6670,
      "ien": 6671,
      "lest": 6672,
      "mouth": 6673,
      "ove": 6674,
      "s them": 6675,
      "s. But ": 6676,
      "s, a ": 6677,
      "temper": 6678,
      "ual ": 6679,
      "ution of the ": 6680,
      "ves of ": 6681,
      " tempt": 6682,
      " thence ": 6683,
      "in all the ": 6684,
      "infidel": 6685,
      "on these ": 6686,
      "enli": 6687,
      "enable ": 6688,
      ", every ": 6689,
      ", should ": 6690,
      ", upon ": 6691,
      ", if we ": 6692,
      "rem": 6693,
      "redi": 6694,
      "ort of ": 6695,
      "three ": 6696,
      "isdom": 6697,
      "island": 6698,
      "is too ": 6699,
      "at the ": 6700,
      "ated with ": 6701,
      "ing those ": 6702,
      "tion.": 6703,
      "itz": 6704,
      "chance ": 6705,
      "ed the same ": 6706,
      " to its ": 6707,
      " to every ": 6708,
      "ed every ": 6709,
      "ed himself ": 6710,
      "ascrib": 6711,
      "pray": 6712,
      "stre": 6713,
      "liti": 6714,
      "see the ": 6715,
      "in Scotland": 6716,
      "sic": 6717,
      "sip": 6718,
      "level": 6719,
      ", and be ": 6720,
      "of the other": 6721,
      "of the most ": 6722,
      "of the kingdom": 6723,
      "ing of a ": 6724,
      "exag": 6725,
      "mathema": 6726,
      "use and ": 6727,
      " word": 6728,
      "emul": 6729,
      "predec": 6730,
      "unanim": 6731,
      "manag": 6732,
      "from an ": 6733,
      "acy, ": 6734,
      "with their ": 6735,
      "s, in the ": 6736,
      " that is ": 6737,
      "discourse ": 6738,
      "dispat": 6739,
      "parties ": 6740,
      "s of government": 6741,
      "ly, the ": 6742,
      "prohibit": 6743,
      "; his ": 6744,
      "in the kingdom": 6745,
      "peti": 6746,
      "so great ": 6747,
      "ought, ": 6748,
      ". The king ": 6749,
      "; and having ": 6750,
      ", that his ": 6751,
      " allow ": 6752,
      "had not ": 6753,
      "nephe": 6754,
      " the situ": 6755,
      "ed to give ": 6756,
      "fire": 6757,
      ". As the ": 6758,
      "was no ": 6759,
      " an equal ": 6760,
      "sole ": 6761,
      "tion or ": 6762,
      "modi": 6763,
      "sati": 6764,
      "reasonable": 6765,
      "I believe ": 6766,
      "can ever ": 6767,
      "minister ": 6768,
      "every kind of ": 6769,
      " that a ": 6770,
      "concert": 6771,
      "man is ": 6772,
      "desp": 6773,
      "descend": 6774,
      "men and ": 6775,
      " abili": 6776,
      ", who is ": 6777,
      ", who had": 6778,
      "order of ": 6779,
      "period ": 6780,
      "ed, he ": 6781,
      "loose ": 6782,
      "loath": 6783,
      "differences": 6784,
      "relish ": 6785,
      "ed by some ": 6786,
      " trag": 6787,
      "early ": 6788,
      "poet ": 6789,
      " at last": 6790,
      "paid ": 6791,
      "passion.": 6792,
      "passionate ": 6793,
      "passions and ": 6794,
      "ves the ": 6795,
      "herself": 6796,
      "quality ": 6797,
      "ful, ": 6798,
      "founded ": 6799,
      "if these ": 6800,
      "regarded as ": 6801,
      "power, ": 6802,
      "imaginary ": 6803,
      "ed without ": 6804,
      "ency": 6805,
      "virtue and ": 6806,
      "longer": 6807,
      "geom": 6808,
      "succour": 6809,
      "observe, ": 6810,
      "even though ": 6811,
      "undoub": 6812,
      "well-": 6813,
      ". She ": 6814,
      "ength ": 6815,
      "theist": 6816,
      "influenc": 6817,
      " than any ": 6818,
      ", therefore, to ": 6819,
      " among them": 6820,
      ". This is the ": 6821,
      "conclude ": 6822,
      "Scots": 6823,
      "becomes": 6824,
      "determination": 6825,
      "ARD": 6826,
      "begin ": 6827,
      "ready to ": 6828,
      "fication": 6829,
      "ideas are ": 6830,
      "impressions ": 6831,
      ": Th": 6832,
      "production": 6833,
      "opinion, ": 6834,
      "expected ": 6835,
      "ALL": 6836,
      "hope ": 6837,
      "reply": 6838,
      "extremities": 6839,
      "ricult": 6840,
      "IST": 6841,
      "idea of a ": 6842,
      "CHIN": 6843,
      "industry ": 6844,
      "except": 6845,
      "except the ": 6846,
      "universally": 6847,
      "constantly ": 6848,
      "love or ": 6849,
      "houses, ": 6850,
      "really": 6851,
      "usually ": 6852,
      "measure, ": 6853,
      "labour ": 6854,
      "myth": 6855,
      "duke of B": 6856,
      "falla": 6857,
      "sword": 6858,
      " account of the ": 6859,
      "method ": 6860,
      "eyes ": 6861,
      ". Many ": 6862,
      "frequent": 6863,
      "when they ": 6864,
      "instances ": 6865,
      "king of Nav": 6866,
      "soon after": 6867,
      "resemblance": 6868,
      "neighbourho": 6869,
      "sympt": 6870,
      "respect, ": 6871,
      " ambiti": 6872,
      "prudence": 6873,
      "magistrates": 6874,
      "however, ": 6875,
      " approach ": 6876,
      ", will be ": 6877,
      ", by that ": 6878,
      ", was the ": 6879,
      ". When the ": 6880,
      " absurd ": 6881,
      "duty ": 6882,
      "throne": 6883,
      "balanc": 6884,
      "prejudice ": 6885,
      "death of ": 6886,
      "openly ": 6887,
      "Step": 6888,
      "education": 6889,
      "sympathy ": 6890,
      "endowed with ": 6891,
      "execution ": 6892,
      " transfer": 6893,
      "definition ": 6894,
      "strange ": 6895,
      "one of the most ": 6896,
      "leaves ": 6897,
      "eloquence ": 6898,
      "historians": 6899,
      " audi": 6900,
      "converted ": 6901,
      "leave the ": 6902,
      "reign of ": 6903,
      "intentions": 6904,
      "fancy": 6905,
      "interrupted ": 6906,
      "catholic ": 6907,
      "constant conjunc": 6908,
      "PLUTARCH": 6909,
      "Suff": 6910,
      "contiguous": 6911,
      "contrivance": 6912,
      "Mont": 6913,
      "queen of ": 6914,
      "necessities of ": 6915,
      "scene ": 6916,
      ", among ": 6917,
      "sensibly ": 6918,
      "likely to ": 6919,
      "dream": 6920,
      "fatal": 6921,
      "dignation": 6922,
      "gross": 6923,
      "machin": 6924,
      ": Yet ": 6925,
      "gradually ": 6926,
      ". After": 6927,
      ". After ": 6928,
      "falsehood": 6929,
      "horror": 6930,
      "broken ": 6931,
      "enough to ": 6932,
      "entitl": 6933,
      "good and evil": 6934,
      ". Even the ": 6935,
      "properly spea": 6936,
      "plenty of ": 6937,
      "breast": 6938,
      "prospect of ": 6939,
      "clear ": 6940,
      "feeble ": 6941,
      "subordinate ": 6942,
      "UGUST": 6943,
      "desperate ": 6944,
      "convulsion": 6945,
      "vehem": 6946,
      "fluctu": 6947,
      "exagger": 6948,
      "predecess": 6949,
      "&c": 6950,
      "'T": 6951,
      ", any ": 6952,
      ", to a ": 6953,
      ", are the ": 6954,
      "; that the ": 6955,
      "AB": 6956,
      "AE": 6957,
      "Ber": 6958,
      "Cal": 6959,
      "Fitz": 6960,
      "I would ": 6961,
      "Ma": 6962,
      "Mal": 6963,
      "New": 6964,
      "Nothing ": 6965,
      "Qu": 6966,
      "TON": 6967,
      "ay, ": 6968,
      "burn": 6969,
      "fit ": 6970,
      "gain ": 6971,
      "hour": 6972,
      "ix": 6973,
      "ken": 6974,
      "l ": 6975,
      "lod": 6976,
      "lately ": 6977,
      "obey": 6978,
      "oath": 6979,
      "sister": 6980,
      "temp": 6981,
      "turn": 6982,
      "vin": 6983,
      " tangi": 6984,
      " a thousand ": 6985,
      " a total ": 6986,
      "insp": 6987,
      "insol": 6988,
      "insul": 6989,
      "indifference ": 6990,
      "on the same ": 6991,
      "s itself ": 6992,
      ", upon the ": 6993,
      ", yet": 6994,
      ", replied ": 6995,
      "offre": 6996,
      "rein": 6997,
      " ann": 6998,
      " annex": 6999,
      "angu": 7000,
      "oud": 7001,
      "ougl": 7002,
      "ating": 7003,
      "ated by the ": 7004,
      "ald": 7005,
      "ings": 7006,
      "it to be ": 7007,
      "cha": 7008,
      "ed against": 7009,
      " to each other": 7010,
      "ed of": 7011,
      "ed in this ": 7012,
      "assin": 7013,
      "seen": 7014,
      "sell": 7015,
      "seat ": 7016,
      "in it": 7017,
      "sie": 7018,
      "six ": 7019,
      "notion": 7020,
      "he had": 7021,
      "ing her ": 7022,
      "made": 7023,
      " and authority": 7024,
      "oppression": 7025,
      "it in ": 7026,
      "it were ": 7027,
      "it was": 7028,
      "amber": 7029,
      "from the same ": 7030,
      "ulous ": 7031,
      "obsc": 7032,
      "discours": 7033,
      "disapprob": 7034,
      "ity, the ": 7035,
      "lying ": 7036,
      "by some ": 7037,
      "vil": 7038,
      "vicious ": 7039,
      "have an ": 7040,
      "ence or ": 7041,
      "him the ": 7042,
      " asp": 7043,
      "due ": 7044,
      "very little ": 7045,
      "; and no ": 7046,
      "monk": 7047,
      "had ever ": 7048,
      "administr": 7049,
      "uphin": 7050,
      "senate": 7051,
      "princes ": 7052,
      "to this ": 7053,
      "together": 7054,
      "feud": 7055,
      " all its ": 7056,
      "subsequ": 7057,
      "subtil": 7058,
      "hether ": 7059,
      "can have no ": 7060,
      " ador": 7061,
      "veter": 7062,
      "despo": 7063,
      "fatigu": 7064,
      "s of all ": 7065,
      "generos": 7066,
      "incess": 7067,
      "distribut": 7068,
      " those which ": 7069,
      " true, ": 7070,
      "passions of ": 7071,
      "which they are ": 7072,
      "presented to ": 7073,
      " appell": 7074,
      "easy and ": 7075,
      "much less ": 7076,
      "who are ": 7077,
      "could not": 7078,
      "requires": 7079,
      "And": 7080,
      "instantly ": 7081,
      "necessity, ": 7082,
      "imagined": 7083,
      "both to ": 7084,
      "appea": 7085,
      "commons ": 7086,
      "if it be ": 7087,
      "; when ": 7088,
      "subjects ": 7089,
      "grant ": 7090,
      "concerning": 7091,
      "make it ": 7092,
      "warm": 7093,
      ", are not ": 7094,
      "upon it": 7095,
      "00 ": 7096,
      " am ": 7097,
      "made him ": 7098,
      ". But though": 7099,
      "himself, ": 7100,
      ". Thus, ": 7101,
      "difficult": 7102,
      "provok": 7103,
      "provision": 7104,
      "evidently ": 7105,
      "operation of ": 7106,
      "relations ": 7107,
      "little or ": 7108,
      "ence of his ": 7109,
      "answ": 7110,
      "hands": 7111,
      "establishment": 7112,
      "enrag": 7113,
      "sum ": 7114,
      "degree, ": 7115,
      "has the ": 7116,
      "object is ": 7117,
      "object of the ": 7118,
      "From": 7119,
      "join ": 7120,
      "depends ": 7121,
      "strongly ": 7122,
      "strongest ": 7123,
      "friend ": 7124,
      "spirit of ": 7125,
      "oke": 7126,
      "renders the ": 7127,
      "render them ": 7128,
      "militi": 7129,
      "pope": 7130,
      "earls of ": 7131,
      ". Or": 7132,
      " throw ": 7133,
      "mind is ": 7134,
      "justly be ": 7135,
      "producing ": 7136,
      "generality of ": 7137,
      "question, ": 7138,
      " whom ": 7139,
      ". Even ": 7140,
      ". It is certain": 7141,
      ", acqu": 7142,
      "equality of ": 7143,
      "ourselves, ": 7144,
      "custom ": 7145,
      "humility ": 7146,
      "humility, ": 7147,
      "easily be ": 7148,
      "force of the ": 7149,
      "entertain ": 7150,
      "which we are ": 7151,
      "constant": 7152,
      ", with regard to the ": 7153,
      "society.": 7154,
      "GREAT": 7155,
      "requisit": 7156,
      "ordinary ": 7157,
      "malcontent": 7158,
      "malice ": 7159,
      ": His ": 7160,
      "fix ": 7161,
      "fixed ": 7162,
      "sooner ": 7163,
      "countrymen": 7164,
      "prosecu": 7165,
      "refined": 7166,
      "constitution ": 7167,
      "chiefly": 7168,
      "composed of ": 7169,
      " also the ": 7170,
      "magistrate": 7171,
      "IAS": 7172,
      "revenge ": 7173,
      "revenue ": 7174,
      "In the ": 7175,
      ". Yet ": 7176,
      "ement of ": 7177,
      "language ": 7178,
      "left": 7179,
      "arts of ": 7180,
      "penser": 7181,
      "reacher": 7182,
      "ILL": 7183,
      "well known": 7184,
      "them ": 7185,
      "opinion of ": 7186,
      "enter into": 7187,
      "born ": 7188,
      "keep ": 7189,
      "Deity ": 7190,
      "external objects": 7191,
      "does not ": 7192,
      "lower ": 7193,
      "s of this kind": 7194,
      "castle": 7195,
      "intended to ": 7196,
      "impose ": 7197,
      "homage ": 7198,
      "doubtful": 7199,
      "copi": 7200,
      " talent": 7201,
      "escape ": 7202,
      "battle ": 7203,
      "insisted on": 7204,
      "qualities of the ": 7205,
      "auder": 7206,
      "propensity to ": 7207,
      "believe": 7208,
      " the second ": 7209,
      "substance": 7210,
      "Guien": 7211,
      "furnit": 7212,
      "If we ": 7213,
      "wrong": 7214,
      "victory ": 7215,
      "have the same ": 7216,
      "soldiers": 7217,
      "hinder": 7218,
      "advanc": 7219,
      "susceptible of ": 7220,
      "Somer": 7221,
      "entrust": 7222,
      ". Up": 7223,
      "singular": 7224,
      "useless": 7225,
      "Warwic": 7226,
      "DEMOSTHEN": 7227,
      "leisure ": 7228,
      "genuine ": 7229,
      "smooth": 7230,
      "inanimate ": 7231,
      "Glocester": 7232,
      "distribu": 7233,
      "enliven": 7234,
      "symptom": 7235,
      " BRITAIN": 7236,
      "0,000": 7237,
      "12": 7238,
      "; we ": 7239,
      "Af": 7240,
      "Canter": 7241,
      "Every ": 7242,
      "Ham": 7243,
      "LO": 7244,
      "Lauder": 7245,
      "Now": 7246,
      "OT": 7247,
      "Re": 7248,
      "Spenser": 7249,
      "UN": 7250,
      "Wor": 7251,
      "bles": 7252,
      "bread": 7253,
      "cla": 7254,
      "done ": 7255,
      "e, which ": 7256,
      "fer ": 7257,
      "gn ": 7258,
      "gone ": 7259,
      "iable ": 7260,
      "ice of ": 7261,
      "ner": 7262,
      "sop": 7263,
      "sag": 7264,
      "s, were ": 7265,
      "s; and the ": 7266,
      "s against ": 7267,
      "s and the ": 7268,
      "tast": 7269,
      "ty and ": 7270,
      "us of the ": 7271,
      "utions": 7272,
      "ught": 7273,
      "vac": 7274,
      "y to the ": 7275,
      "yric": 7276,
      "e and": 7277,
      " tum": 7278,
      " till ": 7279,
      " two": 7280,
      " afra": 7281,
      " thousand": 7282,
      "ine and ": 7283,
      "incapac": 7284,
      "ers of the ": 7285,
      "s himself ": 7286,
      "s concerning ": 7287,
      "of another": 7288,
      "reser": 7289,
      "rew ": 7290,
      "reproach": 7291,
      " anger": 7292,
      "ank": 7293,
      "any thing ": 7294,
      "those ": 7295,
      "esp": 7296,
      "es. The ": 7297,
      "is also ": 7298,
      "ates the ": 7299,
      "al, and ": 7300,
      "alty": 7301,
      "itable ": 7302,
      "chamber": 7303,
      " to us ": 7304,
      "haz": 7305,
      "stone ": 7306,
      "ses of ": 7307,
      "in other ": 7308,
      "in EUROPE": 7309,
      "for the same ": 7310,
      "forbear ": 7311,
      ", and is": 7312,
      ", and of the ": 7313,
      "defi": 7314,
      "delay": 7315,
      " and affection": 7316,
      "oppress": 7317,
      "us.": 7318,
      " arriv": 7319,
      "previ": 7320,
      "unless ": 7321,
      "impractic": 7322,
      "acces": 7323,
      "ables": 7324,
      "on our ": 7325,
      "s, so ": 7326,
      "s, it is ": 7327,
      " that which ": 7328,
      "dissen": 7329,
      "s of her ": 7330,
      ", why": 7331,
      "rigi": 7332,
      "proces": 7333,
      "; or": 7334,
      "; so": 7335,
      "ol ": 7336,
      "in the universe": 7337,
      ": B": 7338,
      ": It ": 7339,
      ", that, in ": 7340,
      ", that they are ": 7341,
      " any particular ": 7342,
      "him.": 7343,
      " as to": 7344,
      " assum": 7345,
      "our present ": 7346,
      " them a ": 7347,
      "very much ": 7348,
      "; and being ": 7349,
      "; and where ": 7350,
      "mond": 7351,
      " accession": 7352,
      "carel": 7353,
      "ence.": 7354,
      "had never ": 7355,
      "ever so ": 7356,
      "no less ": 7357,
      "from every ": 7358,
      "with some ": 7359,
      " alarm": 7360,
      "pass ": 7361,
      "sail": 7362,
      "infirm": 7363,
      "ance or ": 7364,
      "differ ": 7365,
      "hel": 7366,
      "heav": 7367,
      "most of the ": 7368,
      ". By": 7369,
      ". By this ": 7370,
      "must have a ": 7371,
      " that time ": 7372,
      " age and ": 7373,
      "design ": 7374,
      "guardi": 7375,
      " above": 7376,
      "on the other hand": 7377,
      "contest": 7378,
      "contain ": 7379,
      "contempt": 7380,
      "? But ": 7381,
      "father ": 7382,
      "objects are ": 7383,
      "ANS": 7384,
      "uthor of ": 7385,
      "lov": 7386,
      "loy": 7387,
      "distres": 7388,
      "you are ": 7389,
      "consideration ": 7390,
      "poison": 7391,
      "pleased to ": 7392,
      "brought": 7393,
      " all the other ": 7394,
      "his authority": 7395,
      "exten": 7396,
      "renoun": 7397,
      "suppose, ": 7398,
      "suppose a ": 7399,
      " affection ": 7400,
      "could not be ": 7401,
      "ever to ": 7402,
      "imagination, ": 7403,
      "still be ": 7404,
      "lawy": 7405,
      "lawful ": 7406,
      ". But when ": 7407,
      "ers.": 7408,
      "y thousand ": 7409,
      "; what ": 7410,
      "; when": 7411,
      "grad": 7412,
      "ground ": 7413,
      "ity of his ": 7414,
      "charg": 7415,
      ", in that ": 7416,
      "make him ": 7417,
      ". Sh": 7418,
      ". So": 7419,
      "interested ": 7420,
      "meaning": 7421,
      "use of": 7422,
      "upon his ": 7423,
      "principles of the ": 7424,
      "principles of": 7425,
      ". But though ": 7426,
      "sentiments and ": 7427,
      "such a one ": 7428,
      "justifi": 7429,
      "difficult, ": 7430,
      "nothing but the ": 7431,
      "ty of the ": 7432,
      "curious ": 7433,
      "attempt": 7434,
      "severe ": 7435,
      "conduct and ": 7436,
      "being a ": 7437,
      "joy, ": 7438,
      "strong and ": 7439,
      "liberty of ": 7440,
      "upon this ": 7441,
      "spirits": 7442,
      "begg": 7443,
      "distinction of ": 7444,
      "free": 7445,
      "received the ": 7446,
      "sense and ": 7447,
      "employed": 7448,
      "feel a ": 7449,
      "discover the ": 7450,
      "justly": 7451,
      "harm": 7452,
      "divor": 7453,
      "years, ": 7454,
      "questions": 7455,
      ". We shall ": 7456,
      " against his ": 7457,
      "purpose, ": 7458,
      " take the ": 7459,
      "variation": 7460,
      ". They are ": 7461,
      ", there is a ": 7462,
      "science ": 7463,
      "advantages ": 7464,
      "success, ": 7465,
      "highly ": 7466,
      "calm": 7467,
      "calm ": 7468,
      "repli": 7469,
      "situation ": 7470,
      "practis": 7471,
      " admit": 7472,
      ". In order to ": 7473,
      "philosophers, ": 7474,
      "〉〉 ": 7475,
      "become a ": 7476,
      "prevailed": 7477,
      " termin": 7478,
      "precari": 7479,
      "impossible to ": 7480,
      "enquire ": 7481,
      "carries ": 7482,
      "imagination, and ": 7483,
      "Sir Thomas ": 7484,
      ", it is evident": 7485,
      "deliver ": 7486,
      "male ": 7487,
      "which he was ": 7488,
      "for a moment": 7489,
      "knowledge, ": 7490,
      "prosecut": 7491,
      "seems evident": 7492,
      " able to": 7493,
      "authority": 7494,
      "successful ": 7495,
      " animals, ": 7496,
      "prudent ": 7497,
      "gives us a ": 7498,
      "magistrate ": 7499,
      "superstition ": 7500,
      "labour and ": 7501,
      "bodies ": 7502,
      "course of nature": 7503,
      "boundari": 7504,
      " apply": 7505,
      "faculty": 7506,
      "nobility ": 7507,
      "explained": 7508,
      "barons": 7509,
      "endowment": 7510,
      "gentr": 7511,
      "liberal": 7512,
      "days": 7513,
      "motives ": 7514,
      "egyric": 7515,
      "province": 7516,
      "sacred ": 7517,
      "dignity": 7518,
      "conceive": 7519,
      "juris": 7520,
      "in the same manner": 7521,
      " assistance": 7522,
      "tax": 7523,
      "ventured": 7524,
      "step ": 7525,
      "for that purpose": 7526,
      "on this head": 7527,
      "source ": 7528,
      "perpetual": 7529,
      "display ": 7530,
      "obedience ": 7531,
      "panegyric": 7532,
      " advantageous": 7533,
      "pain or ": 7534,
      "scruple ": 7535,
      "PHON": 7536,
      "propensity": 7537,
      " tyrant": 7538,
      "domestic": 7539,
      "itive": 7540,
      "facilit": 7541,
      ", indeed": 7542,
      " title": 7543,
      "condition of ": 7544,
      "may, perhaps, ": 7545,
      " whatever ": 7546,
      "posterity": 7547,
      "deemed ": 7548,
      "odious": 7549,
      "protestant": 7550,
      "obstac": 7551,
      "prerogative": 7552,
      "contrariety of ": 7553,
      "felt": 7554,
      " attempt ": 7555,
      " terror": 7556,
      " application": 7557,
      " applause": 7558,
      " additional ": 7559,
      "falsehood ": 7560,
      " the source of ": 7561,
      "clergy": 7562,
      "doctrine of ": 7563,
      "mortg": 7564,
      "resentment": 7565,
      "Irish ": 7566,
      "sincere ": 7567,
      "representatives": 7568,
      "beneficial": 7569,
      "urbulent ": 7570,
      "crown of England": 7571,
      "PERS": 7572,
      "gallantr": 7573,
      "instru": 7574,
      "speech": 7575,
      "carefully ": 7576,
      "absurd": 7577,
      "transi": 7578,
      "controversy ": 7579,
      "Geoffre": 7580,
      "impressions and ideas": 7581,
      "rash": 7582,
      "encroach": 7583,
      "despair": 7584,
      "demand ": 7585,
      "forfeit": 7586,
      "PHILIP": 7587,
      "Suffolk": 7588,
      "lodg": 7589,
      "GREAT BRITAIN": 7590,
      "9), ": 7591,
      "AP": 7592,
      "AUGUST": 7593,
      "Coun": 7594,
      "Dut": 7595,
      "DES": 7596,
      "EM": 7597,
      "GER": 7598,
      "How ": 7599,
      "HOR": 7600,
      "Holl": 7601,
      "Mor": 7602,
      "No ": 7603,
      "Nor ": 7604,
      "PAR": 7605,
      "PIT": 7606,
      "Paris": 7607,
      "RY": 7608,
      "Tow": 7609,
      "TUR": 7610,
      "bi": 7611,
      "bul": 7612,
      "bla": 7613,
      "bind": 7614,
      "back ": 7615,
      "cloath": 7616,
      "dres": 7617,
      "een": 7618,
      "glad": 7619,
      "hors": 7620,
      "ily": 7621,
      "ible ": 7622,
      "ities ": 7623,
      "ning ": 7624,
      "nourish": 7625,
      "pag": 7626,
      "ren ": 7627,
      "s their ": 7628,
      "s any ": 7629,
      "s as": 7630,
      "s all ": 7631,
      "sect ": 7632,
      "s at ": 7633,
      "s them ": 7634,
      "s. A ": 7635,
      "same": 7636,
      "skill": 7637,
      "treas": 7638,
      "tain ": 7639,
      "toward": 7640,
      "vis": 7641,
      "wall": 7642,
      "wil": 7643,
      "wit, ": 7644,
      " ali": 7645,
      " aston": 7646,
      "inci": 7647,
      "indiv": 7648,
      "inward ": 7649,
      "incapable ": 7650,
      "intimate ": 7651,
      "er and ": 7652,
      "once": 7653,
      "on all ": 7654,
      "s will ": 7655,
      "s should be ": 7656,
      ", C": 7657,
      ", our ": 7658,
      ", is the ": 7659,
      ", had": 7660,
      ", both ": 7661,
      ", because ": 7662,
      "refr": 7663,
      "tious": 7664,
      "th and ": 7665,
      "artic": 7666,
      "ard of ": 7667,
      "argument ": 7668,
      "of which ": 7669,
      "of its ": 7670,
      "ates, ": 7671,
      "ated by": 7672,
      ".  ": 7673,
      "ing all ": 7674,
      "ing, that the ": 7675,
      "ing themselves ": 7676,
      "tion and ": 7677,
      "chances": 7678,
      "ed the s": 7679,
      "ed her": 7680,
      "ed his": 7681,
      "ed into the ": 7682,
      "assu": 7683,
      "ascribe ": 7684,
      " a greater ": 7685,
      " a considerable ": 7686,
      " a few ": 7687,
      " a priori": 7688,
      "consp": 7689,
      "is here ": 7690,
      " theologi": 7691,
      "sty": 7692,
      "stea": 7693,
      "start": 7694,
      "sear": 7695,
      "in her ": 7696,
      "in vain": 7697,
      "sieg": 7698,
      "forward": 7699,
      "force, ": 7700,
      "he is ": 7701,
      "he was": 7702,
      " to an": 7703,
      " to that of ": 7704,
      "ations, and ": 7705,
      "of the crown": 7706,
      "degener": 7707,
      "defeat": 7708,
      "ing its ": 7709,
      "exh": 7710,
      "explain ": 7711,
      " why": 7712,
      " want of ": 7713,
      "it is a ": 7714,
      "es its ": 7715,
      "permitt": 7716,
      "imperfection": 7717,
      "on every ": 7718,
      "utmost": 7719,
      "s, or": 7720,
      "s, in order to ": 7721,
      "parent ": 7722,
      ", whence ": 7723,
      "; by ": 7724,
      "as well": 7725,
      ", that, as ": 7726,
      "pet": 7727,
      "peers": 7728,
      "trust": 7729,
      "age, and ": 7730,
      " asser": 7731,
      ", which it ": 7732,
      ". The first ": 7733,
      "; and yet ": 7734,
      "; and she ": 7735,
      "we to ": 7736,
      "may not": 7737,
      "may safe": 7738,
      ". Its ": 7739,
      "fift": 7740,
      "was now ": 7741,
      "formed a ": 7742,
      "senate ": 7743,
      "; and, ": 7744,
      "; and as the ": 7745,
      "so as to ": 7746,
      "to their ": 7747,
      "motion, ": 7748,
      "saw ": 7749,
      "which it is ": 7750,
      "serious": 7751,
      "es, by ": 7752,
      "inflic": 7753,
      "diffus": 7754,
      "ation of a ": 7755,
      "counties": 7756,
      "some of the ": 7757,
      " adhere ": 7758,
      ", to which": 7759,
      "desired ": 7760,
      "intercourse ": 7761,
      "men to ": 7762,
      "men, who ": 7763,
      " abund": 7764,
      "else ": 7765,
      ", who has ": 7766,
      "but to ": 7767,
      "courti": 7768,
      "ed, or ": 7769,
      "distant": 7770,
      "The same ": 7771,
      "governor": 7772,
      "considered as": 7773,
      ", we always ": 7774,
      "poor ": 7775,
      " at hom": 7776,
      " attack ": 7777,
      "pathe": 7778,
      "bran": 7779,
      "got ": 7780,
      "seeming ": 7781,
      "seemed to ": 7782,
      "able. The ": 7783,
      "hism": 7784,
      "human reason": 7785,
      "vener": 7786,
      "ful and ": 7787,
      "foundation": 7788,
      "supposes": 7789,
      "ever to be ": 7790,
      "instance, ": 7791,
      "both the ": 7792,
      "mind to ": 7793,
      "decis": 7794,
      "ed with the same ": 7795,
      "union ": 7796,
      "may be the ": 7797,
      ", by its ": 7798,
      "happens": 7799,
      "happily ": 7800,
      "ENCE": 7801,
      "subject.": 7802,
      "even to ": 7803,
      "charge ": 7804,
      "mighty": 7805,
      "impli": 7806,
      ", in any ": 7807,
      "either by ": 7808,
      " than that ": 7809,
      "made by ": 7810,
      ". But as": 7811,
      "ed by that ": 7812,
      "existence, ": 7813,
      ", it is": 7814,
      ", it may be ": 7815,
      "relation to ": 7816,
      "like a ": 7817,
      ", where there ": 7818,
      "ude and ": 7819,
      "duration": 7820,
      "ness of": 7821,
      ", when it ": 7822,
      ". A man ": 7823,
      "curious": 7824,
      "determinate ": 7825,
      "sent to ": 7826,
      "joy ": 7827,
      "liberty and ": 7828,
      "liberty, and ": 7829,
      "invent": 7830,
      "e they are ": 7831,
      "sink": 7832,
      "distinctions": 7833,
      "natural to ": 7834,
      "pope ": 7835,
      "IAN, ": 7836,
      " after a ": 7837,
      "ruin ": 7838,
      "rule of ": 7839,
      "discovered ": 7840,
      "impressions": 7841,
      "legal ": 7842,
      "ed in the same ": 7843,
      ". And though ": 7844,
      " advantages ": 7845,
      "produced ": 7846,
      "division ": 7847,
      "change": 7848,
      ", I say, ": 7849,
      "purposes": 7850,
      "memory ": 7851,
      " taking ": 7852,
      "emperor ": 7853,
      "humanity, ": 7854,
      "road ": 7855,
      "custod": 7856,
      "moderation": 7857,
      ", or to ": 7858,
      "choose ": 7859,
      "of them.": 7860,
      "each other's ": 7861,
      "s in the same ": 7862,
      ". In a ": 7863,
      "property, ": 7864,
      "enjoyment ": 7865,
      "slavery": 7866,
      "cloth": 7867,
      "; nor can": 7868,
      "difference between ": 7869,
      "proceeds ": 7870,
      "riches ": 7871,
      "proportion to the ": 7872,
      ". I shall ": 7873,
      " account for the ": 7874,
      " too much ": 7875,
      " above the ": 7876,
      ". Men": 7877,
      ", att": 7878,
      "resembling ": 7879,
      " travell": 7880,
      "courage, ": 7881,
      "ed on a ": 7882,
      "ignorance": 7883,
      "authority of ": 7884,
      "successor": 7885,
      " what is ": 7886,
      "ORUS ": 7887,
      "gives rise ": 7888,
      "either the ": 7889,
      "observe, that ": 7890,
      "promise": 7891,
      "contradict": 7892,
      "sense, ": 7893,
      " through the ": 7894,
      " throughout the ": 7895,
      "under the command of ": 7896,
      "says he, ": 7897,
      "desire of ": 7898,
      "desirable ": 7899,
      "desirous of ": 7900,
      "communicate ": 7901,
      " addres": 7902,
      "receive the ": 7903,
      " truth and ": 7904,
      "correspondent ": 7905,
      "fall into ": 7906,
      "dignity of ": 7907,
      "strangers": 7908,
      "surprize ": 7909,
      "doctrine ": 7910,
      "doctrine": 7911,
      "refused to ": 7912,
      "confessed": 7913,
      "so far as to ": 7914,
      "strik": 7915,
      "infinitum": 7916,
      "essential ": 7917,
      " talk": 7918,
      "persuas": 7919,
      "e that the ": 7920,
      " actually ": 7921,
      "mistaken": 7922,
      ". Such": 7923,
      "confidence": 7924,
      "SPAN": 7925,
      "SPART": 7926,
      "usurper": 7927,
      "; where the ": 7928,
      "mountain": 7929,
      "Roman ": 7930,
      "submit to the ": 7931,
      " taste and ": 7932,
      "sudden ": 7933,
      "know not ": 7934,
      "ridicu": 7935,
      "facility": 7936,
      "perceive the ": 7937,
      "censure": 7938,
      "kept": 7939,
      "principal": 7940,
      " admiration": 7941,
      "clear and ": 7942,
      "clearly ": 7943,
      "piece of ": 7944,
      "disagreeable ": 7945,
      ", above ": 7946,
      "convincing": 7947,
      "curiosity": 7948,
      "steady ": 7949,
      "impulse": 7950,
      " the sentiments of ": 7951,
      " transition": 7952,
      "likely": 7953,
      "sciences ": 7954,
      "e themselves": 7955,
      "female ": 7956,
      "ODORUS ": 7957,
      "began to ": 7958,
      "Normandy": 7959,
      "hurt": 7960,
      "fundament": 7961,
      "even where ": 7962,
      "remedy": 7963,
      "watch": 7964,
      "knight": 7965,
      "repose ": 7966,
      "proprietor": 7967,
      "FRENCH ": 7968,
      "ALEXANDER": 7969,
      "fleet": 7970,
      ", at the same time, ": 7971,
      "strictly ": 7972,
      "{VIa(1757), 2": 7973,
      "experience and observation": 7974,
      "SICUL": 7975,
      "venture to": 7976,
      ", appear": 7977,
      "Lancaster": 7978,
      "stupid": 7979,
      "shelter ": 7980,
      "grande": 7981,
      ", in other word": 7982,
      "bottom": 7983,
      "message ": 7984,
      "Salis": 7985,
      "indulge ": 7986,
      "Oxford": 7987,
      "nephew": 7988,
      "mytholog": 7989,
      "Stephen": 7990,
      "Cala": 7991,
      "subsequent ": 7992,
      "Lauderdal": 7993,
      "ODORUS SICUL": 7994,
      "fundamental ": 7995,
      "(and ": 7996,
      ", aris": 7997,
      "-b": 7998,
      "/3": 7999,
      "As ": 8000,
      "Di": 8001,
      "Dougl": 8002,
      "Here": 8003,
      "HOM": 8004,
      "Ital": 8005,
      "I think": 8006,
      "Ia(1762": 8007,
      "MAR": 8008,
      "Pal": 8009,
      "RI": 8010,
      "So ": 8011,
      "Sto": 8012,
      "To": 8013,
      "UM": 8014,
      "Virtu": 8015,
      "XENO": 8016,
      "You ": 8017,
      "aver": 8018,
      "bri": 8019,
      "cy": 8020,
      "camp": 8021,
      "dare ": 8022,
      "ean": 8023,
      "eigh": 8024,
      "egr": 8025,
      "flo": 8026,
      "ier": 8027,
      "ies of ": 8028,
      "ling": 8029,
      "lest ": 8030,
      "mb": 8031,
      "mer ": 8032,
      "nin": 8033,
      "next": 8034,
      "oce": 8035,
      "ros": 8036,
      "sam": 8037,
      "squ": 8038,
      "shad": 8039,
      "s than": 8040,
      "sanc": 8041,
      "s among the ": 8042,
      "slow": 8043,
      "two": 8044,
      "uch": 8045,
      "ugn": 8046,
      "went ": 8047,
      "wound": 8048,
      "xious ": 8049,
      "e was ": 8050,
      " teach": 8051,
      " a true ": 8052,
      " thus": 8053,
      "indiffer": 8054,
      "in this": 8055,
      "insensible ": 8056,
      "incident": 8057,
      "incomprehen": 8058,
      "one th": 8059,
      "one the ": 8060,
      "s would ": 8061,
      "enor": 8062,
      ", is a ": 8063,
      ", say": 8064,
      ", before ": 8065,
      ", if the ": 8066,
      ", let us ": 8067,
      " the king ": 8068,
      " the mind ": 8069,
      "remor": 8070,
      "repa": 8071,
      "remedi": 8072,
      "represent ": 8073,
      "revers": 8074,
      "reign ": 8075,
      "resid": 8076,
      "remember": 8077,
      "reluc": 8078,
      " annihilat": 8079,
      "ander": 8080,
      "this": 8081,
      "thel": 8082,
      "therefore ": 8083,
      "arre": 8084,
      "are the ": 8085,
      "arts ": 8086,
      "arbitr": 8087,
      "of such ": 8088,
      "of human ": 8089,
      "hir": 8090,
      "is any ": 8091,
      "ise, ": 8092,
      "ater": 8093,
      "almost ": 8094,
      "tions, and ": 8095,
      "chain": 8096,
      "chall": 8097,
      "edic": 8098,
      "ed their": 8099,
      "ed over": 8100,
      "ed over ": 8101,
      "as to ": 8102,
      "eced": 8103,
      "er or ": 8104,
      "conve": 8105,
      " theory ": 8106,
      "iron": 8107,
      "stopp": 8108,
      "in my ": 8109,
      "for an ": 8110,
      ", and his ": 8111,
      ", and so ": 8112,
      ", and more ": 8113,
      " too": 8114,
      " took": 8115,
      " together ": 8116,
      "ly we find": 8117,
      "of the universe": 8118,
      "demon": 8119,
      "delu": 8120,
      "devot": 8121,
      "exist ": 8122,
      "behold": 8123,
      "oppres": 8124,
      "or of the ": 8125,
      "us to": 8126,
      "frame ": 8127,
      " we th": 8128,
      " when": 8129,
      " arti": 8130,
      " arrive ": 8131,
      "his own": 8132,
      "precept": 8133,
      "ung": 8134,
      "unite ": 8135,
      "unfortunate ": 8136,
      "it would ": 8137,
      "perus": 8138,
      "imprison": 8139,
      "immortal": 8140,
      "acr": 8141,
      "acit": 8142,
      "acy of ": 8143,
      "abandon": 8144,
      "come to ": 8145,
      "s, is": 8146,
      "ound of ": 8147,
      "terr": 8148,
      "river": 8149,
      " this is ": 8150,
      "; it is ": 8151,
      "more the ": 8152,
      ": We ": 8153,
      " to the same ": 8154,
      ", and as ": 8155,
      ", that an ": 8156,
      ", that the same ": 8157,
      "endless ": 8158,
      "and un": 8159,
      "tra": 8160,
      " any such ": 8161,
      ", which were ": 8162,
      "our own": 8163,
      " them, and ": 8164,
      "presence ": 8165,
      "whence ": 8166,
      "very un": 8167,
      ". The king, ": 8168,
      "mental ": 8169,
      "e, but ": 8170,
      "shew ": 8171,
      "shock": 8172,
      ", that our ": 8173,
      ", that we are ": 8174,
      "cauti": 8175,
      "ously": 8176,
      " they be ": 8177,
      "mean ": 8178,
      " the soul": 8179,
      ". Ab": 8180,
      "with him": 8181,
      "formid": 8182,
      "send ": 8183,
      "princess": 8184,
      "ray": 8185,
      "other, ": 8186,
      "tion of": 8187,
      "for it": 8188,
      "for him": 8189,
      "felic": 8190,
      "king, and ": 8191,
      "infest": 8192,
      "ance to the ": 8193,
      "diffid": 8194,
      "heat": 8195,
      "heir ": 8196,
      "held ": 8197,
      "wide": 8198,
      "wick": 8199,
      "can have ": 8200,
      "can give ": 8201,
      "minut": 8202,
      "muse": 8203,
      "every day ": 8204,
      "concert ": 8205,
      " agricult": 8206,
      "desires": 8207,
      "descrip": 8208,
      "menac": 8209,
      "s of the people": 8210,
      ", in general": 8211,
      "faul": 8212,
      "generous": 8213,
      "generosity": 8214,
      "court, ": 8215,
      "incul": 8216,
      "ately": 8217,
      "cases ": 8218,
      "factions": 8219,
      "you to ": 8220,
      "considered ": 8221,
      ", we should ": 8222,
      ", we must": 8223,
      "finer ": 8224,
      "please ": 8225,
      " appeas": 8226,
      "les and ": 8227,
      "suppress": 8228,
      "ease and ": 8229,
      "extort": 8230,
      "found to ": 8231,
      "supposed": 8232,
      " affect ": 8233,
      "whole, ": 8234,
      "ways ": 8235,
      "kinds, ": 8236,
      "could ever ": 8237,
      "ity, or ": 8238,
      "Ang": 8239,
      ". It is a ": 8240,
      "k or ": 8241,
      "power to ": 8242,
      "law, ": 8243,
      "mind, which ": 8244,
      "blind ": 8245,
      "union of ": 8246,
      "virtues ": 8247,
      "virtues, ": 8248,
      "persons of ": 8249,
      "retreat": 8250,
      "subject to ": 8251,
      "subjects of ": 8252,
      "government.": 8253,
      "implies ": 8254,
      ", in their ": 8255,
      ". Now ": 8256,
      "either side": 8257,
      "war, ": 8258,
      "entirely to ": 8259,
      "barbari": 8260,
      "sentiments, ": 8261,
      ". Fr": 8262,
      "famous ": 8263,
      "general law": 8264,
      "different from": 8265,
      " with regard to the ": 8266,
      "ty-": 8267,
      "tyrann": 8268,
      "society, and ": 8269,
      "exclaim": 8270,
      "operation of the ": 8271,
      "operates ": 8272,
      "of this kind ": 8273,
      "durable ": 8274,
      "during his ": 8275,
      "EST": 8276,
      "put to ": 8277,
      "England, and ": 8278,
      "degrees ": 8279,
      ", were the ": 8280,
      "itude": 8281,
      "equity": 8282,
      "th of the ": 8283,
      ", without being ": 8284,
      "willing to ": 8285,
      "greater or less ": 8286,
      " than in the ": 8287,
      "spirit, ": 8288,
      "receives ": 8289,
      "possible to ": 8290,
      "proceed to ": 8291,
      "mankind, ": 8292,
      "enemy ": 8293,
      "enemies, ": 8294,
      " taking": 8295,
      ". And the ": 8296,
      "esteemed a ": 8297,
      "public good": 8298,
      "disposition of the ": 8299,
      "dangerous to ": 8300,
      ". It is evident": 8301,
      "derived": 8302,
      ", there is no ": 8303,
      "encrease the ": 8304,
      "succession ": 8305,
      "resembles": 8306,
      "engaged the ": 8307,
      "honour ": 8308,
      "reason of the ": 8309,
      ", at first": 8310,
      "repent": 8311,
      "repugn": 8312,
      ", as they ": 8313,
      "situation, ": 8314,
      "events ": 8315,
      "hearken": 8316,
      "characters and ": 8317,
      "day, ": 8318,
      "place in ": 8319,
      "place in the ": 8320,
      "prevail ": 8321,
      "precis": 8322,
      "slaver": 8323,
      "in his own ": 8324,
      "direction": 8325,
      "do not": 8326,
      "occasion ": 8327,
      "ed, that he ": 8328,
      "entertained ": 8329,
      "remarkable": 8330,
      " account for": 8331,
      "delight ": 8332,
      "contrary to the ": 8333,
      "indeed": 8334,
      "affirm": 8335,
      "excite the ": 8336,
      "enquiries": 8337,
      "enquiries ": 8338,
      " train ": 8339,
      "courage": 8340,
      "courage and ": 8341,
      "maxims of ": 8342,
      "place, and ": 8343,
      " assist ": 8344,
      " also a ": 8345,
      "animal": 8346,
      "animal ": 8347,
      "diminish ": 8348,
      "obvious and ": 8349,
      "jealous ": 8350,
      ". There is ": 8351,
      ". There is no ": 8352,
      "distinguish ": 8353,
      "superiority": 8354,
      ", while he ": 8355,
      "conquest ": 8356,
      "phenomenon ": 8357,
      "phenomena ": 8358,
      "of ancient ": 8359,
      "reveng": 8360,
      "revenge": 8361,
      "contradiction ": 8362,
      "throp": 8363,
      "throne ": 8364,
      ". You": 8365,
      "resulting ": 8366,
      "desire to ": 8367,
      ". If you ": 8368,
      " would be ": 8369,
      "scarcely be ": 8370,
      "opposition to the ": 8371,
      "prevent the ": 8372,
      "appearance of the ": 8373,
      " arts and ": 8374,
      "besides the ": 8375,
      "queen's ": 8376,
      "happiness ": 8377,
      "credit ": 8378,
      "narrow": 8379,
      "element": 8380,
      "fall into": 8381,
      "necessary connexion": 8382,
      "sometimes": 8383,
      "benevolence": 8384,
      "settled ": 8385,
      "jealousy ": 8386,
      "? What ": 8387,
      "EUROPEAN ": 8388,
      "medit": 8389,
      "inconvenience": 8390,
      "against": 8391,
      "sense of the ": 8392,
      "providence": 8393,
      "children ": 8394,
      " acquaintance": 8395,
      "Elizabeth ": 8396,
      "side of ": 8397,
      "that the ": 8398,
      "it is impossible to ": 8399,
      "of the same kind": 8400,
      "detect": 8401,
      "lords ": 8402,
      " assurance": 8403,
      "comprehension": 8404,
      "son of the ": 8405,
      "side of the ": 8406,
      " alliance": 8407,
      "repeti": 8408,
      "dissolv": 8409,
      " according to the ": 8410,
      "among ": 8411,
      ". Thus the ": 8412,
      "daughter": 8413,
      ": No ": 8414,
      "deceit": 8415,
      "deceiv": 8416,
      "protection of ": 8417,
      "deformity": 8418,
      "? How ": 8419,
      "preparations ": 8420,
      "spectator": 8421,
      "contempt ": 8422,
      "satisfied with ": 8423,
      " assembly": 8424,
      "ravag": 8425,
      "beautiful ": 8426,
      "poverty": 8427,
      "physical ": 8428,
      "fruitless ": 8429,
      "One ": 8430,
      "On the ": 8431,
      "spread ": 8432,
      ". Let us ": 8433,
      ". Un": 8434,
      "excessive ": 8435,
      "prince of Wal": 8436,
      ". Hence the ": 8437,
      "POLYB": 8438,
      "absolute ": 8439,
      "Irish": 8440,
      "involv": 8441,
      "magnificent ": 8442,
      "Lewis": 8443,
      ", against the ": 8444,
      "earnest": 8445,
      " analogy": 8446,
      "causes and effect": 8447,
      "precipit": 8448,
      "prepared": 8449,
      "vengeance": 8450,
      "novelty": 8451,
      "societies": 8452,
      "illustr": 8453,
      "Secondly, ": 8454,
      "JUPIT": 8455,
      "LONDON": 8456,
      "holder": 8457,
      "journe": 8458,
      " whole ": 8459,
      "arts and sciences": 8460,
      "patriot": 8461,
      "fana": 8462,
      "plausible ": 8463,
      "despis": 8464,
      "answer": 8465,
      "espous": 8466,
      "jurisdic": 8467,
      "mortgag": 8468,
      "TURK": 8469,
      " astonish": 8470,
      "exhort": 8471,
      "XENOPHON": 8472,
      "ocean": 8473,
      "reluct": 8474,
      " of a ": 8475,
      ", two ": 8476,
      "All": 8477,
      "BO": 8478,
      "Cor": 8479,
      "CON": 8480,
      "Dev": 8481,
      "Epic": 8482,
      "HE": 8483,
      "HOL": 8484,
      "LE": 8485,
      "LES": 8486,
      "Rog": 8487,
      "RAT": 8488,
      "SY": 8489,
      "UC": 8490,
      "VER": 8491,
      "What": 8492,
      "While ": 8493,
      "Y, ": 8494,
      "aw": 8495,
      "bos": 8496,
      "din": 8497,
      "eag": 8498,
      "et of ": 8499,
      "fain": 8500,
      "fy the ": 8501,
      "hunt": 8502,
      "lend": 8503,
      "o'": 8504,
      "oil": 8505,
      "ocr": 8506,
      "pesti": 8507,
      "sort": 8508,
      "s there ": 8509,
      "s, and to ": 8510,
      "soft": 8511,
      "s, to": 8512,
      "s, which they ": 8513,
      "testimon": 8514,
      "wast": 8515,
      "were, ": 8516,
      "yn": 8517,
      " as of ": 8518,
      " author ": 8519,
      " amuse": 8520,
      "in-": 8521,
      "in an": 8522,
      "inev": 8523,
      "in tim": 8524,
      "indign": 8525,
      "intimately ": 8526,
      "erever ": 8527,
      "one that ": 8528,
      "s which": 8529,
      "ener": 8530,
      "enact": 8531,
      "enough ": 8532,
      ", of the ": 8533,
      ", my ": 8534,
      "t our ": 8535,
      "of action": 8536,
      "of all these ": 8537,
      "reject ": 8538,
      "resum": 8539,
      "releas": 8540,
      "orp": 8541,
      "orary ": 8542,
      "another ": 8543,
      "es to be ": 8544,
      "isha": 8545,
      "atter": 8546,
      "ature": 8547,
      "ates of ": 8548,
      "ates, and ": 8549,
      "ing that": 8550,
      "it as ": 8551,
      "it as a ": 8552,
      "chea": 8553,
      "chuse ": 8554,
      "omorp": 8555,
      "ed these ": 8556,
      "ed, they ": 8557,
      "ed, were ": 8558,
      "ed. And ": 8559,
      "ed, that, ": 8560,
      "ed themselves": 8561,
      "ed among ": 8562,
      "associ": 8563,
      "ective ": 8564,
      "prav": 8565,
      "constitut": 8566,
      "is still ": 8567,
      "is nothing but a ": 8568,
      "lives ": 8569,
      "in so ": 8570,
      "in vain ": 8571,
      "sign ": 8572,
      "forg": 8573,
      "for which ": 8574,
      "forbear": 8575,
      "verac": 8576,
      "nobl": 8577,
      "notions of ": 8578,
      "le, and ": 8579,
      ", and in ": 8580,
      ", and has ": 8581,
      "of the one ": 8582,
      "depri": 8583,
      "deities": 8584,
      "deprav": 8585,
      "ing him ": 8586,
      "exemp": 8587,
      "excommunication": 8588,
      "beast": 8589,
      " argu": 8590,
      "his son": 8591,
      "precious ": 8592,
      "it must ": 8593,
      "divers": 8594,
      "peril": 8595,
      "intr": 8596,
      "accustom": 8597,
      "with this ": 8598,
      " that prince ": 8599,
      "disqu": 8600,
      "dismis": 8601,
      "parad": 8602,
      "paralle": 8603,
      ", agre": 8604,
      "s of men, ": 8605,
      "tern ": 8606,
      "e there ": 8607,
      "by its ": 8608,
      "by mean": 8609,
      "by experience": 8610,
      "provi": 8611,
      "project ": 8612,
      "; so ": 8613,
      "; it is evident": 8614,
      "vice, ": 8615,
      "vigil": 8616,
      " are not": 8617,
      ", that those ": 8618,
      "not of ": 8619,
      "laid": 8620,
      "lative ": 8621,
      " as an": 8622,
      " ascertain": 8623,
      "duties": 8624,
      ", which I ": 8625,
      ", which had been ": 8626,
      ", which he had ": 8627,
      "pression of ": 8628,
      ". The only ": 8629,
      "est and ": 8630,
      "over a ": 8631,
      "; and by ": 8632,
      "; and if ": 8633,
      "; and when": 8634,
      "; and when ": 8635,
      "; and it was ": 8636,
      ", the only ": 8637,
      ", that one ": 8638,
      ", that she ": 8639,
      " act of the ": 8640,
      "caval": 8641,
      "gic": 8642,
      "ures ": 8643,
      "one object": 8644,
      "had been": 8645,
      "we not ": 8646,
      "nea": 8647,
      " the sci": 8648,
      "fiel": 8649,
      "adjust": 8650,
      "no less": 8651,
      "no wonder": 8652,
      ". Al": 8653,
      ". Among": 8654,
      "space ": 8655,
      "ets of ": 8656,
      "ety, ": 8657,
      "rati": 8658,
      "others, and ": 8659,
      "ists, ": 8660,
      "solem": 8661,
      "not to": 8662,
      "to these ": 8663,
      "to another": 8664,
      "took ": 8665,
      "for its ": 8666,
      "tics ": 8667,
      "fear ": 8668,
      "feign": 8669,
      "passes ": 8670,
      "food": 8671,
      "reason why": 8672,
      "inflex": 8673,
      "can never": 8674,
      "counsell": 8675,
      "every where ": 8676,
      "licenti": 8677,
      ", with which": 8678,
      "some time ": 8679,
      " adop": 8680,
      ", to have ": 8681,
      " abolish": 8682,
      "on the mind": 8683,
      ". Who ": 8684,
      "? It ": 8685,
      "faint": 8686,
      "s of those ": 8687,
      "objects, which ": 8688,
      "difference of ": 8689,
      "atever": 8690,
      "distress": 8691,
      "case of ": 8692,
      "case, the ": 8693,
      "governed by ": 8694,
      ", which are the ": 8695,
      "orders ": 8696,
      "foresee": 8697,
      "judic": 8698,
      "surfa": 8699,
      "surrender": 8700,
      " to be a ": 8701,
      " the same manner": 8702,
      "brain": 8703,
      "effic": 8704,
      " we can ": 8705,
      " we are ": 8706,
      "parts, ": 8707,
      "illeg": 8708,
      "seem to have ": 8709,
      "herself ": 8710,
      "s the most ": 8711,
      "his army ": 8712,
      "human society": 8713,
      "human creature": 8714,
      "in a manner ": 8715,
      "suppose the ": 8716,
      "Anj": 8717,
      "Anthrop": 8718,
      ". It was": 8719,
      "price ": 8720,
      "instant": 8721,
      "expence": 8722,
      "power, and ": 8723,
      "powers of ": 8724,
      "still continu": 8725,
      "still greater ": 8726,
      "appre": 8727,
      "approach": 8728,
      "under a ": 8729,
      "understand ": 8730,
      "mind and ": 8731,
      "ed with their ": 8732,
      "virtue, and ": 8733,
      "person, ": 8734,
      "ed with great ": 8735,
      ", by which ": 8736,
      "; who ": 8737,
      "even of ": 8738,
      "give them": 8739,
      "ed too ": 8740,
      "observable": 8741,
      "observed, that": 8742,
      "government, and ": 8743,
      "nations, ": 8744,
      "nothing to ": 8745,
      "experience of ": 8746,
      "find the ": 8747,
      "find a ": 8748,
      "make any ": 8749,
      "supply the ": 8750,
      "either in ": 8751,
      ". But as the ": 8752,
      "ed by this ": 8753,
      " always the ": 8754,
      "general maxim": 8755,
      "different from the ": 8756,
      "reasoning and ": 8757,
      "certain and ": 8758,
      "circumstance, ": 8759,
      "excus": 8760,
      ", it was ": 8761,
      "line": 8762,
      "relations, ": 8763,
      "violence and ": 8764,
      "cause, and ": 8765,
      "criticism": 8766,
      "says the ": 8767,
      "France and ": 8768,
      "danger of ": 8769,
      "yet been ": 8770,
      "she was ": 8771,
      "But though": 8772,
      "upon them": 8773,
      " acquisition": 8774,
      "peach": 8775,
      "proceed from": 8776,
      "employed ": 8777,
      " afterward": 8778,
      "enemy, ": 8779,
      "friends and ": 8780,
      "THAG": 8781,
      "respect ": 8782,
      ". And as ": 8783,
      "favour of ": 8784,
      "enters ": 8785,
      " agreement ": 8786,
      "possess ": 8787,
      "possesses ": 8788,
      "change of ": 8789,
      "perhaps the ": 8790,
      ", I have ": 8791,
      " why ": 8792,
      ". Ever": 8793,
      "creature ": 8794,
      "defence ": 8795,
      "encreases ": 8796,
      "original": 8797,
      "resemble": 8798,
      "people were ": 8799,
      "engaged to ": 8800,
      "engage the ": 8801,
      "like that ": 8802,
      "principles and ": 8803,
      "may appear": 8804,
      "may add": 8805,
      "events": 8806,
      "of all our ": 8807,
      "of them, ": 8808,
      " arguments ": 8809,
      "CHE": 8810,
      "signi": 8811,
      "morality ": 8812,
      "intellect": 8813,
      "pretended": 8814,
      "constant and ": 8815,
      ", with regard to ": 8816,
      "houses": 8817,
      "reality, ": 8818,
      "naturally be ": 8819,
      "doubt and ": 8820,
      "do we ": 8821,
      "government of ": 8822,
      "monarchy, ": 8823,
      "inclinations": 8824,
      "proceeding ": 8825,
      "riches, ": 8826,
      "beauty and ": 8827,
      "maintain a ": 8828,
      "placed ": 8829,
      "interest of ": 8830,
      "consistent ": 8831,
      "consists in the ": 8832,
      "destroy ": 8833,
[...]
