{
  "version": "1.0",
  "truncation": null,
  "padding": null,
  "added_tokens": [
    {
      "id": 0,
      "content": "[UNK]",
      "single_word": false,
      "lstrip": false,
      "rstrip": false,
      "normalized": false,
      "special": true
    },
    {
      "id": 1,
      "content": "[CLS]",
      "single_word": false,
      "lstrip": false,
      "rstrip": false,
      "normalized": false,
      "special": true
    },
    {
      "id": 2,
      "content": "[SEP]",
      "single_word": false,
      "lstrip": false,
      "rstrip": false,
      "normalized": false,
      "special": true
    },
    {
      "id": 3,
      "content": "[PAD]",
      "single_word": false,
      "lstrip": false,
      "rstrip": false,
      "normalized": false,
      "special": true
    },
    {
      "id": 4,
      "content": "[MASK]",
      "single_word": false,
      "lstrip": false,
      "rstrip": false,
      "normalized": false,
      "special": true
    }
  ],
  "normalizer": null,
  "pre_tokenizer": null,
  "post_processor": null,
  "decoder": null,
  "model": {
    "type": "BPE",
    "dropout": null,
    "unk_token": "[UNK]",
    "continuing_subword_prefix": null,
    "end_of_word_suffix": null,
    "fuse_unk": false,
    "byte_fallback": false,
    "ignore_merges": false,
    "vocab": {
      "[UNK]": 0,
      "[CLS]": 1,
      "[SEP]": 2,
      "[PAD]": 3,
      "[MASK]": 4,
      " ": 5,
      "!": 6,
      "\"": 7,
      "&": 8,
      "'": 9,
      "(": 10,
      ")": 11,
      "*": 12,
      ",": 13,
      "-": 14,
      ".": 15,
      "/": 16,
      "0": 17,
      "1": 18,
      "2": 19,
      "3": 20,
      "4": 21,
      "5": 22,
      "6": 23,
      "7": 24,
      "8": 25,
      "9": 26,
      ":": 27,
      ";": 28,
      "?": 29,
      "A": 30,
      "B": 31,
      "C": 32,
      "D": 33,
      "E": 34,
      "F": 35,
      "G": 36,
      "H": 37,
      "I": 38,
      "J": 39,
      "K": 40,
      "L": 41,
      "M": 42,
      "N": 43,
      "O": 44,
      "P": 45,
      "Q": 46,
      "R": 47,
      "S": 48,
      "T": 49,
      "U": 50,
      "V": 51,
      "W": 52,
      "X": 53,
      "Y": 54,
      "Z": 55,
      "[": 56,
      "]": 57,
      "a": 58,
      "b": 59,
      "c": 60,
      "d": 61,
      "e": 62,
      "f": 63,
      "g": 64,
      "h": 65,
      "i": 66,
      "j": 67,
      "k": 68,
      "l": 69,
      "m": 70,
      "n": 71,
      "o": 72,
      "p": 73,
      "q": 74,
      "r": 75,
      "s": 76,
      "t": 77,
      "u": 78,
      "v": 79,
      "w": 80,
      "x": 81,
      "y": 82,
      "z": 83,
      "{": 84,
      "}": 85,
      "ç": 86,
      "é": 87,
      "ë": 88,
      "ï": 89,
      "ü": 90,
      "—": 91,
      "〈": 92,
      "〉": 93,
      "e ": 94,
      " t": 95,
      " a": 96,
      " th": 97,
      "in": 98,
      "er": 99,
      "on": 100,
      "s ": 101,
      "d ": 102,
      "en": 103,
      ", ": 104,
      "t ": 105,
      " the ": 106,
      "of": 107,
      "re": 108,
      " an": 109,
      "y ": 110,
      "or": 111,
      "ti": 112,
      "an": 113,
      "th": 114,
      "ou": 115,
      "es": 116,
      "o ": 117,
      "ar": 118,
      "hi": 119,
      "of ": 120,
      " and ": 121,
      "is": 122,
      "at": 123,
      "ing": 124,
      "al": 125,
      ". ": 126,
      "ch": 127,
      "tion": 128,
      "it": 129,
      "om": 130,
      "ed": 131,
      " to ": 132,
      "ed ": 133,
      "as": 134,
      ", w": 135,
      "ec": 136,
      "er ": 137,
      " a ": 138,
      "ll": 139,
      "pr": 140,
      "ha": 141,
      "is ": 142,
      "os": 143,
      "con": 144,
      "su": 145,
      "ir": 146,
      "em": 147,
      "ent": 148,
      "st": 149,
      "ce": 150,
      ", th": 151,
      "li": 152,
      "si": 153,
      "ce ": 154,
      "in ": 155,
      "at ": 156,
      "for": 157,
      "ch ": 158,
      "se": 159,
      "ver": 160,
      "ith": 161,
      "he ": 162,
      ", and ": 163,
      "no": 164,
      " to": 165,
      "bl": 166,
      "ation": 167,
      "ing ": 168,
      "of the ": 169,
      "ve ": 170,
      "ur": 171,
      "ly ": 172,
      "ex": 173,
      "our": 174,
      "be": 175,
      "de": 176,
      "ma": 177,
      "be ": 178,
      "op": 179,
      " and": 180,
      "or ": 181,
      " the": 182,
      "es ": 183,
      "us": 184,
      " w": 185,
      "fr": 186,
      "ow": 187,
      "his ": 188,
      " ar": 189,
      "un": 190,
      "pre": 191,
      "ere ": 192,
      "pl": 193,
      "it ": 194,
      "di": 195,
      "ci": 196,
      "gh": 197,
      "hich ": 198,
      "per": 199,
      "am": 200,
      "qu": 201,
      "int": 202,
      "im": 203,
      "ac": 204,
      "ul": 205,
      "ev": 206,
      "from": 207,
      "en ": 208,
      "man": 209,
      "al ": 210,
      "on ": 211,
      ". T": 212,
      "ent ": 213,
      "ut": 214,
      "oth": 215,
      "with": 216,
      "der": 217,
      "ob": 218,
      "com": 219,
      "ir ": 220,
      "ll ": 221,
      "pos": 222,
      "ff": 223,
      "ol": 224,
      "ect": 225,
      "s, ": 226,
      " that ": 227,
      "oun": 228,
      "dis": 229,
      "e th": 230,
      "ta": 231,
      ", a": 232,
      "oul": 233,
      "par": 234,
      "ri": 235,
      "ter": 236,
      "ity": 237,
      ", wh": 238,
      "ble ": 239,
      "s of ": 240,
      "; ": 241,
      "by ": 242,
      " this ": 243,
      "le": 244,
      "as ": 245,
      "pro": 246,
      " their ": 247,
      "gre": 248,
      "mor": 249,
      " of ": 250,
      "in the ": 251,
      "vi": 252,
      ": ": 253,
      "by": 254,
      "ould ": 255,
      "e, ": 256,
      "ly": 257,
      "ence ": 258,
      " are ": 259,
      "ut ": 260,
      " to the ": 261,
      "have ": 262,
      ", that": 263,
      "end": 264,
      "and ": 265,
      "tr": 266,
      "him": 267,
      ", and": 268,
      "pe": 269,
      "an ": 270,
      "not ": 271,
      " any ": 272,
      "sel": 273,
      " as": 274,
      "and": 275,
      "so ": 276,
      ", which ": 277,
      "du": 278,
      "ess": 279,
      " them": 280,
      "sion": 281,
      "our ": 282,
      "ough": 283,
      "pres": 284,
      "wh": 285,
      "ish": 286,
      ". The ": 287,
      "e of ": 288,
      "very ": 289,
      ", the ": 290,
      "; and ": 291,
      "over": 292,
      "sh": 293,
      "ment": 294,
      ", that ": 295,
      "ca": 296,
      "ese ": 297,
      "all": 298,
      "ind": 299,
      "mon": 300,
      "more ": 301,
      "n ": 302,
      " ac": 303,
      "reas": 304,
      "gi": 305,
      "ity ": 306,
      "had ": 307,
      "hich": 308,
      "ous": 309,
      "ces": 310,
      " all": 311,
      "la": 312,
      "ra": 313,
      "one ": 314,
      "nat": 315,
      "ure": 316,
      " as ": 317,
      "eas": 318,
      "to ": 319,
      "ence": 320,
      "ea": 321,
      "we ": 322,
      "y, ": 323,
      "il": 324,
      "ne": 325,
      "sen": 326,
      "may ": 327,
      "was ": 328,
      ". I": 329,
      "with ": 330,
      "est": 331,
      "ain": 332,
      "from ": 333,
      "no ": 334,
      "ard": 335,
      "id": 336,
      "ag": 337,
      ". A": 338,
      "ever ": 339,
      "ame ": 340,
      "ed to ": 341,
      " al": 342,
      "et": 343,
      "up": 344,
      " these ": 345,
      "ject": 346,
      "form": 347,
      "sp": 348,
      "prin": 349,
      "f ": 350,
      "el": 351,
      "um": 352,
      "ser": 353,
      "ig": 354,
      "a ": 355,
      "ate ": 356,
      "ose ": 357,
      "e the ": 358,
      "tion ": 359,
      "; and": 360,
      "som": 361,
      "other": 362,
      "sa": 363,
      "king": 364,
      "pas": 365,
      "so": 366,
      " an ": 367,
      "cer": 368,
      "mo": 369,
      "which ": 370,
      "not": 371,
      " ap": 372,
      "to": 373,
      "fi": 374,
      "mos": 375,
      "tic": 376,
      "but ": 377,
      " all ": 378,
      "es, ": 379,
      "for ": 380,
      "able ": 381,
      "fe": 382,
      "fo": 383,
      "ous ": 384,
      "ar ": 385,
      "same ": 386,
      "ran": 387,
      "diff": 388,
      "me": 389,
      "ation ": 390,
      "other ": 391,
      "inf": 392,
      "ist": 393,
      "reason": 394,
      "ust ": 395,
      "sub": 396,
      "I ": 397,
      "ad": 398,
      " at": 399,
      "natur": 400,
      "ke ": 401,
      "by the ": 402,
      "wi": 403,
      "coun": 404,
      "le ": 405,
      " they ": 406,
      "can ": 407,
      "mu": 408,
      "we": 409,
      "were ": 410,
      "its ": 411,
      "w ": 412,
      "tu": 413,
      ". B": 414,
      "sti": 415,
      "ing the ": 416,
      ", with": 417,
      "hat ": 418,
      "min": 419,
      "most ": 420,
      "gen": 421,
      "ance ": 422,
      "the ": 423,
      "from the ": 424,
      " that": 425,
      " ad": 426,
      "lic": 427,
      "lu": 428,
      "od": 429,
      "s and ": 430,
      "some ": 431,
      "str": 432,
      "ay": 433,
      "t of ": 434,
      "prop": 435,
      "ound": 436,
      "must ": 437,
      "ide": 438,
      "res": 439,
      "every ": 440,
      "gl": 441,
      "ear": 442,
      "on the ": 443,
      "sup": 444,
      "des": 445,
      "iv": 446,
      "ong": 447,
      "ter ": 448,
      ", to ": 449,
      "fa": 450,
      " ag": 451,
      "ere": 452,
      " ab": 453,
      "ey ": 454,
      "reg": 455,
      "ance": 456,
      "man ": 457,
      "hil": 458,
      "gu": 459,
      "ion": 460,
      "but": 461,
      "ot": 462,
      "es of ": 463,
      "ic": 464,
      "men": 465,
      ", who ": 466,
      "inter": 467,
      ", as ": 468,
      "ed the ": 469,
      "igh": 470,
      ", in ": 471,
      "self": 472,
      "tain": 473,
      "red": 474,
      "ord": 475,
      "comm": 476,
      "s of the ": 477,
      ". W": 478,
      "it is ": 479,
      "hu": 480,
      "ve": 481,
      "gener": 482,
      "great": 483,
      "ed, ": 484,
      "consi": 485,
      "ant": 486,
      "object": 487,
      "AN": 488,
      "ally ": 489,
      "? ": 490,
      "of a ": 491,
      "e and ": 492,
      "princi": 493,
      "order": 494,
      " those ": 495,
      "all ": 496,
      "cour": 497,
      "ect ": 498,
      "En": 499,
      "peri": 500,
      "has ": 501,
      "oy": 502,
      "been ": 503,
      "uth": 504,
      ", which": 505,
      "differ": 506,
      "est ": 507,
      "cas": 508,
      "cont": 509,
      "The ": 510,
      "ct": 511,
      "po": 512,
      "s, and ": 513,
      "dist": 514,
      "gover": 515,
      "st ": 516,
      "ate": 517,
      "ber": 518,
      "Engl": 519,
      "rel": 520,
      "mag": 521,
      "great ": 522,
      "govern": 523,
      "ble": 524,
      "pow": 525,
      ", that the ": 526,
      "consider": 527,
      "fir": 528,
      "such": 529,
      "fac": 530,
      " with": 531,
      "you": 532,
      "ju": 533,
      "ed by ": 534,
      " though": 535,
      "principl": 536,
      "out ": 537,
      ", we ": 538,
      "fore": 539,
      "ty": 540,
      "pa": 541,
      "cr": 542,
      "ther": 543,
      "now": 544,
      ". Th": 545,
      "fin": 546,
      ". H": 547,
      "de ": 548,
      "'s ": 549,
      " at ": 550,
      "cep": 551,
      "pers": 552,
      " to be ": 553,
      "y of ": 554,
      "passion": 555,
      "ge": 556,
      "tions": 557,
      "edi": 558,
      "dom": 559,
      "hap": 560,
      "van": 561,
      "are ": 562,
      "bet": 563,
      "obser": 564,
      " all the ": 565,
      "should ": 566,
      "enti": 567,
      "ort": 568,
      "pleas": 569,
      "bec": 570,
      "sion ": 571,
      "which": 572,
      "only ": 573,
      "s of": 574,
      "inc": 575,
      "sur": 576,
      "her": 577,
      "br": 578,
      "would ": 579,
      "king ": 580,
      "present": 581,
      "mar": 582,
      " appe": 583,
      "contr": 584,
      "s the ": 585,
      "caus": 586,
      "ven": 587,
      "eff": 588,
      "ill": 589,
      "ves": 590,
      "itt": 591,
      "out": 592,
      "go": 593,
      "produ": 594,
      "such ": 595,
      "seem": 596,
      "ure ": 597,
      "wor": 598,
      "never ": 599,
      "ew": 600,
      "ment ": 601,
      " we ": 602,
      "ten": 603,
      "tend": 604,
      "into": 605,
      "his": 606,
      "pla": 607,
      "much ": 608,
      "know": 609,
      "ren": 610,
      "s to ": 611,
      "k ": 612,
      "in a ": 613,
      "ther ": 614,
      "uthor": 615,
      "ition": 616,
      "ge ": 617,
      "ise ": 618,
      "into ": 619,
      "sec": 620,
      "ties": 621,
      "way": 622,
      "for the ": 623,
      "human ": 624,
      "could ": 625,
      "her ": 626,
      " af": 627,
      "lo": 628,
      "qual": 629,
      "found": 630,
      "ign": 631,
      "ticul": 632,
      "ap": 633,
      "requ": 634,
      "own ": 635,
      "ful": 636,
      " aff": 637,
      "ary ": 638,
      "ess ": 639,
      "ari": 640,
      "osop": 641,
      "hilosop": 642,
      "ection": 643,
      "An": 644,
      "kind": 645,
      "pu": 646,
      " wh": 647,
      "nec": 648,
      "particul": 649,
      "pri": 650,
      "ity, ": 651,
      "peop": 652,
      ". It ": 653,
      "ary": 654,
      "regard": 655,
      "if": 656,
      "with the ": 657,
      "Th": 658,
      "suppos": 659,
      "us ": 660,
      " there ": 661,
      "ever": 662,
      "ves ": 663,
      " again": 664,
      "imag": 665,
      "red ": 666,
      "senti": 667,
      "philosop": 668,
      "oc": 669,
      "se ": 670,
      "was": 671,
      "et ": 672,
      "exp": 673,
      "will ": 674,
      "od ": 675,
      "possi": 676,
      "mann": 677,
      ". An": 678,
      "can": 679,
      "ty ": 680,
      "ey": 681,
      "eith": 682,
      " ta": 683,
      "ite ": 684,
      "is the ": 685,
      "uni": 686,
      "still ": 687,
      "poss": 688,
      "law": 689,
      "power": 690,
      "both": 691,
      "inst": 692,
      "enc": 693,
      "mind": 694,
      "own": 695,
      "under": 696,
      "use": 697,
      "irtu": 698,
      "ow ": 699,
      "if ": 700,
      "car": 701,
      "dec": 702,
      "t, ": 703,
      "wo ": 704,
      "soci": 705,
      "pub": 706,
      "necess": 707,
      "ward": 708,
      "ang": 709,
      "mat": 710,
      "being ": 711,
      "my ": 712,
      "public": 713,
      "ici": 714,
      "reat": 715,
      "many ": 716,
      "sol": 717,
      ", or ": 718,
      "conc": 719,
      "ref": 720,
      "ed by the ": 721,
      "medi": 722,
      "virtu": 723,
      "ed with ": 724,
      "mis": 725,
      "port": 726,
      "; but ": 727,
      "sy": 728,
      " tim": 729,
      ". But ": 730,
      "self ": 731,
      "hen": 732,
      "migh": 733,
      "perf": 734,
      "may be ": 735,
      "person": 736,
      "imagin": 737,
      "concer": 738,
      " them ": 739,
      "tim": 740,
      "common": 741,
      "sist": 742,
      "vanta": 743,
      "ation of ": 744,
      "whol": 745,
      "give ": 746,
      "to the ": 747,
      "long": 748,
      " tr": 749,
      "EN": 750,
      "ceiv": 751,
      "nature": 752,
      "enter": 753,
      "even": 754,
      " author": 755,
      ", by ": 756,
      " which ": 757,
      "mong": 758,
      ", a ": 759,
      "suc": 760,
      "happ": 761,
      "reli": 762,
      "ed in ": 763,
      "ish ": 764,
      "thing ": 765,
      ". S": 766,
      "him ": 767,
      ", and the ": 768,
      "US": 769,
      "char": 770,
      "each ": 771,
      "what ": 772,
      "ast": 773,
      ", he ": 774,
      "ed to": 775,
      "even ": 776,
      "first ": 777,
      " am": 778,
      "government": 779,
      "sentiment": 780,
      "make ": 781,
      "y and ": 782,
      "emp": 783,
      "effect": 784,
      "nation": 785,
      ", though": 786,
      "well": 787,
      "vour": 788,
      "num": 789,
      "ant ": 790,
      "observ": 791,
      "ust": 792,
      "of their ": 793,
      ", they ": 794,
      "ity of ": 795,
      "empl": 796,
      "ond": 797,
      "experi": 798,
      "irc": 799,
      "part": 800,
      "you ": 801,
      "circ": 802,
      "y th": 803,
      "prob": 804,
      "und": 805,
      "subject": 806,
      "RO": 807,
      "00": 808,
      "had": 809,
      "rea": 810,
      "tive ": 811,
      "spec": 812,
      "ab": 813,
      "pur": 814,
      "ret": 815,
      "stand": 816,
      "eng": 817,
      "erefore": 818,
      "fer": 819,
      "find": 820,
      "er of ": 821,
      "mean": 822,
      "present ": 823,
      "war": 824,
      "tis": 825,
      "entire": 826,
      "manner": 827,
      "religi": 828,
      "tion of ": 829,
      "But ": 830,
      "himself": 831,
      "ep": 832,
      "dea": 833,
      "made ": 834,
      "disc": 835,
      "ies": 836,
      "lat": 837,
      "ving ": 838,
      ", in": 839,
      "suff": 840,
      "immedi": 841,
      "concern": 842,
      " the same ": 843,
      "use ": 844,
      "lig": 845,
      "ext": 846,
      "influ": 847,
      " than": 848,
      "any ": 849,
      " their": 850,
      "interest": 851,
      " appear": 852,
      "bar": 853,
      "upon ": 854,
      ". This ": 855,
      "nor ": 856,
      "ways ": 857,
      "far": 858,
      "urn": 859,
      "fu": 860,
      "put": 861,
      "liber": 862,
      "sequ": 863,
      "betwe": 864,
      ", therefore": 865,
      ", are ": 866,
      "chi": 867,
      "fam": 868,
      ". N": 869,
      "fore ": 870,
      "abl": 871,
      " this": 872,
      "tabl": 873,
      "oppos": 874,
      "certa": 875,
      ". But": 876,
      "usti": 877,
      "cot": 878,
      "ed by": 879,
      "whole ": 880,
      ". F": 881,
      "ound ": 882,
      "obj": 883,
      "different ": 884,
      "is a ": 885,
      "vers": 886,
      "ef": 887,
      " among": 888,
      "general ": 889,
      "justi": 890,
      "fort": 891,
      "Scot": 892,
      "ud": 893,
      "rec": 894,
      "either ": 895,
      "ast ": 896,
      "prov": 897,
      "England": 898,
      "ill ": 899,
      "new ": 900,
      "eir ": 901,
      "s are ": 902,
      "ed to the ": 903,
      "exc": 904,
      ": An": 905,
      "shall ": 906,
      "liam": 907,
      "nothing ": 908,
      ", where ": 909,
      " as the ": 910,
      "conclu": 911,
      "land": 912,
      ", it ": 913,
      "establ": 914,
      "like ": 915,
      "oper": 916,
      "order to ": 917,
      "cap": 918,
      ". He ": 919,
      "dur": 920,
      "gn": 921,
      "of that ": 922,
      " with ": 923,
      "cl": 924,
      "here ": 925,
      "s in ": 926,
      "dep": 927,
      "opin": 928,
      "parliam": 929,
      "pression": 930,
      "such a ": 931,
      "hy": 932,
      "d of ": 933,
      "es the ": 934,
      " arm": 935,
      "oblig": 936,
      "reasoning": 937,
      "proper": 938,
      "how": 939,
      "pea": 940,
      " themsel": 941,
      "kingdom": 942,
      "might ": 943,
      "ce of ": 944,
      "idea": 945,
      "ties ": 946,
      "certain": 947,
      "ES": 948,
      "able": 949,
      "consequ": 950,
      "prev": 951,
      "comp": 952,
      "has": 953,
      "inu": 954,
      "ances": 955,
      "icul": 956,
      "ion ": 957,
      ", were ": 958,
      "infer": 959,
      "of this ": 960,
      "relation": 961,
      "particular ": 962,
      "litt": 963,
      "ce, ": 964,
      "circum": 965,
      "evid": 966,
      "sensi": 967,
      ". A ": 968,
      "satis": 969,
      "difficul": 970,
      "ell": 971,
      "sum": 972,
      "societ": 973,
      "less ": 974,
      "en the ": 975,
      ", was ": 976,
      ", when ": 977,
      "she ": 978,
      "ers": 979,
      "exist": 980,
      "og": 981,
      "spir": 982,
      "jud": 983,
      "establish": 984,
      "lin": 985,
      "must be ": 986,
      "little ": 987,
      "cor": 988,
      "uc": 989,
      "natural ": 990,
      "people": 991,
      "ement": 992,
      "fri": 993,
      "earl": 994,
      "circumst": 995,
      "led": 996,
      "enr": 997,
      "cri": 998,
      "itu": 999,
      "embl": 1000,
      "becom": 1001,
      "now ": 1002,
      "sens": 1003,
      ", without ": 1004,
      "dang": 1005,
      "sent": 1006,
      "es and ": 1007,
      "ed with": 1008,
      "will": 1009,
      "cur": 1010,
      "eal": 1011,
      "mer": 1012,
      "sin": 1013,
      "degre": 1014,
      "ould": 1015,
      "worl": 1016,
      "AR": 1017,
      "shi": 1018,
      "only": 1019,
      "condu": 1020,
      "stor": 1021,
      "strong": 1022,
      "ed a ": 1023,
      "termin": 1024,
      "ence of ": 1025,
      "hand": 1026,
      "llow": 1027,
      "sever": 1028,
      "age ": 1029,
      "val": 1030,
      "continu": 1031,
      "fami": 1032,
      "equ": 1033,
      "ive ": 1034,
      "jo": 1035,
      "both ": 1036,
      "men ": 1037,
      "of these ": 1038,
      "read": 1039,
      " they": 1040,
      "say": 1041,
      "beca": 1042,
      "sim": 1043,
      "viol": 1044,
      " accoun": 1045,
      "suffici": 1046,
      "e, and ": 1047,
      "ok": 1048,
      "cause": 1049,
      "determin": 1050,
      " was ": 1051,
      "ence, ": 1052,
      "common ": 1053,
      "friend": 1054,
      "orig": 1055,
      "; and the ": 1056,
      "natural": 1057,
      "into the ": 1058,
      "receiv": 1059,
      "ison": 1060,
      "being": 1061,
      "immediate": 1062,
      "bit": 1063,
      "dem": 1064,
      "s, which ": 1065,
      "yet ": 1066,
      "inv": 1067,
      "greater ": 1068,
      "Fran": 1069,
      "cord": 1070,
      "conf": 1071,
      "fact": 1072,
      "in their ": 1073,
      "th ": 1074,
      "ce and ": 1075,
      "bod": 1076,
      "charac": 1077,
      "s.": 1078,
      " acqu": 1079,
      " than ": 1080,
      ", but ": 1081,
      "conn": 1082,
      "ght": 1083,
      " against": 1084,
      "cording": 1085,
      "entirely ": 1086,
      "Henr": 1087,
      "in this ": 1088,
      ", than": 1089,
      " that the ": 1090,
      "render": 1091,
      "It ": 1092,
      "But": 1093,
      "arch": 1094,
      "mak": 1095,
      "good ": 1096,
      "pop": 1097,
      " any": 1098,
      "who ": 1099,
      "countr": 1100,
      " after": 1101,
      "depend": 1102,
      "ER": 1103,
      "TH": 1104,
      "fre": 1105,
      "one": 1106,
      "exam": 1107,
      "; but": 1108,
      "himself ": 1109,
      "employ": 1110,
      "bour": 1111,
      "feel": 1112,
      "favour": 1113,
      "gr": 1114,
      "possess": 1115,
      "pli": 1116,
      "had been ": 1117,
      " always ": 1118,
      "ated ": 1119,
      "tion, ": 1120,
      "act": 1121,
      "enem": 1122,
      "quali": 1123,
      "ation, ": 1124,
      "upon": 1125,
      ", though ": 1126,
      "dou": 1127,
      "t of the ": 1128,
      ". O": 1129,
      "stem": 1130,
      "bea": 1131,
      "beg": 1132,
      "tion of the ": 1133,
      "nature ": 1134,
      "public ": 1135,
      "rest": 1136,
      "knowled": 1137,
      "judg": 1138,
      ", to": 1139,
      "must": 1140,
      "mark": 1141,
      "cause ": 1142,
      "system": 1143,
      "IAN": 1144,
      "me ": 1145,
      "prom": 1146,
      "stat": 1147,
      "old": 1148,
      "s were ": 1149,
      "beli": 1150,
      "earl of ": 1151,
      "y, and ": 1152,
      " tran": 1153,
      ", who": 1154,
      "view": 1155,
      "fortun": 1156,
      "ship": 1157,
      "hea": 1158,
      "ine ": 1159,
      "proce": 1160,
      "do": 1161,
      "y to ": 1162,
      "of any ": 1163,
      "general": 1164,
      "har": 1165,
      "ove ": 1166,
      "ver ": 1167,
      "impression": 1168,
      ". And ": 1169,
      "religion": 1170,
      "ON": 1171,
      "ga": 1172,
      "id ": 1173,
      "mit": 1174,
      "t to ": 1175,
      "mankind": 1176,
      "lear": 1177,
      "gument": 1178,
      "pleasure": 1179,
      "danger": 1180,
      "s a ": 1181,
      " two ": 1182,
      " though ": 1183,
      "meas": 1184,
      "sm": 1185,
      "represent": 1186,
      "superi": 1187,
      "div": 1188,
      "leg": 1189,
      "just": 1190,
      "tri": 1191,
      "dispos": 1192,
      "Ed": 1193,
      "ness": 1194,
      "situ": 1195,
      "year": 1196,
      " agre": 1197,
      "ently ": 1198,
      "ideas": 1199,
      ". We ": 1200,
      "parliament": 1201,
      "anc": 1202,
      "opinion": 1203,
      "eem": 1204,
      "remo": 1205,
      "IN": 1206,
      "RE": 1207,
      "rul": 1208,
      " thr": 1209,
      "resp": 1210,
      "esteem": 1211,
      " advanta": 1212,
      "discover": 1213,
      "da": 1214,
      "vari": 1215,
      "indu": 1216,
      "plain": 1217,
      "dic": 1218,
      ", and to ": 1219,
      "encreas": 1220,
      "influence ": 1221,
      "kin": 1222,
      "two ": 1223,
      "e to ": 1224,
      "ences": 1225,
      "ed in the ": 1226,
      "impossi": 1227,
      "former": 1228,
      " against ": 1229,
      "refl": 1230,
      "world": 1231,
      "es, and ": 1232,
      "lea": 1233,
      "purpos": 1234,
      "certain ": 1235,
      "ces ": 1236,
      ", without": 1237,
      ", as well": 1238,
      "gra": 1239,
      "joy": 1240,
      "ful ": 1241,
      "particular": 1242,
      "high": 1243,
      "ques": 1244,
      "upon the ": 1245,
      "om ": 1246,
      "ed and ": 1247,
      "follow": 1248,
      "pec": 1249,
      "t the ": 1250,
      "lif": 1251,
      "def": 1252,
      "fic": 1253,
      "produc": 1254,
      "mi": 1255,
      "having ": 1256,
      "ceive ": 1257,
      ", there ": 1258,
      "mind ": 1259,
      ". And": 1260,
      "hon": 1261,
      "s; and ": 1262,
      "itself": 1263,
      "have been ": 1264,
      " also ": 1265,
      "crown": 1266,
      "cannot ": 1267,
      " another": 1268,
      "e them": 1269,
      "human": 1270,
      "distinc": 1271,
      ". It is ": 1272,
      "creat": 1273,
      "nes": 1274,
      " thin": 1275,
      ", is ": 1276,
      "some": 1277,
      "priz": 1278,
      "CE": 1279,
      "co": 1280,
      "cust": 1281,
      "life": 1282,
      "cient ": 1283,
      "ation of the ": 1284,
      " attend": 1285,
      "should be ": 1286,
      "produce ": 1287,
      "ROM": 1288,
      "mem": 1289,
      ", when": 1290,
      "good": 1291,
      "bo": 1292,
      " authority": 1293,
      "speci": 1294,
      "ro": 1295,
      " anim": 1296,
      "histor": 1297,
      "perhap": 1298,
      "expect": 1299,
      "engag": 1300,
      "cal": 1301,
      "tl": 1302,
      "ution": 1303,
      "posses": 1304,
      "ben": 1305,
      "hop": 1306,
      "sci": 1307,
      "ue ": 1308,
      "of them": 1309,
      ", ac": 1310,
      "moder": 1311,
      "ail": 1312,
      "he": 1313,
      "hat": 1314,
      "const": 1315,
      " to a ": 1316,
      "ble to ": 1317,
      ": The ": 1318,
      "duk": 1319,
      "king's ": 1320,
      "advanta": 1321,
      "people ": 1322,
      ", or": 1323,
      "of all ": 1324,
      "may": 1325,
      " aris": 1326,
      "divi": 1327,
      "ility": 1328,
      "regul": 1329,
      "s. The ": 1330,
      "cil": 1331,
      "intell": 1332,
      ", at ": 1333,
      "considerable ": 1334,
      "succes": 1335,
      "rit": 1336,
      "〉〉": 1337,
      ", I ": 1338,
      "ire ": 1339,
      "civi": 1340,
      "vol": 1341,
      "emper": 1342,
      "maint": 1343,
      ". In ": 1344,
      "which we ": 1345,
      "Sir ": 1346,
      "〈〈": 1347,
      "oursel": 1348,
      "naturally ": 1349,
      "ens": 1350,
      ", as": 1351,
      ", that he ": 1352,
      "reason ": 1353,
      "pass": 1354,
      "propor": 1355,
      "extre": 1356,
      "origin": 1357,
      "; the ": 1358,
      "lar": 1359,
      ". E": 1360,
      "been": 1361,
      " which": 1362,
      "prince ": 1363,
      " tak": 1364,
      "each other": 1365,
      " tra": 1366,
      "rema": 1367,
      "istr": 1368,
      "ing a ": 1369,
      "before ": 1370,
      ": But ": 1371,
      "ted ": 1372,
      "vo": 1373,
      "object ": 1374,
      "den": 1375,
      "deriv": 1376,
      "ly, ": 1377,
      " as a ": 1378,
      " allow": 1379,
      "can be ": 1380,
      "since ": 1381,
      "ef ": 1382,
      "hum": 1383,
      "sla": 1384,
      "que": 1385,
      "where ": 1386,
      ", with ": 1387,
      "character": 1388,
      "CH": 1389,
      "lik": 1390,
      "e that ": 1391,
      "by a ": 1392,
      "resembl": 1393,
      "y thing ": 1394,
      "IS": 1395,
      "prac": 1396,
      "sign": 1397,
      ", that, ": 1398,
      "ought ": 1399,
      "easi": 1400,
      "sensible ": 1401,
      "dra": 1402,
      "hear": 1403,
      "ans": 1404,
      "ated": 1405,
      "immediately ": 1406,
      "equal": 1407,
      "your ": 1408,
      "ulti": 1409,
      "event": 1410,
      "compar": 1411,
      "most": 1412,
      "force ": 1413,
      " and the ": 1414,
      "ain ": 1415,
      "los": 1416,
      ", would ": 1417,
      "pretend": 1418,
      "hous": 1419,
      "usu": 1420,
      "of his ": 1421,
      "ing, ": 1422,
      "ations": 1423,
      ". In": 1424,
      "univers": 1425,
      "AL": 1426,
      "IT": 1427,
      "found ": 1428,
      "s in the ": 1429,
      "enjoy": 1430,
      "y of the ": 1431,
      "moral": 1432,
      "idea ": 1433,
      "; wh": 1434,
      "prof": 1435,
      "commo": 1436,
      ", and that ": 1437,
      "former ": 1438,
      "point": 1439,
      "popul": 1440,
      "beaut": 1441,
      "measure": 1442,
      "iness": 1443,
      "prot": 1444,
      " adm": 1445,
      "love ": 1446,
      "society": 1447,
      "duke of ": 1448,
      "air": 1449,
      " ter": 1450,
      "endea": 1451,
      "oft": 1452,
      "ord ": 1453,
      "ed from ": 1454,
      "in his ": 1455,
      "prec": 1456,
      "much": 1457,
      "GRE": 1458,
      "over ": 1459,
      "exec": 1460,
      "monarch": 1461,
      "resol": 1462,
      "occas": 1463,
      "conduct": 1464,
      "my": 1465,
      " there": 1466,
      "conven": 1467,
      "rich": 1468,
      "ity and ": 1469,
      "ance of ": 1470,
      "support": 1471,
      "prevail": 1472,
      "become ": 1473,
      "ired": 1474,
      "ors": 1475,
      "bey": 1476,
      "ght ": 1477,
      "ulg": 1478,
      "power ": 1479,
      " take ": 1480,
      "join": 1481,
      "ond ": 1482,
      ", af": 1483,
      "poli": 1484,
      "place ": 1485,
      "philosopher": 1486,
      "carri": 1487,
      "because ": 1488,
      "industr": 1489,
      "sent ": 1490,
      "ed, and ": 1491,
      "king of ": 1492,
      ", therefore, ": 1493,
      "custom": 1494,
      "bes": 1495,
      "call": 1496,
      "arr": 1497,
      "priv": 1498,
      "plac": 1499,
      "ign ": 1500,
      "greatest ": 1501,
      "first": 1502,
      "sion of ": 1503,
      "marri": 1504,
      "experience": 1505,
      ", t": 1506,
      "pain": 1507,
      "real": 1508,
      "ed in": 1509,
      "ed his ": 1510,
      "ed with the ": 1511,
      "dition": 1512,
      "ute ": 1513,
      "moral ": 1514,
      "which he ": 1515,
      "stitu": 1516,
      "wa": 1517,
      "enqu": 1518,
      "separ": 1519,
      "tern": 1520,
      "; nor ": 1521,
      "tra": 1522,
      "difference ": 1523,
      "English ": 1524,
      "doub": 1525,
      "y the ": 1526,
      "comman": 1527,
      "cess": 1528,
      "less": 1529,
      "son": 1530,
      "s or ": 1531,
      "ingu": 1532,
      ": Th": 1533,
      "preser": 1534,
      "numb": 1535,
      "full": 1536,
      "fl": 1537,
      "temp": 1538,
      "exer": 1539,
      " argument": 1540,
      " action": 1541,
      "ordin": 1542,
      ": And": 1543,
      "mas": 1544,
      "remark": 1545,
      "ory": 1546,
      "oung": 1547,
      "overe": 1548,
      "ous and ": 1549,
      "objects": 1550,
      ": And ": 1551,
      "super": 1552,
      "excep": 1553,
      "from a ": 1554,
      "without ": 1555,
      "proa": 1556,
      ", which is ": 1557,
      ". I ": 1558,
      "gether ": 1559,
      "inclin": 1560,
      "requis": 1561,
      "000": 1562,
      "evident": 1563,
      "civil": 1564,
      "17": 1565,
      " tri": 1566,
      "rect": 1567,
      "ing to ": 1568,
      "import": 1569,
      "tak": 1570,
      "course ": 1571,
      "find ": 1572,
      "often ": 1573,
      "), ": 1574,
      "do ": 1575,
      "sing": 1576,
      "its": 1577,
      "ford": 1578,
      ": H": 1579,
      " above ": 1580,
      "under ": 1581,
      "satisfac": 1582,
      " against the ": 1583,
      "examin": 1584,
      "s, the ": 1585,
      "sul": 1586,
      "percep": 1587,
      "so much ": 1588,
      "what": 1589,
      "regard to ": 1590,
      "connex": 1591,
      "eri": 1592,
      "tit": 1593,
      "ties, ": 1594,
      "omen": 1595,
      "es of the ": 1596,
      "when": 1597,
      "fix": 1598,
      ", in order to ": 1599,
      "causes": 1600,
      "imagination": 1601,
      "practi": 1602,
      "fall": 1603,
      "sovere": 1604,
      "young": 1605,
      "ve the ": 1606,
      "deli": 1607,
      "ence and ": 1608,
      "destr": 1609,
      "path": 1610,
      "contrary": 1611,
      "univer": 1612,
      "matter": 1613,
      " themselves": 1614,
      "occasion": 1615,
      "aff": 1616,
      "cal ": 1617,
      "fur": 1618,
      " another ": 1619,
      "hile ": 1620,
      "when ": 1621,
      "near": 1622,
      "wix": 1623,
      "commun": 1624,
      "betwix": 1625,
      "'s": 1626,
      "ely ": 1627,
      "last ": 1628,
      "scar": 1629,
      "ts ": 1630,
      "ve th": 1631,
      "person ": 1632,
      " after ": 1633,
      "instance": 1634,
      "frequ": 1635,
      ". M": 1636,
      "it, ": 1637,
      "few ": 1638,
      "commer": 1639,
      "government ": 1640,
      "proceed": 1641,
      ", according": 1642,
      "maintain": 1643,
      "(17": 1644,
      "a(17": 1645,
      "pi": 1646,
      " to his ": 1647,
      "for a ": 1648,
      " too ": 1649,
      "it was ": 1650,
      "ousand ": 1651,
      "domin": 1652,
      "perfect": 1653,
      "standing": 1654,
      "liberty": 1655,
      "Scotland": 1656,
      "proportion": 1657,
      "S ": 1658,
      "jeal": 1659,
      "sw": 1660,
      "of those ": 1661,
      "ement ": 1662,
      "eld": 1663,
      "entertain": 1664,
      "A ": 1665,
      "II": 1666,
      "bur": 1667,
      "col": 1668,
      ". P": 1669,
      "cho": 1670,
      "consist": 1671,
      " were ": 1672,
      "can never ": 1673,
      "ood": 1674,
      "ok ": 1675,
      "roy": 1676,
      "inde": 1677,
      "in any ": 1678,
      "ties of ": 1679,
      "ed on ": 1680,
      ", than ": 1681,
      " are the ": 1682,
      ", whose ": 1683,
      "have a ": 1684,
      "soon": 1685,
      "tical ": 1686,
      "proper ": 1687,
      "propos": 1688,
      "which the ": 1689,
      "appe": 1690,
      "return": 1691,
      "fal": 1692,
      "iz": 1693,
      "m ": 1694,
      "mom": 1695,
      "end ": 1696,
      "ister": 1697,
      "ed him": 1698,
      "prison": 1699,
      ", that they ": 1700,
      "ity of the ": 1701,
      "AND": 1702,
      "case ": 1703,
      "pleasure ": 1704,
      "several ": 1705,
      " they are ": 1706,
      "honour": 1707,
      "Nor": 1708,
      ", it is ": 1709,
      "English": 1710,
      "secur": 1711,
      "off": 1712,
      "pros": 1713,
      "susp": 1714,
      "sive ": 1715,
      "he had ": 1716,
      "ble, ": 1717,
      "ric": 1718,
      "eable ": 1719,
      "interest ": 1720,
      "commonly ": 1721,
      "ward ": 1722,
      "simil": 1723,
      "knowledg": 1724,
      "Fren": 1725,
      "bor": 1726,
      "yet": 1727,
      "ed, that ": 1728,
      "ed of ": 1729,
      "nobl": 1730,
      "prehen": 1731,
      ", at": 1732,
      "press": 1733,
      "ignor": 1734,
      "wards ": 1735,
      "author": 1736,
      "lan": 1737,
      "sac": 1738,
      "s; ": 1739,
      ". L": 1740,
      "is not ": 1741,
      "s of his ": 1742,
      "duc": 1743,
      "meth": 1744,
      "crim": 1745,
      "matter ": 1746,
      "excit": 1747,
      "however ": 1748,
      "best": 1749,
      "rup": 1750,
      "scep": 1751,
      "ve, ": 1752,
      "xim": 1753,
      "e or ": 1754,
      "ent to ": 1755,
      "neigh": 1756,
      "effect ": 1757,
      "sym": 1758,
      "operation": 1759,
      "THEN": 1760,
      "GREE": 1761,
      "conveni": 1762,
      "neighbour": 1763,
      "t and ": 1764,
      "wea": 1765,
      "s, or ": 1766,
      "part ": 1767,
      "least ": 1768,
      "principles": 1769,
      "France": 1770,
      "enquir": 1771,
      "ire": 1772,
      "mal": 1773,
      "ni": 1774,
      "offi": 1775,
      "conv": 1776,
      " that of ": 1777,
      "more th": 1778,
      "prince": 1779,
      "infin": 1780,
      "judi": 1781,
      "long ": 1782,
      "number": 1783,
      "concerning the ": 1784,
      "chief": 1785,
      "country": 1786,
      "tiz": 1787,
      "ed from the ": 1788,
      "ing his ": 1789,
      "unt": 1790,
      "chief ": 1791,
      "ative ": 1792,
      "gran": 1793,
      "lord ": 1794,
      "wis": 1795,
      "in all ": 1796,
      ", had ": 1797,
      "habit": 1798,
      "in order to ": 1799,
      "set": 1800,
      " arise ": 1801,
      "disput": 1802,
      ", that this ": 1803,
      " alone ": 1804,
      "form ": 1805,
      "said": 1806,
      "not to ": 1807,
      "mention": 1808,
      "seems ": 1809,
      "perfect ": 1810,
      "however": 1811,
      "inguish": 1812,
      "mere": 1813,
      "refin": 1814,
      "y or ": 1815,
      "ect of ": 1816,
      "limit": 1817,
      "compos": 1818,
      " ass": 1819,
      "laim": 1820,
      "not the ": 1821,
      "able to ": 1822,
      ", which are ": 1823,
      ". There ": 1824,
      ". These ": 1825,
      " themselves ": 1826,
      ", as well as ": 1827,
      "species of ": 1828,
      "easily ": 1829,
      " thos": 1830,
      "extra": 1831,
      " also": 1832,
      "servi": 1833,
      "latter": 1834,
      "between the ": 1835,
      "at the ": 1836,
      "itself ": 1837,
      "pra": 1838,
      "sure": 1839,
      "maxim": 1840,
      "have no ": 1841,
      "; and he ": 1842,
      " at the ": 1843,
      "latter ": 1844,
      "compan": 1845,
      "ROMAN": 1846,
      "IC": 1847,
      "mut": 1848,
      "s, and": 1849,
      "once ": 1850,
      "chan": 1851,
      " would ": 1852,
      " what ": 1853,
      "soon ": 1854,
      "during the ": 1855,
      "circumstances": 1856,
      "original ": 1857,
      "aint": 1858,
      "real ": 1859,
      "ass": 1860,
      " absol": 1861,
      "cru": 1862,
      "s to": 1863,
      "in that ": 1864,
      "s from ": 1865,
      "act ": 1866,
      "number of ": 1867,
      "requisite ": 1868,
      "I am": 1869,
      "agre": 1870,
      "gain": 1871,
      "sc": 1872,
      "ted": 1873,
      "ist ": 1874,
      "ed on": 1875,
      ", was": 1876,
      "prud": 1877,
      "liz": 1878,
      "obvi": 1879,
      "still": 1880,
      "cours": 1881,
      "contri": 1882,
      "would be ": 1883,
      "success": 1884,
      "situation": 1885,
      "dividu": 1886,
      "endeavour": 1887,
      "bra": 1888,
      "word": 1889,
      "individu": 1890,
      ". C": 1891,
      "is no ": 1892,
      "exten": 1893,
      "prefer": 1894,
      "geni": 1895,
      "courag": 1896,
      " amb": 1897,
      ". For": 1898,
      "idea of ": 1899,
      "remain": 1900,
      "supersti": 1901,
      "ati": 1902,
      "bish": 1903,
      "ired ": 1904,
      "s;": 1905,
      "tifi": 1906,
      "ous, ": 1907,
      "isi": 1908,
      "ally": 1909,
      "chang": 1910,
      "see": 1911,
      "his own ": 1912,
      "cid": 1913,
      "compl": 1914,
      "part of ": 1915,
      ", that it ": 1916,
      "ility ": 1917,
      "never": 1918,
      "if we ": 1919,
      "mix": 1920,
      "We ": 1921,
      "nam": 1922,
      " tend": 1923,
      ", if ": 1924,
      "constitu": 1925,
      "dimin": 1926,
      "inten": 1927,
      "magistr": 1928,
      ". They ": 1929,
      "ment of ": 1930,
      " affection": 1931,
      "free ": 1932,
      "respect": 1933,
      "intellig": 1934,
      ",000": 1935,
      " then ": 1936,
      "reven": 1937,
      "del": 1938,
      " asser": 1939,
      ", which we ": 1940,
      "ought": 1941,
      "rais": 1942,
      "subj": 1943,
      ". When": 1944,
      " affair": 1945,
      "certaint": 1946,
      "promis": 1947,
      "learn": 1948,
      ", without any ": 1949,
      "communic": 1950,
      "run": 1951,
      "ven ": 1952,
      "ers ": 1953,
      ", of ": 1954,
      "of an": 1955,
      "ates ": 1956,
      ", will ": 1957,
      "prid": 1958,
      "e their ": 1959,
      "not be ": 1960,
      "ed to be ": 1961,
      " atten": 1962,
      "observe": 1963,
      "either": 1964,
      "full ": 1965,
      "between ": 1966,
      " among the ": 1967,
      "inferi": 1968,
      "proach": 1969,
      "That ": 1970,
      " thousand ": 1971,
      "esti": 1972,
      "ates": 1973,
      "ing that ": 1974,
      "ections": 1975,
      "ations ": 1976,
      "gres": 1977,
      "new": 1978,
      "place": 1979,
      "opposite ": 1980,
      "friendship": 1981,
      "In": 1982,
      "Jam": 1983,
      "ious ": 1984,
      "nor": 1985,
      "phen": 1986,
      "sour": 1987,
      "ection ": 1988,
      "gives ": 1989,
      "ance, ": 1990,
      "ight": 1991,
      ". Wh": 1992,
      "which they ": 1993,
      "draw": 1994,
      "bishop": 1995,
      "phenomen": 1996,
      "pen": 1997,
      "uti": 1998,
      "ugh": 1999,
      "of t": 2000,
      "confin": 2001,
      "exce": 2002,
      "ple ": 2003,
      "it be ": 2004,
      "princes": 2005,
      "regard to the ": 2006,
      "miser": 2007,
      "conduc": 2008,
      "disposition": 2009,
      "advantag": 2010,
      "queen": 2011,
      "ved": 2012,
      "ines": 2013,
      "erg": 2014,
      "ree ": 2015,
      ", they": 2016,
      "unit": 2017,
      "it of ": 2018,
      "ack": 2019,
      "disorder": 2020,
      "vid": 2021,
      ": But": 2022,
      "; and that ": 2023,
      " absur": 2024,
      "different": 2025,
      "philosophy": 2026,
      ". For ": 2027,
      "Henry": 2028,
      "superior": 2029,
      "OR": 2030,
      "dut": 2031,
      "hund": 2032,
      "ies ": 2033,
      "just ": 2034,
      "mir": 2035,
      "mil": 2036,
      "ru": 2037,
      "rebe": 2038,
      "ism": 2039,
      "educ": 2040,
      "in our ": 2041,
      "extern": 2042,
      "old ": 2043,
      ". If": 2044,
      "passions": 2045,
      "under the ": 2046,
      "superior ": 2047,
      "creature": 2048,
      "sovereign": 2049,
      "universe": 2050,
      "AT": 2051,
      "ger": 2052,
      "anim": 2053,
      ". Y": 2054,
      "conqu": 2055,
      "suit": 2056,
      "irm": 2057,
      "stri": 2058,
      ", this ": 2059,
      " to their ": 2060,
      "urb": 2061,
      "unc": 2062,
      "direct": 2063,
      ". If ": 2064,
      "passion ": 2065,
      "objects ": 2066,
      "principle ": 2067,
      "contra": 2068,
      "opposition": 2069,
      "family": 2070,
      "ready ": 2071,
      "gave ": 2072,
      " through": 2073,
      "reflection": 2074,
      "far ": 2075,
      "ug": 2076,
      ", in the ": 2077,
      "befor": 2078,
      "preten": 2079,
      "quar": 2080,
      "over the ": 2081,
      "philosophi": 2082,
      "carr": 2083,
      "necessary": 2084,
      "enterpriz": 2085,
      "ably ": 2086,
      " account ": 2087,
      "small ": 2088,
      "kind ": 2089,
      "bodi": 2090,
      "young ": 2091,
      "scarce": 2092,
      "ATHEN": 2093,
      " the most ": 2094,
      "ancient ": 2095,
      "bear": 2096,
      "prejudi": 2097,
      "action": 2098,
      "lef": 2099,
      "king, ": 2100,
      "notwith": 2101,
      ", we may ": 2102,
      "known": 2103,
      " among ": 2104,
      "qualities": 2105,
      ": He ": 2106,
      "a(175": 2107,
      "PE": 2108,
      "por": 2109,
      "es a ": 2110,
      "is, ": 2111,
      "ed their ": 2112,
      "evil": 2113,
      ". To ": 2114,
      "ity, and ": 2115,
      ", whe": 2116,
      "lean": 2117,
      "ly to ": 2118,
      ", and a ": 2119,
      " as to ": 2120,
      "tic ": 2121,
      "for his ": 2122,
      "minister": 2123,
      "ideas ": 2124,
      "There ": 2125,
      " time ": 2126,
      "equally ": 2127,
      ". On": 2128,
      "tribut": 2129,
      "question": 2130,
      " therefore ": 2131,
      "sympath": 2132,
      "ition ": 2133,
      "or the ": 2134,
      "state": 2135,
      "ing of ": 2136,
      "open": 2137,
      "by his ": 2138,
      "sense": 2139,
      "desir": 2140,
      "experience ": 2141,
      "justice ": 2142,
      " animal": 2143,
      "private ": 2144,
      "GL": 2145,
      "OL": 2146,
      "ban": 2147,
      "bound": 2148,
      "cent": 2149,
      "pun": 2150,
      "y.": 2151,
      "ard ": 2152,
      "expos": 2153,
      "ply": 2154,
      "cient": 2155,
      "who": 2156,
      " all these ": 2157,
      "labour": 2158,
      "council": 2159,
      "principles ": 2160,
      "gether": 2161,
      "concur": 2162,
      "provin": 2163,
      "conclusion": 2164,
      "strong ": 2165,
      "ourselves": 2166,
      "langu": 2167,
      "Char": 2168,
      "IA": 2169,
      "ke": 2170,
      "lev": 2171,
      "ris": 2172,
      ", by": 2173,
      " answ": 2174,
      ", that a ": 2175,
      "to be ": 2176,
      "neith": 2177,
      "others": 2178,
      "expedi": 2179,
      "obliged to ": 2180,
      "bal": 2181,
      "gent": 2182,
      "ror": 2183,
      " and un": 2184,
      "ed as ": 2185,
      "in every ": 2186,
      "from that ": 2187,
      "ender ": 2188,
      "stru": 2189,
      "distinguish": 2190,
      "into a ": 2191,
      "if the ": 2192,
      "death": 2193,
      "baron": 2194,
      "connexion": 2195,
      "extraordin": 2196,
      "Ri": 2197,
      "brea": 2198,
      "day": 2199,
      "e.": 2200,
      "ious": 2201,
      "re ": 2202,
      "s and": 2203,
      "spea": 2204,
      " thing": 2205,
      "ed them": 2206,
      "concep": 2207,
      "state ": 2208,
      "explain": 2209,
      "from their ": 2210,
      "allow": 2211,
      "money ": 2212,
      "between": 2213,
      "becaus": 2214,
      " arises ": 2215,
      "ISH": 2216,
      "mutu": 2217,
      "IUS": 2218,
      "St": 2219,
      "claim": 2220,
      "jur": 2221,
      "mitt": 2222,
      "plic": 2223,
      "thr": 2224,
      " to that ": 2225,
      " war": 2226,
      "pret": 2227,
      "e they ": 2228,
      " approb": 2229,
      " attemp": 2230,
      " add": 2231,
      " with the ": 2232,
      "was the ": 2233,
      "materi": 2234,
      "readi": 2235,
      " than the ": 2236,
      "says ": 2237,
      "weak": 2238,
      "De": 2239,
      "ad ": 2240,
      "narr": 2241,
      "ph": 2242,
      "uli": 2243,
      "of an ": 2244,
      "revol": 2245,
      "al, ": 2246,
      "sex": 2247,
      "serve ": 2248,
      "ENGL": 2249,
      "concerning ": 2250,
      "valu": 2251,
      "jealous": 2252,
      "e, the ": 2253,
      "oh": 2254,
      " turn": 2255,
      "s have ": 2256,
      "receive ": 2257,
      "resul": 2258,
      "ory ": 2259,
      "ision": 2260,
      "ll the ": 2261,
      "is not": 2262,
      "he was ": 2263,
      "nob": 2264,
      "us to ": 2265,
      " was": 2266,
      "right": 2267,
      ", that there ": 2268,
      "we may ": 2269,
      "well ": 2270,
      "but a ": 2271,
      " affect": 2272,
      "time ": 2273,
      "Henry ": 2274,
      "head": 2275,
      "kind of ": 2276,
      "impossible ": 2277,
      "appear": 2278,
      "merely ": 2279,
      "course of ": 2280,
      "ood ": 2281,
      "s to the ": 2282,
      "vot": 2283,
      "re, ": 2284,
      "bly ": 2285,
      "us, ": 2286,
      "it is": 2287,
      "ead": 2288,
      " alway": 2289,
      "vey": 2290,
      "court": 2291,
      "has been ": 2292,
      "secret": 2293,
      "philosoph": 2294,
      "numer": 2295,
      "reach": 2296,
      "farther ": 2297,
      "able, ": 2298,
      "connect": 2299,
      " think": 2300,
      "single ": 2301,
      "moment": 2302,
      "EU": 2303,
      "bus": 2304,
      "late ": 2305,
      "pul": 2306,
      "tal": 2307,
      "ty, ": 2308,
      "ves, ": 2309,
      "one, ": 2310,
      "ed into ": 2311,
      "live": 2312,
      " will ": 2313,
      "evol": 2314,
      "with a ": 2315,
      " authority ": 2316,
      "observation": 2317,
      "〉〉}": 2318,
      "extreme": 2319,
      "noblem": 2320,
      "; that ": 2321,
      "Clean": 2322,
      "IL": 2323,
      "bat": 2324,
      "ck": 2325,
      "fig": 2326,
      "vulg": 2327,
      " treat": 2328,
      " able to ": 2329,
      "inct": 2330,
      "s which ": 2331,
      "of them ": 2332,
      "is more ": 2333,
      "embr": 2334,
      "side": 2335,
      "belong": 2336,
      "did ": 2337,
      "perform": 2338,
      "othes": 2339,
      "progres": 2340,
      "one of the ": 2341,
      "moti": 2342,
      "reasoning ": 2343,
      "such an ": 2344,
      "will be ": 2345,
      "refus": 2346,
      "property": 2347,
      "circumstance": 2348,
      "judgment": 2349,
      "Edward": 2350,
      "Cleanth": 2351,
      "This ": 2352,
      "fut": 2353,
      "hend": 2354,
      "les": 2355,
      "olic": 2356,
      "pat": 2357,
      "s, who ": 2358,
      "{V": 2359,
      "independ": 2360,
      "ison ": 2361,
      "ed, that the ": 2362,
      "condition": 2363,
      "in its ": 2364,
      "for their ": 2365,
      "exact": 2366,
      "defin": 2367,
      "prehend": 2368,
      "part of the ": 2369,
      "fear": 2370,
      " thought": 2371,
      "surpriz": 2372,
      " truth": 2373,
      "specul": 2374,
      "immediate ": 2375,
      "hyp": 2376,
      "degree of ": 2377,
      "It is ": 2378,
      "peculi": 2379,
      "possession": 2380,
      "commodi": 2381,
      " or ": 2382,
      "abe": 2383,
      "multi": 2384,
      "put ": 2385,
      "pic": 2386,
      "s, to ": 2387,
      "inhabit": 2388,
      "s with ": 2389,
      "art": 2390,
      " to have ": 2391,
      "conceiv": 2392,
      "cious ": 2393,
      "acqu": 2394,
      ", as the ": 2395,
      "party": 2396,
      ": 〈〈": 2397,
      "ly the ": 2398,
      " any other ": 2399,
      "together ": 2400,
      "self-": 2401,
      "justice": 2402,
      "opinion ": 2403,
      "prevent": 2404,
      "makes ": 2405,
      "does ": 2406,
      "life ": 2407,
      "member": 2408,
      "besid": 2409,
      "Joh": 2410,
      "cred": 2411,
      "eg": 2412,
      "how ": 2413,
      "low": 2414,
      "ty of ": 2415,
      "ved ": 2416,
      "would": 2417,
      "tible ": 2418,
      "ed.": 2419,
      "ham": 2420,
      "enter ": 2421,
      " to this ": 2422,
      "impos": 2423,
      "in the same ": 2424,
      "past ": 2425,
      "father": 2426,
      "known ": 2427,
      "decla": 2428,
      "capac": 2429,
      "parliament ": 2430,
      "small": 2431,
      "benevol": 2432,
      "preced": 2433,
      "exerc": 2434,
      "French ": 2435,
      "method ": 2436,
      " assert": 2437,
      "external ": 2438,
      "med": 2439,
      "render ": 2440,
      "s of a ": 2441,
      "tigu": 2442,
      "ator": 2443,
      "emo": 2444,
      "stran": 2445,
      "ation and ": 2446,
      "tach": 2447,
      "met ": 2448,
      ", which, ": 2449,
      "such as ": 2450,
      "vanc": 2451,
      "work": 2452,
      "established ": 2453,
      "corresp": 2454,
      "dangerous ": 2455,
      "Edward ": 2456,
      "house of ": 2457,
      "command": 2458,
      "colour": 2459,
      "lizabe": 2460,
      "punish": 2461,
      "hypothes": 2462,
      "; as ": 2463,
      "bu": 2464,
      "hor": 2465,
      "tholic": 2466,
      "ing their ": 2467,
      "see ": 2468,
      "should": 2469,
      "rain": 2470,
      "said ": 2471,
      "ress": 2472,
      "facul": 2473,
      "foreign ": 2474,
      "better ": 2475,
      "brother": 2476,
      "And ": 2477,
      "enemy": 2478,
      "sometim": 2479,
      ", after": 2480,
      "satisfaction": 2481,
      "cident": 2482,
      "contradic": 2483,
      "! ": 2484,
      ", to the ": 2485,
      "chil": 2486,
      "rise ": 2487,
      "sam": 2488,
      "lip": 2489,
      "blam": 2490,
      "ure of ": 2491,
      "intend": 2492,
      "provid": 2493,
      "vig": 2494,
      "rather": 2495,
      "age": 2496,
      "elo": 2497,
      "order ": 2498,
      "out the ": 2499,
      "secre": 2500,
      "could not ": 2501,
      "farther": 2502,
      "confess": 2503,
      "purpose": 2504,
      "GREEK": 2505,
      "correspond": 2506,
      " in ": 2507,
      "FR": 2508,
      "nici": 2509,
      "pol": 2510,
      "ving": 2511,
      "ine": 2512,
      "on this ": 2513,
      "ou ": 2514,
      "alli": 2515,
      "consent": 2516,
      "light": 2517,
      "exper": 2518,
      "deb": 2519,
      "dign": 2520,
      "citiz": 2521,
      "manu": 2522,
      "disgu": 2523,
      "least": 2524,
      "ence of the ": 2525,
      " ascri": 2526,
      "commis": 2527,
      "England ": 2528,
      " though the ": 2529,
      "sion of the ": 2530,
      "every thing ": 2531,
      "necessary ": 2532,
      "happen": 2533,
      "famili": 2534,
      "equal ": 2535,
      "regular": 2536,
      "Su": 2537,
      "der ": 2538,
      "pay": 2539,
      "wise ": 2540,
      "inconveni": 2541,
      "er, ": 2542,
      "offer": 2543,
      "republic": 2544,
      "ary, ": 2545,
      "sil": 2546,
      "extend": 2547,
      "prove ": 2548,
      "endow": 2549,
      "rather ": 2550,
      "soli": 2551,
      "principle": 2552,
      "principles of ": 2553,
      "understanding": 2554,
      "spirit": 2555,
      "merit": 2556,
      "demand": 2557,
      "body": 2558,
      "distinct ": 2559,
      "universal ": 2560,
      ",000 ": 2561,
      "Lond": 2562,
      "Wh": 2563,
      "fter": 2564,
      "fall ": 2565,
      "hom": 2566,
      "always ": 2567,
      "pron": 2568,
      "ly be ": 2569,
      "express": 2570,
      " art": 2571,
      "ity.": 2572,
      "money": 2573,
      "resist": 2574,
      ", which they ": 2575,
      "capable ": 2576,
      "has a ": 2577,
      "IANS": 2578,
      " advantag": 2579,
      "hatred": 2580,
      "inhabitant": 2581,
      "child": 2582,
      "eloqu": 2583,
      "; which ": 2584,
      "Elizabe": 2585,
      "Phil": 2586,
      "ew ": 2587,
      "gri": 2588,
      "hal": 2589,
      "ness ": 2590,
      "s, that ": 2591,
      "insist": 2592,
      "reduc": 2593,
      "them": 2594,
      "they ": 2595,
      "ate the ": 2596,
      "al and ": 2597,
      "ur ": 2598,
      " army ": 2599,
      "uneas": 2600,
      "pernici": 2601,
      "s, he ": 2602,
      ", ap": 2603,
      ", and are ": 2604,
      "we are ": 2605,
      "men, ": 2606,
      "content": 2607,
      "foreign": 2608,
      "s of this ": 2609,
      "instances": 2610,
      " tru": 2611,
      " true ": 2612,
      "happiness": 2613,
      "consequence": 2614,
      "peci": 2615,
      "execut": 2616,
      "neither ": 2617,
      "\" ": 2618,
      "doc": 2619,
      "ian": 2620,
      "pan": 2621,
      "vent": 2622,
      "zeal": 2623,
      "en, ": 2624,
      "reject": 2625,
      "especi": 2626,
      " tot": 2627,
      "disap": 2628,
      "petu": 2629,
      " alli": 2630,
      "s of that ": 2631,
      "property ": 2632,
      "remot": 2633,
      "ultiv": 2634,
      "beyond": 2635,
      "master": 2636,
      "struct": 2637,
      "pronoun": 2638,
      "god": 2639,
      "row": 2640,
      "writ": 2641,
      "e of the ": 2642,
      "ate, ": 2643,
      "contain": 2644,
      "step": 2645,
      "ation, and ": 2646,
      "iment": 2647,
      "obtain": 2648,
      ", whom ": 2649,
      "viv": 2650,
      "ence to ": 2651,
      "so far": 2652,
      " alter": 2653,
      "hile the ": 2654,
      "committ": 2655,
      "firm": 2656,
      "contrary ": 2657,
      "human nature": 2658,
      " afford": 2659,
      "manner ": 2660,
      "still more ": 2661,
      " time": 2662,
      "perfection": 2663,
      ". Su": 2664,
      "ROPE": 2665,
      "barbar": 2666,
      "ed by a ": 2667,
      ", where the ": 2668,
      "conclud": 2669,
      " acquaint": 2670,
      "perhaps, ": 2671,
      " taken ": 2672,
      "beyond ": 2673,
      "civil ": 2674,
      ", according to the ": 2675,
      "royal ": 2676,
      "I am ": 2677,
      "philosophical ": 2678,
      "keep": 2679,
      "manufact": 2680,
      "London": 2681,
      "doctr": 2682,
      "ice ": 2683,
      "nex": 2684,
      "sor": 2685,
      "spr": 2686,
      "went": 2687,
      ", is": 2688,
      "repli": 2689,
      " ancient ": 2690,
      "es are ": 2691,
      "hilip": 2692,
      "it.": 2693,
      "ed at ": 2694,
      "amp": 2695,
      " assist": 2696,
      "essenti": 2697,
      "ence, and ": 2698,
      "from his ": 2699,
      "I have ": 2700,
      "struc": 2701,
      " appear ": 2702,
      "controver": 2703,
      "illi": 2704,
      "second ": 2705,
      "mission": 2706,
      ". No ": 2707,
      "hysi": 2708,
      "enemies": 2709,
      "bestow": 2710,
      " those of ": 2711,
      "EUROPE": 2712,
      "'d ": 2713,
      "oop": 2714,
      "s; and": 2715,
      "tle": 2716,
      " tal": 2717,
      "iness ": 2718,
      "ing and ": 2719,
      "ed. The ": 2720,
      " a man ": 2721,
      "conver": 2722,
      "lim": 2723,
      "seiz": 2724,
      "noth": 2725,
      "delic": 2726,
      "persu": 2727,
      ". That ": 2728,
      "; yet ": 2729,
      ", that all ": 2730,
      ", which he ": 2731,
      "catholic": 2732,
      "sense ": 2733,
      " approach": 2734,
      "s of their ": 2735,
      "probab": 2736,
      "object of ": 2737,
      "might be ": 2738,
      "sufficient ": 2739,
      "origin ": 2740,
      "confid": 2741,
      "character ": 2742,
      "usual ": 2743,
      "fully ": 2744,
      " assembl": 2745,
      "change ": 2746,
      "diminish": 2747,
      " absurd": 2748,
      "pretension": 2749,
      "extremely ": 2750,
      "secret ": 2751,
      "mere ": 2752,
      "physi": 2753,
      "inno": 2754,
      "es.": 2755,
      "ed on the ": 2756,
      "acy": 2757,
      "term": 2758,
      "leas": 2759,
      "him to ": 2760,
      "indulg": 2761,
      "red to ": 2762,
      "greater": 2763,
      "instea": 2764,
      "begin": 2765,
      "ROME": 2766,
      "large ": 2767,
      "popular ": 2768,
      " term": 2769,
      "more than ": 2770,
      "Philo": 2771,
      " of the ": 2772,
      "Be": 2773,
      "yran": 2774,
      "reign": 2775,
      "org": 2776,
      "ing any ": 2777,
      ". D": 2778,
      "is so ": 2779,
      "sid": 2780,
      "for that ": 2781,
      "urn ": 2782,
      "be the ": 2783,
      "impres": 2784,
      "ent of ": 2785,
      "tain ": 2786,
      "; since ": 2787,
      "let ": 2788,
      "given ": 2789,
      "ous to ": 2790,
      "again": 2791,
      "field": 2792,
      "deser": 2793,
      "design": 2794,
      ", who had ": 2795,
      "poin": 2796,
      "ately ": 2797,
      "much more ": 2798,
      "necessari": 2799,
      "sufficient to ": 2800,
      "judgment ": 2801,
      "doubt": 2802,
      "ROMAN ": 2803,
      "etr": 2804,
      "son ": 2805,
      " tit": 2806,
      " temper": 2807,
      "of all the ": 2808,
      "argument": 2809,
      "ed that ": 2810,
      ", their ": 2811,
      "ch of ": 2812,
      "ses ": 2813,
      "very": 2814,
      "plan": 2815,
      "play": 2816,
      "perpetu": 2817,
      "right ": 2818,
      " assu": 2819,
      "ough ": 2820,
      "ance of the ": 2821,
      ", which the ": 2822,
      "contemp": 2823,
      "relation ": 2824,
      "consider the ": 2825,
      "observe ": 2826,
      "seems to ": 2827,
      "virtue": 2828,
      "pursu": 2829,
      "ength": 2830,
      "knowledge ": 2831,
      " advantage": 2832,
      "void": 2833,
      "comparison": 2834,
      "way ": 2835,
      "commission": 2836,
      "In ": 2837,
      "Rom": 2838,
      "clear": 2839,
      "fanc": 2840,
      "les ": 2841,
      "moun": 2842,
      "usi": 2843,
      "enci": 2844,
      ", being ": 2845,
      "the": 2846,
      "ing them": 2847,
      "chur": 2848,
      ", what ": 2849,
      "ford ": 2850,
      " to any ": 2851,
      "proof": 2852,
      ": That ": 2853,
      ", and that": 2854,
      " actu": 2855,
      "rank": 2856,
      " abstr": 2857,
      "required": 2858,
      "useful": 2859,
      "ed with a ": 2860,
      " trans": 2861,
      " agreeable ": 2862,
      " advantage ": 2863,
      "life, ": 2864,
      "perception": 2865,
      "infinit": 2866,
      "constitution": 2867,
      "'d": 2868,
      "; a ": 2869,
      "Ar": 2870,
      "Con": 2871,
      "UL": 2872,
      "cultiv": 2873,
      " ten": 2874,
      "s not ": 2875,
      "of their": 2876,
      "escap": 2877,
      "lie ": 2878,
      "forces": 2879,
      "ing of the ": 2880,
      "dict": 2881,
      "ult": 2882,
      "let": 2883,
      "vict": 2884,
      "shall": 2885,
      " almost ": 2886,
      "serv": 2887,
      "fav": 2888,
      ", we shall ": 2889,
      " appea": 2890,
      "seem ": 2891,
      "second": 2892,
      "virtue ": 2893,
      " army": 2894,
      "e them ": 2895,
      "something ": 2896,
      "queen ": 2897,
      "except ": 2898,
      "destroy": 2899,
      "destruc": 2900,
      "dominion": 2901,
      "matter of ": 2902,
      "prais": 2903,
      "na": 2904,
      " thes": 2905,
      "on, ": 2906,
      "that ": 2907,
      "there ": 2908,
      "es to ": 2909,
      "arm": 2910,
      "itary ": 2911,
      "prim": 2912,
      "side ": 2913,
      "in some ": 2914,
      "ing it": 2915,
      "preme ": 2916,
      "accoun": 2917,
      "othing ": 2918,
      "comprehen": 2919,
      "e this ": 2920,
      ", which was ": 2921,
      "shew": 2922,
      "all the ": 2923,
      "gives": 2924,
      "we have ": 2925,
      "ety of ": 2926,
      "; and this ": 2927,
      "motion": 2928,
      "foll": 2929,
      "meet": 2930,
      "ministr": 2931,
      "suppor": 2932,
      "fail": 2933,
      "disturb": 2934,
      "produces": 2935,
      "produces ": 2936,
      "religious ": 2937,
      "exclu": 2938,
      "possessed ": 2939,
      "daugh": 2940,
      "ourselves ": 2941,
      "whatever ": 2942,
      "frequently ": 2943,
      "false": 2944,
      "chiefly ": 2945,
      ". When ": 2946,
      "embrac": 2947,
      "method of ": 2948,
      "solid": 2949,
      "illiam": 2950,
      "; w": 2951,
      "Or": 2952,
      "cop": 2953,
      "junc": 2954,
      "ting ": 2955,
      "ution ": 2956,
      "s for ": 2957,
      "often": 2958,
      "ant of ": 2959,
      "es, the ": 2960,
      "is it ": 2961,
      "force and ": 2962,
      "opport": 2963,
      "direc": 2964,
      "without": 2965,
      "parti": 2966,
      "s of men": 2967,
      "not only ": 2968,
      "whose ": 2969,
      "short": 2970,
      " acknowledg": 2971,
      "lay": 2972,
      "few": 2973,
      "other hand": 2974,
      "submit": 2975,
      "every one ": 2976,
      "guil": 2977,
      ". His ": 2978,
      "march": 2979,
      ". It is": 2980,
      "suppose ": 2981,
      "during ": 2982,
      "existence": 2983,
      "continued ": 2984,
      "sufficiently ": 2985,
      "causes ": 2986,
      "bitr": 2987,
      "qualities ": 2988,
      ", after ": 2989,
      "betwixt": 2990,
      "similar": 2991,
      " absolute ": 2992,
      "individual": 2993,
      " tendenc": 2994,
      " attention": 2995,
      "BR": 2996,
      "PH": 2997,
      "SP": 2998,
      "lam": 2999,
      "land ": 3000,
      "last": 3001,
      "ply ": 3002,
      "rom": 3003,
      "soul": 3004,
      " tast": 3005,
      " thir": 3006,
      "time": 3007,
      "ed from": 3008,
      "ed in a ": 3009,
      "eck": 3010,
      "conce": 3011,
      "ent, ": 3012,
      "ation.": 3013,
      "of the same ": 3014,
      "compa": 3015,
      "by their ": 3016,
      "ought to ": 3017,
      "e of his ": 3018,
      "sh ": 3019,
      " actions": 3020,
      "too ": 3021,
      "interrup": 3022,
      "relat": 3023,
      " thought ": 3024,
      "pain ": 3025,
      "which are ": 3026,
      "ock": 3027,
      "mistak": 3028,
      "grati": 3029,
      "bene": 3030,
      "volunt": 3031,
      "; where ": 3032,
      "politic": 3033,
      "Philip": 3034,
      "What ": 3035,
      "gon": 3036,
      "ias": 3037,
      "kill": 3038,
      "s to be ": 3039,
      "usur": 3040,
      "erog": 3041,
      "retain": 3042,
      "tive": 3043,
      "alog": 3044,
      "ed him ": 3045,
      ", while ": 3046,
      "prerog": 3047,
      "ations, ": 3048,
      "quan": 3049,
      "utmost ": 3050,
      "ober": 3051,
      "olog": 3052,
      "e that": 3053,
      "given": 3054,
      " as well": 3055,
      "negl": 3056,
      "ument ": 3057,
      "which is ": 3058,
      " they were ": 3059,
      "but the ": 3060,
      "sentiment ": 3061,
      "species": 3062,
      "conclude": 3063,
      "consequences": 3064,
      "existence ": 3065,
      "divid": 3066,
      "commod": 3067,
      "similar ": 3068,
      "conduct ": 3069,
      "rebell": 3070,
      "left ": 3071,
      ", whether ": 3072,
      "mutual ": 3073,
      "experiment": 3074,
      "AS": 3075,
      "Mon": 3076,
      "PL": 3077,
      "call ": 3078,
      "hin": 3079,
      "igi": 3080,
      "know ": 3081,
      "lord": 3082,
      "nation ": 3083,
      "wel": 3084,
      "onder": 3085,
      "of all": 3086,
      "y is ": 3087,
      "y in ": 3088,
      "ann": 3089,
      "hither": 3090,
      "convers": 3091,
      "intro": 3092,
      "lebr": 3093,
      " an in": 3094,
      "meet ": 3095,
      "could be ": 3096,
      " affirm": 3097,
      "laws of ": 3098,
      " time, ": 3099,
      "succe": 3100,
      "sentiments": 3101,
      "entirely": 3102,
      ". But the ": 3103,
      "cles": 3104,
      "world ": 3105,
      "family ": 3106,
      "naturally": 3107,
      "double ": 3108,
      "promot": 3109,
      "belie": 3110,
      "believ": 3111,
      "intelligi": 3112,
      "comparison ": 3113,
      "industry": 3114,
      "inclination": 3115,
      "suspici": 3116,
      "endeavour to ": 3117,
      "isible ": 3118,
      "mixt": 3119,
      "estimon": 3120,
      "hundred ": 3121,
      "notwithstand": 3122,
      "Al": 3123,
      "William": 3124,
      "ely": 3125,
      "s in": 3126,
      "s it ": 3127,
      " any thing ": 3128,
      "th, ": 3129,
      "it, and ": 3130,
      "omin": 3131,
      "contigu": 3132,
      "st the ": 3133,
      "celebr": 3134,
      " wor": 3135,
      "ity to ": 3136,
      "lead": 3137,
      "whe": 3138,
      "subsist": 3139,
      "I shall ": 3140,
      "facil": 3141,
      ". Where ": 3142,
      "ant and ": 3143,
      "? The ": 3144,
      "princip": 3145,
      "period": 3146,
      "possibly ": 3147,
      "virtues": 3148,
      "obligation": 3149,
      "peace": 3150,
      "; but the ": 3151,
      "ground": 3152,
      "dicul": 3153,
      "modern ": 3154,
      "deliver": 3155,
      "convinc": 3156,
      "genius": 3157,
      "mirac": 3158,
      "ISH ": 3159,
      "future ": 3160,
      "organ": 3161,
      "; though ": 3162,
      "EL": 3163,
      "Rober": 3164,
      "ires": 3165,
      "ities": 3166,
      " temp": 3167,
      "repe": 3168,
      "really ": 3169,
      "aris": 3170,
      "atever ": 3171,
      "ed all ": 3172,
      " to us": 3173,
      "lly ": 3174,
      "convey": 3175,
      "conjunc": 3176,
      "six": 3177,
      " to them": 3178,
      "beha": 3179,
      "deform": 3180,
      "mad": 3181,
      "event ": 3182,
      "s, in ": 3183,
      "e these ": 3184,
      "have the ": 3185,
      "so many ": 3186,
      "so much": 3187,
      "near ": 3188,
      " att": 3189,
      ", to be ": 3190,
      "consider ": 3191,
      "founded on ": 3192,
      "supposition": 3193,
      "every": 3194,
      "occur": 3195,
      "what is ": 3196,
      "make a ": 3197,
      "people, ": 3198,
      "violent ": 3199,
      "belief": 3200,
      "fortune ": 3201,
      "coll": 3202,
      "derived from the ": 3203,
      "humility": 3204,
      "royal": 3205,
      "false ": 3206,
      "crimin": 3207,
      "sceptic": 3208,
      "James ": 3209,
      "scarcely ": 3210,
      ". On the ": 3211,
      " is ": 3212,
      "If": 3213,
      "gold": 3214,
      "ice": 3215,
      "ies, ": 3216,
      "ry": 3217,
      "s: ": 3218,
      "vag": 3219,
      "inform": 3220,
      "on accoun": 3221,
      "reti": 3222,
      "or a ": 3223,
      "ouse": 3224,
      "ating ": 3225,
      "ing to the ": 3226,
      ". G": 3227,
      "condi": 3228,
      "sud": 3229,
      "or of ": 3230,
      "fru": 3231,
      "presum": 3232,
      "perceiv": 3233,
      "olk": 3234,
      "dissol": 3235,
      "ridicul": 3236,
      "le, ": 3237,
      " assign": 3238,
      "our of the ": 3239,
      "our own ": 3240,
      "monar": 3241,
      "cession": 3242,
      "easy ": 3243,
      "somew": 3244,
      "fidel": 3245,
      "counter": 3246,
      "ance and ": 3247,
      "relation of ": 3248,
      "wards": 3249,
      "timate ": 3250,
      "influence": 3251,
      "simple ": 3252,
      "ness of ": 3253,
      " think ": 3254,
      "likew": 3255,
      "usual": 3256,
      " admir": 3257,
      "inferior ": 3258,
      "util": 3259,
      "excell": 3260,
      "before the ": 3261,
      " answer": 3262,
      "exercis": 3263,
      "  ": 3264,
      "'S ": 3265,
      "CA": 3266,
      "DE": 3267,
      "DI": 3268,
      "God": 3269,
      "To ": 3270,
      "fy": 3271,
      "furn": 3272,
      "iet": 3273,
      "sha": 3274,
      " three ": 3275,
      "injur": 3276,
      "s be ": 3277,
      ", in a ": 3278,
      "tious ": 3279,
      " and in": 3280,
      " and most ": 3281,
      "ing this ": 3282,
      "tions of ": 3283,
      "ed, that": 3284,
      "condem": 3285,
      "conceive ": 3286,
      "force": 3287,
      "set ": 3288,
      "noble ": 3289,
      "ourish": 3290,
      "perceive ": 3291,
      "among": 3292,
      "improv": 3293,
      "obedi": 3294,
      "poster": 3295,
      "by that ": 3296,
      "from one ": 3297,
      ". All ": 3298,
      " along": 3299,
      "ation or ": 3300,
      "submission": 3301,
      "guard": 3302,
      "worth": 3303,
      " who ": 3304,
      "privi": 3305,
      "mind, ": 3306,
      "necessity": 3307,
      "Scotti": 3308,
      "difficulty ": 3309,
      "senses": 3310,
      "immediately": 3311,
      "France ": 3312,
      "tle of ": 3313,
      "constant ": 3314,
      "can never be ": 3315,
      "contribut": 3316,
      ", they are ": 3317,
      "conquest": 3318,
      "lively ": 3319,
      "opportun": 3320,
      "somewhat ": 3321,
      "get": 3322,
      "mid": 3323,
      "pound": 3324,
      "scru": 3325,
      "sist ": 3326,
      "wo": 3327,
      " tyran": 3328,
      "ers, ": 3329,
      "on a ": 3330,
      " and more ": 3331,
      "ali": 3332,
      "al to ": 3333,
      "ed for ": 3334,
      ", and is ": 3335,
      "expression": 3336,
      "us the ": 3337,
      "comb": 3338,
      "s, by ": 3339,
      ", ab": 3340,
      "proc": 3341,
      " ask": 3342,
      "ility of ": 3343,
      " altogether ": 3344,
      "ation is ": 3345,
      " attach": 3346,
      ", with the ": 3347,
      "commend": 3348,
      "case, ": 3349,
      "domes": 3350,
      "possible": 3351,
      "understand": 3352,
      "sentiments of ": 3353,
      ". Now": 3354,
      "body ": 3355,
      ", who, ": 3356,
      "divine ": 3357,
      "marriage ": 3358,
      "remarkable ": 3359,
      "infinite ": 3360,
      "wisdom": 3361,
      "settl": 3362,
      "superstition": 3363,
      "pride and ": 3364,
      "bishop of ": 3365,
      "extraordinary ": 3366,
      "speak": 3367,
      "narrow ": 3368,
      "especially ": 3369,
      "behavi": 3370,
      "Nat": 3371,
      "best ": 3372,
      "cen": 3373,
      "pt": 3374,
      "ution of ": 3375,
      " aver": 3376,
      "ere, ": 3377,
      "s on ": 3378,
      "recourse ": 3379,
      "ated by ": 3380,
      " a man": 3381,
      "confirm": 3382,
      "may, ": 3383,
      "es in ": 3384,
      "uncertain": 3385,
      ", ad": 3386,
      ": [": 3387,
      ", that we ": 3388,
      "ity or ": 3389,
      "ously ": 3390,
      " all their ": 3391,
      ". As ": 3392,
      " already ": 3393,
      "form a ": 3394,
      "others, ": 3395,
      "subst": 3396,
      "antly ": 3397,
      "has no ": 3398,
      "poet": 3399,
      "power of ": 3400,
      " tax": 3401,
      "uniform": 3402,
      "soldi": 3403,
      "subjects": 3404,
      "means of ": 3405,
      ", inde": 3406,
      "peace ": 3407,
      "system of ": 3408,
      "IAN ": 3409,
      "piec": 3410,
      "perfectly ": 3411,
      "indeed ": 3412,
      "security": 3413,
      "sacri": 3414,
      "requisite to ": 3415,
      "subject ": 3416,
      "carry ": 3417,
      "BRIT": 3418,
      "clesias": 3419,
      "egi": 3420,
      "e, who ": 3421,
      "four": 3422,
      "fel": 3423,
      "gument ": 3424,
      "mur": 3425,
      "y, the ": 3426,
      ", be ": 3427,
      " anti": 3428,
      "ancient": 3429,
      "essi": 3430,
      "is there ": 3431,
      "er of the ": 3432,
      "suscep": 3433,
      "ently": 3434,
      " towards ": 3435,
      "ure and ": 3436,
      "us a ": 3437,
      "come ": 3438,
      "comprehend": 3439,
      "disagre": 3440,
      "e than": 3441,
      "; because ": 3442,
      "trans": 3443,
      "; and it is ": 3444,
      " according": 3445,
      " accident": 3446,
      "cester": 3447,
      "easy": 3448,
      "saf": 3449,
      "foreg": 3450,
      "weal": 3451,
      "lux": 3452,
      "desire ": 3453,
      ". What ": 3454,
      "pati": 3455,
      "brought ": 3456,
      "possible ": 3457,
      "persons ": 3458,
      "time, ": 3459,
      "US ": 3460,
      "ion of ": 3461,
      "satisfact": 3462,
      "summon": 3463,
      ", when he ": 3464,
      "received ": 3465,
      "favourable ": 3466,
      "ness and ": 3467,
      "modern": 3468,
      "regular ": 3469,
      "remain ": 3470,
      "affection": 3471,
      "commerce ": 3472,
      " absolut": 3473,
      "banish": 3474,
      "Rich": 3475,
      "nobility": 3476,
      "figure": 3477,
      "vivac": 3478,
      "impression ": 3479,
      "forego": 3480,
      "UR": 3481,
      "UT": 3482,
      "]}": 3483,
      "au": 3484,
      "e. The ": 3485,
      "kep": 3486,
      "none ": 3487,
      "ogi": 3488,
      "s that ": 3489,
      "vain": 3490,
      "your": 3491,
      "on their ": 3492,
      "s it": 3493,
      "s from the ": 3494,
      "ecclesias": 3495,
      "ush": 3496,
      "plant": 3497,
      ": A": 3498,
      "need ": 3499,
      "; and that": 3500,
      " an un": 3501,
      "not a ": 3502,
      "foot": 3503,
      " attribut": 3504,
      " advanc": 3505,
      ", we are ": 3506,
      "necessi": 3507,
      " troop": 3508,
      "happy ": 3509,
      "clerg": 3510,
      "merit ": 3511,
      " transi": 3512,
      "historian": 3513,
      "larg": 3514,
      "myself": 3515,
      "), 2": 3516,
      "Norman": 3517,
      "scen": 3518,
      "quarrel": 3519,
      "a(1754": 3520,
      "material": 3521,
      "{Va(1754": 3522,
      "peculiar ": 3523,
      "commodities": 3524,
      "John ": 3525,
      "sometimes ": 3526,
      "persuad": 3527,
      "neglect": 3528,
      "AIN": 3529,
      "cre": 3530,
      "cus": 3531,
      "four ": 3532,
      "hos": 3533,
      "ili": 3534,
      "lem": 3535,
      "oy ": 3536,
      "oke ": 3537,
      "s as ": 3538,
      "tor": 3539,
      "wr": 3540,
      ", by the ": 3541,
      "t or ": 3542,
      "of a": 3543,
      "recon": 3544,
      "th and ": 3545,
      "sive": 3546,
      "ce of the ": 3547,
      "in England": 3548,
      ", and of ": 3549,
      "blood": 3550,
      " artifi": 3551,
      "uncertaint": 3552,
      "acy ": 3553,
      "mankind ": 3554,
      "display": 3555,
      "e the": 3556,
      ", among": 3557,
      ", and that the ": 3558,
      "pell": 3559,
      "ured": 3560,
      "eable": 3561,
      "nego": 3562,
      "elev": 3563,
      " at a ": 3564,
      " attain": 3565,
      "rest ": 3566,
      "ott": 3567,
      "course": 3568,
      "contempl": 3569,
      "passions ": 3570,
      "better": 3571,
      "became ": 3572,
      "seemed ": 3573,
      "foundation ": 3574,
      "if he ": 3575,
      "even the ": 3576,
      "death ": 3577,
      "nothing but ": 3578,
      "circumstance ": 3579,
      "only to ": 3580,
      "state of ": 3581,
      "head ": 3582,
      "formerly ": 3583,
      "high ": 3584,
      "science": 3585,
      "sciences": 3586,
      "succession": 3587,
      "protect": 3588,
      "protest": 3589,
      "resolution": 3590,
      "political ": 3591,
      "further ": 3592,
      "neighbouring ": 3593,
      "readily ": 3594,
      "capable of ": 3595,
      " assuran": 3596,
      "Ch": 3597,
      "Gu": 3598,
      "Wal": 3599,
      "e; ": 3600,
      "oll": 3601,
      "val ": 3602,
      "vain ": 3603,
      "vass": 3604,
      "wonder": 3605,
      "y. The ": 3606,
      "ince ": 3607,
      ", from the ": 3608,
      "reat ": 3609,
      "es; and ": 3610,
      ". U": 3611,
      "pride": 3612,
      "confu": 3613,
      "consent ": 3614,
      "supreme ": 3615,
      "emon": 3616,
      "ces of ": 3617,
      "liv": 3618,
      " tol": 3619,
      " to another": 3620,
      "blame ": 3621,
      "before": 3622,
      "deem": 3623,
      "making": 3624,
      " and a ": 3625,
      " arbitr": 3626,
      "from this ": 3627,
      "on his ": 3628,
      "obst": 3629,
      "proof ": 3630,
      "vice ": 3631,
      "him, ": 3632,
      " associ": 3633,
      "with regard to ": 3634,
      "reasonable ": 3635,
      "subdu": 3636,
      "propens": 3637,
      "suppli": 3638,
      "intern": 3639,
      "objects, ": 3640,
      "? And ": 3641,
      "difference": 3642,
      " at present": 3643,
      "might": 3644,
      "certainly ": 3645,
      "difficulty": 3646,
      "judge ": 3647,
      "sense of ": 3648,
      "demon": 3649,
      "exampl": 3650,
      "justly ": 3651,
      "defend": 3652,
      "memor": 3653,
      ". Every ": 3654,
      "slaves": 3655,
      ". In the ": 3656,
      "love and ": 3657,
      "endeav": 3658,
      "called ": 3659,
      "separate ": 3660,
      "GREECE": 3661,
      "cruel": 3662,
      "extensive ": 3663,
      " ambition": 3664,
      "inferior": 3665,
      "ugment": 3666,
      "Elizabeth": 3667,
      "band": 3668,
      "could": 3669,
      "dread": 3670,
      "etern": 3671,
      "hold": 3672,
      "house": 3673,
      "oa": 3674,
      "round": 3675,
      "err": 3676,
      "s us": 3677,
      " the whole ": 3678,
      "ed as": 3679,
      "sun": 3680,
      "emal": 3681,
      "for this ": 3682,
      " to all ": 3683,
      "compla": 3684,
      ", all ": 3685,
      "project": 3686,
      "mort": 3687,
      " of his ": 3688,
      "true ": 3689,
      "lay ": 3690,
      "ured ": 3691,
      "no long": 3692,
      "up ": 3693,
      "spect": 3694,
      "mov": 3695,
      " at the same ": 3696,
      "propag": 3697,
      "resent": 3698,
      "faith": 3699,
      "men are ": 3700,
      ", who was ": 3701,
      " at last ": 3702,
      "tions are ": 3703,
      "sure ": 3704,
      "necessity ": 3705,
      "give a ": 3706,
      "happines": 3707,
      "probable": 3708,
      "capit": 3709,
      "only the ": 3710,
      "country ": 3711,
      "began": 3712,
      "resto": 3713,
      "divin": 3714,
      "cannot be ": 3715,
      "ness, ": 3716,
      "draw ": 3717,
      "ITAL": 3718,
      "French": 3719,
      "military ": 3720,
      " approbation": 3721,
      " attempt": 3722,
      "vulgar ": 3723,
      "hypothesis": 3724,
      "citizen": 3725,
      "children": 3726,
      "beginn": 3727,
      "church": 3728,
      "behaviour": 3729,
      "susceptible ": 3730,
      ", an ": 3731,
      "ICE": 3732,
      "ST": 3733,
      "Som": 3734,
      "av": 3735,
      "cul": 3736,
      "came ": 3737,
      "cup": 3738,
      "care ": 3739,
      "dest": 3740,
      "fle": 3741,
      "len": 3742,
      "te": 3743,
      "want": 3744,
      "e in ": 3745,
      "e a ": 3746,
      "s his ": 3747,
      "s by ": 3748,
      ", his ": 3749,
      "recommend": 3750,
      "their ": 3751,
      "ouch": 3752,
      "issu": 3753,
      "chas": 3754,
      "ed an": 3755,
      "ed as a ": 3756,
      " a great ": 3757,
      "osity": 3758,
      "consci": 3759,
      ", and even ": 3760,
      " to those ": 3761,
      " to take ": 3762,
      "opul": 3763,
      "quill": 3764,
      "whom": 3765,
      "lab": 3766,
      "laid ": 3767,
      "ility, ": 3768,
      "ardin": 3769,
      " apprehen": 3770,
      "countri": 3771,
      "earth": 3772,
      "polic": 3773,
      "distri": 3774,
      "distant ": 3775,
      "entire ": 3776,
      "brok": 3777,
      " afford ": 3778,
      "love": 3779,
      "priest": 3780,
      "dece": 3781,
      "commonweal": 3782,
      "y thing": 3783,
      "ideas of ": 3784,
      "consequence ": 3785,
      "corrup": 3786,
      "resemblance ": 3787,
      "enjoyment": 3788,
      "command ": 3789,
      "satisfaction ": 3790,
      "further": 3791,
      "prisoner": 3792,
      "centur": 3793,
      "ENGLAND": 3794,
      "Cleanthes": 3795,
      "speculative ": 3796,
      "remote ": 3797,
      "manufacture": 3798,
      "letter": 3799,
      "condemn": 3800,
      "luxur": 3801,
      ", an": 3802,
      ": and ": 3803,
      "Dem": 3804,
      "dr": 3805,
      "femal": 3806,
      "vel": 3807,
      "enth": 3808,
      "encourag": 3809,
      ", so ": 3810,
      ", for ": 3811,
      "es, which ": 3812,
      "is an ": 3813,
      "chance": 3814,
      "tions, ": 3815,
      "ed this ": 3816,
      "ed, the ": 3817,
      "conjoin": 3818,
      "embra": 3819,
      "stead": 3820,
      ", and had ": 3821,
      ", and which ": 3822,
      " arri": 3823,
      "did": 3824,
      "cian": 3825,
      "from them": 3826,
      "on of ": 3827,
      "pard": 3828,
      "view ": 3829,
      "him a ": 3830,
      "giving ": 3831,
      "we can ": 3832,
      "no one ": 3833,
      "age, ": 3834,
      " almost": 3835,
      "fellow": 3836,
      "reason, ": 3837,
      "some other ": 3838,
      ", we must ": 3839,
      ". They": 3840,
      "contract": 3841,
      "cause and ": 3842,
      "if they ": 3843,
      "supposed to ": 3844,
      "manner of ": 3845,
      "cannot": 3846,
      " authority, ": 3847,
      "US, ": 3848,
      "standard": 3849,
      "like manner": 3850,
      "depend ": 3851,
      "satisfi": 3852,
      "crib": 3853,
      ", than the ": 3854,
      "gradu": 3855,
      "history": 3856,
      "protection": 3857,
      "betwixt ": 3858,
      "service": 3859,
      "hundred": 3860,
      ". Such ": 3861,
      "instead of ": 3862,
      "succeed": 3863,
      "endeavou": 3864,
      "Ca": 3865,
      "RA": 3866,
      "ccording": 3867,
      "ell ": 3868,
      "fter ": 3869,
      "garr": 3870,
      "hur": 3871,
      "le of ": 3872,
      "native ": 3873,
      "pit": 3874,
      "s, and the ": 3875,
      "vance ": 3876,
      "whi": 3877,
      "in an ": 3878,
      "onom": 3879,
      "on that ": 3880,
      "one of ": 3881,
      "ori": 3882,
      "attribut": 3883,
      "conspir": 3884,
      "ent and ": 3885,
      "for any ": 3886,
      " took ": 3887,
      "urg": 3888,
      "many": 3889,
      "man, ": 3890,
      "table ": 3891,
      "parent": 3892,
      "party ": 3893,
      "; it ": 3894,
      "viz": 3895,
      "tran": 3896,
      "him the ": 3897,
      ", that it is ": 3898,
      "was not ": 3899,
      "ever be ": 3900,
      "ety ": 3901,
      "fif": 3902,
      "infalli": 3903,
      "t of his ": 3904,
      "regard ": 3905,
      ", who were ": 3906,
      ", in some ": 3907,
      ". What": 3908,
      "case": 3909,
      "distinct": 3910,
      ". Here ": 3911,
      "occup": 3912,
      "was a ": 3913,
      "social ": 3914,
      "personal ": 3915,
      "probably ": 3916,
      "suffer": 3917,
      "inference": 3918,
      "evident ": 3919,
      "correct": 3920,
      "becomes ": 3921,
      "ART": 3922,
      "violence": 3923,
      "in this particular": 3924,
      " after the ": 3925,
      "restrain": 3926,
      "system ": 3927,
      ", when we ": 3928,
      "extrem": 3929,
      " which the ": 3930,
      "humour": 3931,
      "commerce": 3932,
      "grant": 3933,
      "obvious": 3934,
      "source of ": 3935,
      "rebel": 3936,
      "concurr": 3937,
      " always": 3938,
      "philosophy, ": 3939,
      "credit": 3940,
      " ascribe ": 3941,
      "half": 3942,
      "replied ": 3943,
      "Demea": 3944,
      ") ": 3945,
      "0,000 ": 3946,
      "ET": 3947,
      "If ": 3948,
      "Le": 3949,
      "OD": 3950,
      "fat": 3951,
      "ily ": 3952,
      "ox": 3953,
      "sch": 3954,
      "s? ": 3955,
      "tle ": 3956,
      "treat": 3957,
      " then": 3958,
      "on which ": 3959,
      ", however": 3960,
      "tiv": 3961,
      "confor": 3962,
      "lies ": 3963,
      "forc": 3964,
      " together": 3965,
      " topic": 3966,
      "unknown": 3967,
      "cial ": 3968,
      "intri": 3969,
      "imit": 3970,
      "posi": 3971,
      "e than ": 3972,
      ", as to ": 3973,
      "vic": 3974,
      " are not ": 3975,
      "have any ": 3976,
      ", that these ": 3977,
      " assent": 3978,
      "n from ": 3979,
      "tion is ": 3980,
      "; and as ": 3981,
      "to a ": 3982,
      " addition": 3983,
      " those who ": 3984,
      "crown ": 3985,
      "These ": 3986,
      "supposed ": 3987,
      "powerful ": 3988,
      "imagination ": 3989,
      "commonly": 3990,
      " trust": 3991,
      "nature, ": 3992,
      ". Som": 3993,
      "discover ": 3994,
      ", in this ": 3995,
      " appearance": 3996,
      "ed by any ": 3997,
      "situation ": 3998,
      "years": 3999,
      "distinction": 4000,
      "good-": 4001,
      ": And the ": 4002,
      "when we ": 4003,
      "contrary to ": 4004,
      "III": 4005,
      "soon after ": 4006,
      "ires ": 4007,
      "more than": 4008,
      "necessary to ": 4009,
      "buil": 4010,
      "contradiction": 4011,
      "disgust": 4012,
      "disappoint": 4013,
      "next ": 4014,
      "conceal": 4015,
      "prerogati": 4016,
      "rebellion": 4017,
      "introduc": 4018,
      "privileg": 4019,
      "Scottish ": 4020,
      "combin": 4021,
      "conforma": 4022,
      "Ma": 4023,
      "OM": 4024,
      "after": 4025,
      "avoid": 4026,
      "city ": 4027,
      "go ": 4028,
      "mel": 4029,
      "ne ": 4030,
      "odi": 4031,
      "s, which": 4032,
      "sound ": 4033,
      "ying ": 4034,
      "s on the ": 4035,
      ", from ": 4036,
      ", nor ": 4037,
      "attend": 4038,
      "alone ": 4039,
      "it to ": 4040,
      "is nothing ": 4041,
      "live ": 4042,
      "he had": 4043,
      "prepar": 4044,
      "dig": 4045,
      "quic": 4046,
      "immen": 4047,
      "ack ": 4048,
      ", al": 4049,
      "part, ": 4050,
      ", when the ": 4051,
      " their own ": 4052,
      "in the world": 4053,
      ": Y": 4054,
      "have been": 4055,
      "and the ": 4056,
      "king's": 4057,
      " appla": 4058,
      "magni": 4059,
      "consideration": 4060,
      "ed by his ": 4061,
      " appetit": 4062,
      "contrari": 4063,
      "plain ": 4064,
      "renew": 4065,
      "sentiment of ": 4066,
      "if it ": 4067,
      "decis": 4068,
      "decid": 4069,
      "sole ": 4070,
      "misfortun": 4071,
      " appears ": 4072,
      "liberty ": 4073,
      "excite ": 4074,
      "curi": 4075,
      "invad": 4076,
      "feeling": 4077,
      "beget": 4078,
      " tranquill": 4079,
      " throw": 4080,
      "influence on the ": 4081,
      "leave ": 4082,
      "highest ": 4083,
      "e themsel": 4084,
      "advantage": 4085,
      "advantage ": 4086,
      "denomin": 4087,
      "beauty": 4088,
      "master ": 4089,
      "connexion ": 4090,
      "individual ": 4091,
      "phenomena": 4092,
      "quarter": 4093,
      "notwithstanding": 4094,
      "result ": 4095,
      "griev": 4096,
      "usurp": 4097,
      "fruit": 4098,
      " absolutely ": 4099,
      "Normand": 4100,
      "{Va(1754), ": 4101,
      "confusion": 4102,
      "62": 4103,
      "Ir": 4104,
      "Lan": 4105,
      "POL": 4106,
      "Yor": 4107,
      "bir": 4108,
      "back": 4109,
      "bad ": 4110,
      "gg": 4111,
      "hus": 4112,
      "rough": 4113,
      "s, that": 4114,
      "wat": 4115,
      " till": 4116,
      "in those ": 4117,
      "enabl": 4118,
      "y with ": 4119,
      "outh": 4120,
      "ous of ": 4121,
      "assa": 4122,
      "confer": 4123,
      "emin": 4124,
      "in which ": 4125,
      "force of ": 4126,
      "expres": 4127,
      "deep": 4128,
      "deliber": 4129,
      "es were ": 4130,
      "cious": 4131,
      "impul": 4132,
      "man of ": 4133,
      "utter": 4134,
      "position": 4135,
      "partiz": 4136,
      "propri": 4137,
      "duce ": 4138,
      ". The same ": 4139,
      " accustom": 4140,
      "y, he ": 4141,
      "sport": 4142,
      "safe": 4143,
      "fell ": 4144,
      "weigh": 4145,
      "tude": 4146,
      ". By ": 4147,
      " that this ": 4148,
      " again ": 4149,
      ". Were ": 4150,
      "passions, ": 4151,
      "look": 4152,
      "power and ": 4153,
      "whole": 4154,
      "even wh": 4155,
      "ed to a ": 4156,
      "government, ": 4157,
      ". Not": 4158,
      ". Nothing ": 4159,
      "objection": 4160,
      "clos": 4161,
      "proper to ": 4162,
      "difficulties": 4163,
      " afterwards ": 4164,
      ". Our ": 4165,
      "dangerous": 4166,
      "legis": 4167,
      "created ": 4168,
      "perhaps ": 4169,
      ", or the ": 4170,
      "derived from ": 4171,
      "carried ": 4172,
      "preserv": 4173,
      "practice ": 4174,
      "obvious ": 4175,
      "run ": 4176,
      "ruin": 4177,
      "revolution": 4178,
      "least, ": 4179,
      "support ": 4180,
      "believe ": 4181,
      "William ": 4182,
      "scrupl": 4183,
      "; though": 4184,
      "Irel": 4185,
      "When": 4186,
      "dre": 4187,
      "pover": 4188,
      "ration": 4189,
      "s, we ": 4190,
      "udi": 4191,
      " are": 4192,
      " threat": 4193,
      "inven": 4194,
      "env": 4195,
      "of thing": 4196,
      "remed": 4197,
      " ancient": 4198,
      "or, ": 4199,
      "ing these ": 4200,
      "alter": 4201,
      "also ": 4202,
      "eder": 4203,
      " to it": 4204,
      "having": 4205,
      "stud": 4206,
      "sick": 4207,
      "seas": 4208,
      "be a ": 4209,
      " are th": 4210,
      " arose ": 4211,
      "predomin": 4212,
      "s, it ": 4213,
      "s of our ": 4214,
      "; it is ": 4215,
      "ence to the ": 4216,
      "so little ": 4217,
      " accep": 4218,
      "identi": 4219,
      "ed to his ": 4220,
      "ate and ": 4221,
      "motive ": 4222,
      "stit": 4223,
      " ages": 4224,
      "court of ": 4225,
      " with a ": 4226,
      "principles, ": 4227,
      "thern ": 4228,
      "would have ": 4229,
      "apt to ": 4230,
      " affections": 4231,
      "suppose": 4232,
      "imagine": 4233,
      "made a ": 4234,
      "close ": 4235,
      " account": 4236,
      "invas": 4237,
      "confeder": 4238,
      "body of ": 4239,
      "belief ": 4240,
      "esteemed ": 4241,
      "calcul": 4242,
      "heart": 4243,
      "pretend to ": 4244,
      "preserve ": 4245,
      "flourish": 4246,
      "taken ": 4247,
      "do not ": 4248,
      "sovereign ": 4249,
      "moment ": 4250,
      "extension": 4251,
      ". You ": 4252,
      "provinces": 4253,
      "vulgar": 4254,
      "acquaint": 4255,
      "declared ": 4256,
      "eloquence": 4257,
      "sorrow": 4258,
      "let us ": 4259,
      " abstract ": 4260,
      " as well as ": 4261,
      "Robert ": 4262,
      "gold and ": 4263,
      " aversion": 4264,
      "commonwealth": 4265,
      "embrace ": 4266,
      "intrigu": 4267,
      ".1": 4268,
      ".2": 4269,
      "EX": 4270,
      "NE": 4271,
      "OS": 4272,
      "TI": 4273,
      "cend": 4274,
      "down": 4275,
      "itions": 4276,
      "length": 4277,
      "met": 4278,
      "overy ": 4279,
      "ogu": 4280,
      "wn": 4281,
      "y, which ": 4282,
      "y; and ": 4283,
      " testimon": 4284,
      " augment": 4285,
      "s was ": 4286,
      "energ": 4287,
      ", but": 4288,
      "orator": 4289,
      "then": 4290,
      "ession": 4291,
      "ches": 4292,
      "oss": 4293,
      "confound": 4294,
      "sugg": 4295,
      "forman": 4296,
      ", and was ": 4297,
      "bear ": 4298,
      "maj": 4299,
      "open ": 4300,
      "es or ": 4301,
      " will": 4302,
      " argument ": 4303,
      "ght of ": 4304,
      "performan": 4305,
      "impli": 4306,
      "take ": 4307,
      ": but ": 4308,
      "e, or ": 4309,
      " any one ": 4310,
      " as they ": 4311,
      "so far ": 4312,
      "when the ": 4313,
      "shor": 4314,
      "ity in ": 4315,
      " allegi": 4316,
      "need": 4317,
      "with his ": 4318,
      "uppos": 4319,
      "; and a ": 4320,
      "ceremon": 4321,
      "infanc": 4322,
      "wic": 4323,
      "ides ": 4324,
      "desired": 4325,
      " about ": 4326,
      "distance": 4327,
      "such as": 4328,
      "faction": 4329,
      " without ": 4330,
      "surround": 4331,
      "expect ": 4332,
      "mighty ": 4333,
      "ed in his ": 4334,
      "means ": 4335,
      "inference ": 4336,
      "sensible": 4337,
      "society, ": 4338,
      "sensation": 4339,
      "merch": 4340,
      "several": 4341,
      " acquire ": 4342,
      "make the ": 4343,
      "variety of ": 4344,
      "leader": 4345,
      "hopes of ": 4346,
      "popular": 4347,
      " admitt": 4348,
      "riches": 4349,
      " trial": 4350,
      "universe ": 4351,
      "a(1762": 4352,
      "proposition": 4353,
      "prosec": 4354,
      "refinement": 4355,
      "strict": 4356,
      ", whether": 4357,
      "levi": 4358,
      "between them": 4359,
      "nobleman": 4360,
      "emotion": 4361,
      "punishment": 4362,
      "same": 4363,
      "falseh": 4364,
      "hitherto ": 4365,
      "collect": 4366,
      "sudden": 4367,
      "presump": 4368,
      "likewise ": 4369,
      " tyrann": 4370,
      "domestic ": 4371,
      "internal ": 4372,
      "enthusi": 4373,
      "immense ": 4374,
      "Lancas": 4375,
      "gold and sil": 4376,
      " in the ": 4377,
      ".3": 4378,
      "AG": 4379,
      "AM": 4380,
      "Brit": 4381,
      "Com": 4382,
      "Ex": 4383,
      "LAND": 4384,
      "Span": 4385,
      "big": 4386,
      "e, which ": 4387,
      "fy ": 4388,
      "ho": 4389,
      "kn": 4390,
      "push": 4391,
      "spe": 4392,
      "sound": 4393,
      "ton": 4394,
      "wit": 4395,
      " thus ": 4396,
      "error": 4397,
      "on any ": 4398,
      "s with": 4399,
      "rew": 4400,
      "tile ": 4401,
      "then ": 4402,
      "ing, and ": 4403,
      "check": 4404,
      "ed them ": 4405,
      " to our ": 4406,
      "ed himself": 4407,
      "ed upon ": 4408,
      "stock": 4409,
      "sea": 4410,
      "ing or ": 4411,
      "ing from ": 4412,
      "es of": 4413,
      "fra": 4414,
      "union": 4415,
      "cipl": 4416,
      "from which ": 4417,
      "al of ": 4418,
      "complain": 4419,
      "displeas": 4420,
      "tagon": 4421,
      "rival": 4422,
      "leag": 4423,
      ": F": 4424,
      "him, and ": 4425,
      "seldom": 4426,
      ", which had ": 4427,
      " them to ": 4428,
      "whom ": 4429,
      "ity is ": 4430,
      "umber": 4431,
      "; and though ": 4432,
      "say, ": 4433,
      " all his ": 4434,
      "reason and ": 4435,
      "must have ": 4436,
      "dest ": 4437,
      "fab": 4438,
      "guid": 4439,
      "distance ": 4440,
      "incur": 4441,
      "look ": 4442,
      "wards the ": 4443,
      "parts of ": 4444,
      "religion ": 4445,
      " appearance ": 4446,
      "recover": 4447,
      "compli": 4448,
      "difficult to ": 4449,
      "willing": 4450,
      "determine ": 4451,
      "invol": 4452,
      "country, ": 4453,
      ", together ": 4454,
      "states": 4455,
      "rule ": 4456,
      "question ": 4457,
      "memb": 4458,
      "book": 4459,
      "house ": 4460,
      ": That the ": 4461,
      "limited ": 4462,
      "surely ": 4463,
      "intention": 4464,
      "revenu": 4465,
      "conquer": 4466,
      "ATHENS": 4467,
      "material ": 4468,
      "did not ": 4469,
      "besides": 4470,
      "declared": 4471,
      "FRAN": 4472,
      "monarchi": 4473,
      "foregoing ": 4474,
      "vassal": 4475,
      "melan": 4476,
      "assad": 4477,
      "War": 4478,
      "cat": 4479,
      "cold": 4480,
      "e; and ": 4481,
      "eleg": 4482,
      "gall": 4483,
      "he, ": 4484,
      "hard": 4485,
      "heal": 4486,
      "name ": 4487,
      "pot": 4488,
      "sect": 4489,
      "wom": 4490,
      "yi": 4491,
      " tell": 4492,
      " able ": 4493,
      "indifferent": 4494,
      "s no ": 4495,
      ", not ": 4496,
      ", however ": 4497,
      " anx": 4498,
      " an ac": 4499,
      "y in the ": 4500,
      "y was ": 4501,
      "antr": 4502,
      "thir": 4503,
      "ality": 4504,
      "ed; ": 4505,
      "ed; and ": 4506,
      "ed an ": 4507,
      "ed of the ": 4508,
      "ed into": 4509,
      "irst": 4510,
      "seen ": 4511,
      "ations of ": 4512,
      "of the other": 4513,
      "been the ": 4514,
      "cial": 4515,
      ". This": 4516,
      "with that ": 4517,
      "s, of ": 4518,
      ", as a ": 4519,
      ", all the ": 4520,
      ", whom": 4521,
      "mortal": 4522,
      "vice and ": 4523,
      ": N": 4524,
      "by this ": 4525,
      "by any ": 4526,
      "show": 4527,
      ". According": 4528,
      " alone": 4529,
      " these two ": 4530,
      "form of ": 4531,
      "modest": 4532,
      "to that ": 4533,
      "reason to ": 4534,
      "erefore ": 4535,
      "ants": 4536,
      "? H": 4537,
      "principle of ": 4538,
      ". Though": 4539,
      " at first ": 4540,
      "get ": 4541,
      "entitl": 4542,
      "king was ": 4543,
      "controul": 4544,
      "love, ": 4545,
      "required ": 4546,
      "explic": 4547,
      "is the same ": 4548,
      "laws ": 4549,
      "underst": 4550,
      "UST": 4551,
      "national ": 4552,
      " their w": 4553,
      "compens": 4554,
      "common life": 4555,
      "rendered ": 4556,
      "state, ": 4557,
      ", who are ": 4558,
      "measure ": 4559,
      "impossible to ": 4560,
      ", as well as": 4561,
      "following ": 4562,
      ", when they ": 4563,
      "possession ": 4564,
      "slaves ": 4565,
      "like the ": 4566,
      "ALEX": 4567,
      "execution": 4568,
      ": They ": 4569,
      "civil war": 4570,
      "important ": 4571,
      "offices": 4572,
      ". If the ": 4573,
      "extraordinary": 4574,
      "definition": 4575,
      "pernicious ": 4576,
      " totally ": 4577,
      "beyond the ": 4578,
      "origin of ": 4579,
      "point ": 4580,
      "follow ": 4581,
      "daughter ": 4582,
      "opportunity of ": 4583,
      "negoci": 4584,
      "ITALY": 4585,
      " apprehension": 4586,
      "York": 4587,
      "ALEXAND": 4588,
      "ACE": 4589,
      "MAN": 4590,
      "VI": 4591,
      "cli": 4592,
      "cardin": 4593,
      "ey, ": 4594,
      "pal": 4595,
      "ry ": 4596,
      "rob": 4597,
      "sal": 4598,
      "y-": 4599,
      "y this ": 4600,
      " turn ": 4601,
      " a t": 4602,
      "ink": 4603,
      "ine, ": 4604,
      "institu": 4605,
      ", on ": 4606,
      ", even": 4607,
      "repos": 4608,
      "any": 4609,
      "this ": 4610,
      "thought ": 4611,
      "esid": 4612,
      " and his ": 4613,
      "already ": 4614,
      "ed, and": 4615,
      "ed, in ": 4616,
      "econom": 4617,
      "is of ": 4618,
      "embar": 4619,
      "stop": 4620,
      "in general": 4621,
      "ing him": 4622,
      "exact ": 4623,
      "expell": 4624,
      "depriv": 4625,
      "mach": 4626,
      "plead": 4627,
      "it may be ": 4628,
      "impati": 4629,
      "discipl": 4630,
      ", again": 4631,
      "ity. The ": 4632,
      ", why ": 4633,
      "s of human ": 4634,
      "vices": 4635,
      "so great": 4636,
      "ishment": 4637,
      "care": 4638,
      "cable ": 4639,
      "est and most ": 4640,
      "ages": 4641,
      ". An ": 4642,
      "tion or ": 4643,
      "; and they ": 4644,
      "others ": 4645,
      "more": 4646,
      "motion ": 4647,
      "model": 4648,
      "es, or ": 4649,
      "nature of ": 4650,
      ". Be": 4651,
      " adher": 4652,
      "ical ": 4653,
      ", as it ": 4654,
      "s of the mind": 4655,
      "content ": 4656,
      ". Henr": 4657,
      "bring": 4658,
      "word ": 4659,
      "human mind": 4660,
      "declar": 4661,
      "charm": 4662,
      ", they were ": 4663,
      "employ ": 4664,
      "England, ": 4665,
      "ES, ": 4666,
      "sufficient": 4667,
      "determined to ": 4668,
      ", than to ": 4669,
      "beauti": 4670,
      "harmon": 4671,
      "heir": 4672,
      "emperor": 4673,
      "where the ": 4674,
      ". In this ": 4675,
      "populous": 4676,
      "resolv": 4677,
      "importance": 4678,
      "singul": 4679,
      "betwixt the ": 4680,
      "frequent ": 4681,
      "suspect": 4682,
      "authority ": 4683,
      "Henry's ": 4684,
      "Charles ": 4685,
      "spring": 4686,
      "nothing": 4687,
      "necessarily ": 4688,
      " appeared ": 4689,
      "destructive ": 4690,
      "exclud": 4691,
      "related to ": 4692,
      "DEM": 4693,
      "murder": 4694,
      "Richard": 4695,
      "magnific": 4696,
      "Ireland": 4697,
      "Div": 4698,
      "DON": 4699,
      "Lew": 4700,
      "OC": 4701,
      "UC": 4702,
      "Were ": 4703,
      "ace ": 4704,
      "e-": 4705,
      "ear ": 4706,
      "fund": 4707,
      "hes": 4708,
      "hel": 4709,
      "ition of the ": 4710,
      "spre": 4711,
      "scr": 4712,
      "s, are ": 4713,
      "vis": 4714,
      "e to the ": 4715,
      " touch": 4716,
      " are, ": 4717,
      "s had ": 4718,
      "s us ": 4719,
      "ensu": 4720,
      "eness": 4721,
      "enum": 4722,
      ", I": 4723,
      "or any ": 4724,
      "is always ": 4725,
      "ated the ": 4726,
      ". R": 4727,
      "cher": 4728,
      "ite": 4729,
      "ed all the ": 4730,
      " to mention": 4731,
      "pris": 4732,
      "is very ": 4733,
      "consul": 4734,
      ", then": 4735,
      ", and were ": 4736,
      "exces": 4737,
      "making ": 4738,
      " theory": 4739,
      "fron": 4740,
      "fram": 4741,
      " artic": 4742,
      "disadvantag": 4743,
      ", whatever ": 4744,
      "vill": 4745,
      ", the same ": 4746,
      ", the most ": 4747,
      ", that no ": 4748,
      "money, ": 4749,
      " accus": 4750,
      "gion": 4751,
      "easy to ": 4752,
      "from it": 4753,
      ". All": 4754,
      "prince, ": 4755,
      "saw": 4756,
      " appli": 4757,
      "submitt": 4758,
      "I can ": 4759,
      ", with a ": 4760,
      " administr": 4761,
      " age": 4762,
      "finish": 4763,
      " at least ": 4764,
      " to be the ": 4765,
      "seem to ": 4766,
      "Thom": 4767,
      "powerful": 4768,
      "instance ": 4769,
      "refu": 4770,
      "chard ": 4771,
      "engage ": 4772,
      ". Nor ": 4773,
      "effort": 4774,
      "justice, ": 4775,
      "operate ": 4776,
      " arms": 4777,
      "society ": 4778,
      "critic": 4779,
      "possessed of ": 4780,
      "qualities, ": 4781,
      "defence": 4782,
      " animal ": 4783,
      ". In like manner": 4784,
      " takes ": 4785,
      "since the ": 4786,
      "monarchy": 4787,
      ", till ": 4788,
      "North": 4789,
      ", at the same ": 4790,
      "method": 4791,
      "composition": 4792,
      "praise ": 4793,
      "source ": 4794,
      "gentlem": 4795,
      "pretence ": 4796,
      "secretly ": 4797,
      "numerous": 4798,
      "peculiar": 4799,
      "John": 4800,
      "GREEK ": 4801,
      "When ": 4802,
      "pronounce ": 4803,
      "wenty ": 4804,
      "controversy": 4805,
      " title ": 4806,
      " attack": 4807,
      ", indeed, ": 4808,
      "]} ": 4809,
      "tagonist": 4810,
      "FRANCE": 4811,
      "; we ": 4812,
      "E ": 4813,
      "Eur": 4814,
      "IP": 4815,
      "bility of ": 4816,
      "eigh": 4817,
      "ld": 4818,
      "o, ": 4819,
      "ot ": 4820,
      "ras": 4821,
      "rust": 4822,
      "s, as ": 4823,
      "s; but ": 4824,
      "war ": 4825,
      "in these ": 4826,
      ", have ": 4827,
      ", either ": 4828,
      "rep": 4829,
      "reser": 4830,
      "reput": 4831,
      "restor": 4832,
      " ances": 4833,
      "es. The ": 4834,
      "is to be ": 4835,
      "it appear": 4836,
      "ed into the ": 4837,
      "llor": 4838,
      "hab": 4839,
      "conject": 4840,
      "notion of ": 4841,
      "ations of the ": 4842,
      "devo": 4843,
      "use of ": 4844,
      "frug": 4845,
      "prepa": 4846,
      "rig": 4847,
      "ity, which ": 4848,
      "; he ": 4849,
      "; or ": 4850,
      " act": 4851,
      "lad": 4852,
      "with regard to the ": 4853,
      ". At ": 4854,
      "tot": 4855,
      " adjust": 4856,
      " abs": 4857,
      " about": 4858,
      "ed, by ": 4859,
      "order to": 4860,
      "fact ": 4861,
      "pay ": 4862,
      ". Their ": 4863,
      "final ": 4864,
      ". Hence ": 4865,
      ". How ": 4866,
      "surrec": 4867,
      "causes, ": 4868,
      "venge": 4869,
      "kinds of ": 4870,
      "can we ": 4871,
      "decision": 4872,
      "virtue, ": 4873,
      "concern ": 4874,
      ". So ": 4875,
      "justice and ": 4876,
      "proved ": 4877,
      "conclusion ": 4878,
      ". He was ": 4879,
      "reasonings ": 4880,
      "kingdom ": 4881,
      "might have ": 4882,
      "evidence ": 4883,
      "spirit ": 4884,
      "spirit of ": 4885,
      "established": 4886,
      "degree ": 4887,
      "ARCH": 4888,
      "simplic": 4889,
      "natural and ": 4890,
      "impossible": 4891,
      "lead ": 4892,
      ", without the ": 4893,
      "particularly ": 4894,
      "distinction ": 4895,
      "ness of the ": 4896,
      "road": 4897,
      "constanc": 4898,
      "civiliz": 4899,
      "sensible of the ": 4900,
      "tempt": 4901,
      "prosper": 4902,
      "bestow ": 4903,
      "enquiry": 4904,
      "nihil": 4905,
      "surely": 4906,
      "complet": 4907,
      ". When the ": 4908,
      "full of ": 4909,
      "urbul": 4910,
      "bodies": 4911,
      "expedient": 4912,
      "Richard ": 4913,
      "because the ": 4914,
      "Deity": 4915,
      "makes us ": 4916,
      "disguis": 4917,
      ", appe": 4918,
      "perpetual ": 4919,
      "infinitely ": 4920,
      "queen of ": 4921,
      "matter of fact": 4922,
      "direct ": 4923,
      "quanti": 4924,
      "no longer ": 4925,
      "endeavoured to ": 4926,
      "quick": 4927,
      "enthusias": 4928,
      "spee": 4929,
      "climat": 4930,
      "' ": 4931,
      "; this ": 4932,
      "IV": 4933,
      "bri": 4934,
      "bold": 4935,
      "eat": 4936,
      "ject ": 4937,
      "knew": 4938,
      "low ": 4939,
      "me, ": 4940,
      "s, where ": 4941,
      "scur": 4942,
      "ution of the ": 4943,
      "visible ": 4944,
      "y to the ": 4945,
      "insepar": 4946,
      "ers of ": 4947,
      "enlarg": 4948,
      ", during the ": 4949,
      "of that": 4950,
      "these ": 4951,
      "is as ": 4952,
      "ing.": 4953,
      "it the ": 4954,
      "ed at": 4955,
      "ed against ": 4956,
      "ed for the ": 4957,
      "consum": 4958,
      "superf": 4959,
      "lives": 4960,
      "light ": 4961,
      "sides": 4962,
      "blind": 4963,
      "ation. The ": 4964,
      "det": 4965,
      "plent": 4966,
      "it not ": 4967,
      "it may ": 4968,
      "imperfect": 4969,
      "right of ": 4970,
      ", and their ": 4971,
      "duke ": 4972,
      "indol": 4973,
      "law ": 4974,
      "each": 4975,
      "from its ": 4976,
      "umph": 4977,
      " apt to ": 4978,
      " applic": 4979,
      "able and ": 4980,
      "rang": 4981,
      "meta": 4982,
      "subli": 4983,
      "fair": 4984,
      "it is not ": 4985,
      "generous ": 4986,
      "generally ": 4987,
      "object, ": 4988,
      "paid": 4989,
      "s of these ": 4990,
      "never be ": 4991,
      "quality ": 4992,
      "foundation of ": 4993,
      "founded on the ": 4994,
      "require ": 4995,
      " whom": 4996,
      " there is no ": 4997,
      "either of ": 4998,
      " amoun": 4999,
      ", though the ": 5000,
      "experienc": 5001,
      "you have ": 5002,
      "absol": 5003,
      "above ": 5004,
      ". But this ": 5005,
      ". But as ": 5006,
      "peace and ": 5007,
      "ESAR": 5008,
      "consequently ": 5009,
      "corn": 5010,
      "men of ": 5011,
      "France, ": 5012,
      " acquired ": 5013,
      "feel ": 5014,
      "ground ": 5015,
      "promise ": 5016,
      "representati": 5017,
      "rules of ": 5018,
      "esteem ": 5019,
      "plainly ": 5020,
      "reflect": 5021,
      "crown of ": 5022,
      "human affair": 5023,
      "hope ": 5024,
      ", at least": 5025,
      "succession of ": 5026,
      "〉〉{": 5027,
      ". Even": 5028,
      "easily": 5029,
      "profess": 5030,
      "industry, ": 5031,
      ", till": 5032,
      "reality": 5033,
      "way of ": 5034,
      "proach ": 5035,
      ", according to ": 5036,
      "ed him to ": 5037,
      "pleasure or ": 5038,
      "Norf": 5039,
      "agreeable ": 5040,
      " ambassad": 5041,
      "seek": 5042,
      ". One ": 5043,
      "balance ": 5044,
      "readily": 5045,
      "business": 5046,
      "{VI": 5047,
      "exactly ": 5048,
      "met with ": 5049,
      "faculties": 5050,
      "GREEKS": 5051,
      "uneasiness": 5052,
      "doctrin": 5053,
      " talent": 5054,
      "point of ": 5055,
      "possibly be ": 5056,
      "CAESAR": 5057,
      "furnish": 5058,
      " attachment": 5059,
      "demonstr": 5060,
      "complaint": 5061,
      "ICERO": 5062,
      "fellow-": 5063,
      "cause and effect": 5064,
      "schem": 5065,
      "husband": 5066,
      "propriet": 5067,
      "suggest": 5068,
      "Britann": 5069,
      "fabric": 5070,
      "yield": 5071,
      "Europ": 5072,
      "superflu": 5073,
      "AC": 5074,
      "Can": 5075,
      "Ge": 5076,
      "Mor": 5077,
      "Mary": 5078,
      "YB": 5079,
      "breas": 5080,
      "city": 5081,
      "fitt": 5082,
      "hand ": 5083,
      "mill": 5084,
      "rou": 5085,
      "s,": 5086,
      "sk": 5087,
      "swe": 5088,
      "s, that the ": 5089,
      "s, they ": 5090,
      "vow": 5091,
      "vance": 5092,
      "in all the ": 5093,
      "in their": 5094,
      "instruct": 5095,
      "s is ": 5096,
      ", no ": 5097,
      ", perhaps, ": 5098,
      "or to ": 5099,
      "til": 5100,
      "artifi": 5101,
      "is to ": 5102,
      "iter": 5103,
      "ed it": 5104,
      "ed or ": 5105,
      "ed some ": 5106,
      "is in ": 5107,
      ", then, ": 5108,
      " to these ": 5109,
      " town": 5110,
      "ing from the ": 5111,
      "oward": 5112,
      " arch": 5113,
      "prelat": 5114,
      "quite ": 5115,
      "ultimate ": 5116,
      ". To": 5117,
      "ent of the ": 5118,
      "s, but ": 5119,
      "discontent": 5120,
      "parties": 5121,
      "prove": 5122,
      ": A ": 5123,
      "e, he ": 5124,
      " accur": 5125,
      "ure, ": 5126,
      "y, or ": 5127,
      "prince of ": 5128,
      "eldest ": 5129,
      " appoint": 5130,
      "fill": 5131,
      "five ": 5132,
      "for ever ": 5133,
      "admitt": 5134,
      "can only ": 5135,
      ", with which ": 5136,
      "on the other hand": 5137,
      "supply ": 5138,
      "has been": 5139,
      "considered as ": 5140,
      "such an": 5141,
      "paid ": 5142,
      "s of any ": 5143,
      "brother ": 5144,
      "cause of ": 5145,
      "in a great ": 5146,
      "apt": 5147,
      " what": 5148,
      "The": 5149,
      "underta": 5150,
      " times": 5151,
      "give the ": 5152,
      "ENCH": 5153,
      "sentiments ": 5154,
      "empire": 5155,
      "effects of ": 5156,
      "experience, ": 5157,
      "parts of the ": 5158,
      "return ": 5159,
      "manner, ": 5160,
      "discovery ": 5161,
      "influence of ": 5162,
      "clam": 5163,
      "relations of ": 5164,
      "she had ": 5165,
      "crip": 5166,
      "stronger ": 5167,
      "simpl": 5168,
      "beau": 5169,
      "nature of the ": 5170,
      "knowledge": 5171,
      "remove ": 5172,
      "various ": 5173,
      "reflect ": 5174,
      "higher ": 5175,
      "humanity": 5176,
      "possession of ": 5177,
      "love of ": 5178,
      "politi": 5179,
      "000 ": 5180,
      "perceptions": 5181,
      ". Let ": 5182,
      "dispute ": 5183,
      ". There are ": 5184,
      "seek ": 5185,
      ". When we ": 5186,
      "drawn ": 5187,
      "phenomenon": 5188,
      "exceed": 5189,
      ": But the ": 5190,
      " answer ": 5191,
      "IUS ": 5192,
      "impossible for ": 5193,
      "〉〉} ": 5194,
      "motives": 5195,
      "vigour": 5196,
      "FRENCH": 5197,
      "Suff": 5198,
      "resistance": 5199,
      " alliance ": 5200,
      "probability": 5201,
      "innoc": 5202,
      "without any ": 5203,
      "benefi": 5204,
      "intelligible ": 5205,
      "principal ": 5206,
      "kept ": 5207,
      "ecclesiastical ": 5208,
      "garrison": 5209,
      "stitut": 5210,
      "'S": 5211,
      "CICERO": 5212,
      "PT": 5213,
      "Po": 5214,
      "Par": 5215,
      "Sh": 5216,
      "VEN": 5217,
      "YS": 5218,
      "air ": 5219,
      "flatter": 5220,
      "lose ": 5221,
      "pure ": 5222,
      "scho": 5223,
      "ves of ": 5224,
      " treas": 5225,
      "enough": 5226,
      "reward": 5227,
      "reduce ": 5228,
      " analog": 5229,
      "ism ": 5230,
      "ed against the ": 5231,
      "ed her ": 5232,
      " a more ": 5233,
      "have, ": 5234,
      "osity, ": 5235,
      "ent, and ": 5236,
      "ston": 5237,
      "star": 5238,
      "set of ": 5239,
      "deity": 5240,
      "digi": 5241,
      "actions": 5242,
      "acknowledg": 5243,
      "from any ": 5244,
      "from these ": 5245,
      "from all ": 5246,
      "compe": 5247,
      "olish": 5248,
      "; yet": 5249,
      ": O": 5250,
      "e, in ": 5251,
      ", and all the ": 5252,
      " them.": 5253,
      "; and it ": 5254,
      "carefu": 5255,
      " allow ": 5256,
      "no more ": 5257,
      "no other ": 5258,
      "um ": 5259,
      "; and these ": 5260,
      "; and that the ": 5261,
      "otherwise ": 5262,
      "king and ": 5263,
      "not to be ": 5264,
      "subordin": 5265,
      "I must ": 5266,
      "counsel": 5267,
      "earn": 5268,
      " age ": 5269,
      "interval": 5270,
      ", in every ": 5271,
      "AN ": 5272,
      "period ": 5273,
      "cases": 5274,
      "paint": 5275,
      " at present ": 5276,
      "survey": 5277,
      "contrary, ": 5278,
      "ties and ": 5279,
      "quality": 5280,
      "priori": 5281,
      " there are ": 5282,
      "possible, ": 5283,
      "laws": 5284,
      "both of ": 5285,
      "both these ": 5286,
      "refer": 5287,
      "virtuous": 5288,
      "virtuous ": 5289,
      " times, ": 5290,
      "imagine ": 5291,
      "happiness ": 5292,
      "party, ": 5293,
      "circul": 5294,
      "had the ": 5295,
      "finding ": 5296,
      "discre": 5297,
      "extinguish": 5298,
      "ES ": 5299,
      "sensibl": 5300,
      "continue ": 5301,
      "invit": 5302,
      "cause of the ": 5303,
      "statut": 5304,
      "fortune": 5305,
      "heaven": 5306,
      "division": 5307,
      "day ": 5308,
      "defect": 5309,
      " attended with ": 5310,
      "produce the ": 5311,
      "good and ": 5312,
      "benef": 5313,
      "can be more ": 5314,
      "lost ": 5315,
      "universally ": 5316,
      "precis": 5317,
      "number ": 5318,
      "tity of ": 5319,
      "scarce ": 5320,
      "entertainment": 5321,
      "bury": 5322,
      "prospec": 5323,
      "operations of ": 5324,
      ", was the ": 5325,
      "intelligent ": 5326,
      "subject of ": 5327,
      "James": 5328,
      "suitable ": 5329,
      "directly ": 5330,
      ", we may observe": 5331,
      "expedient ": 5332,
      "conception": 5333,
      "conception ": 5334,
      "philosophy ": 5335,
      "debt": 5336,
      "pronounc": 5337,
      ", whom he ": 5338,
      "delicate ": 5339,
      "physical ": 5340,
      "favour ": 5341,
      "daughter": 5342,
      "meet with ": 5343,
      "suspicion": 5344,
      "improvement": 5345,
      "understanding ": 5346,
      ". Up": 5347,
      "pardon": 5348,
      " threaten": 5349,
      "Thomas ": 5350,
      "school": 5351,
      "; which": 5352,
      "AE": 5353,
      "JU": 5354,
      "Mar": 5355,
      "OT": 5356,
      "Ox": 5357,
      "PER": 5358,
      "Qu": 5359,
      "Sec": 5360,
      "bas": 5361,
      "bran": 5362,
      "bility ": 5363,
      "cover": 5364,
      "dar": 5365,
      "ge, ": 5366,
      "ip": 5367,
      "iti": 5368,
      "ken": 5369,
      "s, were ": 5370,
      "sister": 5371,
      "ual ": 5372,
      "usel": 5373,
      "wid": 5374,
      "women": 5375,
      "want of ": 5376,
      "year ": 5377,
      " thence ": 5378,
      "inher": 5379,
      ", if": 5380,
      ", even ": 5381,
      ", having ": 5382,
      ", said ": 5383,
      "of this": 5384,
      "of any": 5385,
      "of two ": 5386,
      " antagonist": 5387,
      "th of ": 5388,
      "oured ": 5389,
      "es to the ": 5390,
      "ated with ": 5391,
      "cham": 5392,
      "it a ": 5393,
      " to make ": 5394,
      "ed for": 5395,
      "assist": 5396,
      ", will": 5397,
      "concession": 5398,
      "entrust": 5399,
      "ster": 5400,
      "stra": 5401,
      ", these ": 5402,
      "forfe": 5403,
      "search": 5404,
      ", and have ": 5405,
      "blood ": 5406,
      "being the ": 5407,
      "unknown ": 5408,
      "unavoid": 5409,
      "obscur": 5410,
      "commen": 5411,
      "ologi": 5412,
      "discourse": 5413,
      ", at the ": 5414,
      "prodigi": 5415,
      "in the kingdom": 5416,
      "vil": 5417,
      "vice": 5418,
      "not so ": 5419,
      "andon": 5420,
      ", that I ": 5421,
      "capri": 5422,
      "month": 5423,
      " act ": 5424,
      "rap": 5425,
      "raise ": 5426,
      " as he ": 5427,
      "neg": 5428,
      "may not be ": 5429,
      "ed to him": 5430,
      "ety": 5431,
      "which it ": 5432,
      " apprehend": 5433,
      "together": 5434,
      " all our ": 5435,
      "fee": 5436,
      "inflam": 5437,
      "every other ": 5438,
      "glo": 5439,
      "glor": 5440,
      "despa": 5441,
      "father ": 5442,
      " ages, ": 5443,
      "vell": 5444,
      "hero": 5445,
      "would not ": 5446,
      "ill-": 5447,
      "work ": 5448,
      "ment of the ": 5449,
      " there be ": 5450,
      ". She ": 5451,
      ". Sir ": 5452,
      " amus": 5453,
      "observation ": 5454,
      "y thing that ": 5455,
      "means, ": 5456,
      " than a ": 5457,
      " among them": 5458,
      "ties of the ": 5459,
      ". A man": 5460,
      "senses, ": 5461,
      "degrees of ": 5462,
      "continual ": 5463,
      "continually ": 5464,
      "violence ": 5465,
      "makes": 5466,
      "make them ": 5467,
      "good or ": 5468,
      " transport": 5469,
      "proceed ": 5470,
      "does": 5471,
      "impressions and ": 5472,
      "mankind, ": 5473,
      "learn from ": 5474,
      ". We may ": 5475,
      " thrown ": 5476,
      "influence on ": 5477,
      "reflection ": 5478,
      "grav": 5479,
      "mities": 5480,
      "produce a ": 5481,
      "perhaps": 5482,
      "calam": 5483,
      "moderate ": 5484,
      "maintain ": 5485,
      "which we have ": 5486,
      " taken": 5487,
      "measure, ": 5488,
      " thereby ": 5489,
      "besides ": 5490,
      "son, ": 5491,
      "flow": 5492,
      "indeed, ": 5493,
      "compani": 5494,
      "ROMANS": 5495,
      "free government": 5496,
      "communication": 5497,
      "penetr": 5498,
      "conduct of ": 5499,
      "a(1757": 5500,
      "wholly ": 5501,
      "battle": 5502,
      "enter into ": 5503,
      "exercise ": 5504,
      "met with": 5505,
      " total ": 5506,
      "Being": 5507,
      "against ": 5508,
      "right lin": 5509,
      ", we shall find": 5510,
      " appeared": 5511,
      "force and vivac": 5512,
      "family of ": 5513,
      "notwithstanding the ": 5514,
      "sacrifi": 5515,
      "UTARCH": 5516,
      " arbitrary ": 5517,
      "viz.": 5518,
      "e themselves ": 5519,
      "legislat": 5520,
      "umberland": 5521,
      "enumer": 5522,
      "Norfolk": 5523,
      "{VIa(1757": 5524,
      "undertaking": 5525,
      " ]": 5526,
      ".\" ": 5527,
      ": and": 5528,
      "LE": 5529,
      "LON": 5530,
      "dog": 5531,
      "eight": 5532,
      "hold ": 5533,
      "ians": 5534,
      "pens": 5535,
      "sanc": 5536,
      "ture": 5537,
      "tast": 5538,
      "utions": 5539,
      "ught ": 5540,
      "wish": 5541,
      "e his ": 5542,
      " tell ": 5543,
      "s for": 5544,
      "s more ": 5545,
      "tili": 5546,
      "title of ": 5547,
      "ardi": 5548,
      "hibit": 5549,
      "isition": 5550,
      "attain": 5551,
      "ated, ": 5552,
      "ingen": 5553,
      "altogether ": 5554,
      "alogu": 5555,
      ". \"": 5556,
      ". . ": 5557,
      "chain ": 5558,
      "it; and ": 5559,
      " to him": 5560,
      ", through": 5561,
      "sie": 5562,
      "in his": 5563,
      ", and other ": 5564,
      "novel": 5565,
      " to an ": 5566,
      "exal": 5567,
      "friv": 5568,
      " arrang": 5569,
      "diver": 5570,
      "impi": 5571,
      " that he ": 5572,
      "discer": 5573,
      ": S": 5574,
      "tract": 5575,
      "why ": 5576,
      ". The king ": 5577,
      ". The earl of ": 5578,
      "mond": 5579,
      " accommod": 5580,
      "had not ": 5581,
      "had no ": 5582,
      " all those ": 5583,
      "we shall ": 5584,
      "from each other": 5585,
      "age of ": 5586,
      "up the ": 5587,
      "otherwis": 5588,
      "say ": 5589,
      "note": 5590,
      "took ": 5591,
      "counten": 5592,
      "its own ": 5593,
      "stipul": 5594,
      " that they ": 5595,
      " advance ": 5596,
      "strength": 5597,
      ", to which ": 5598,
      "fair ": 5599,
      "hus ": 5600,
      "? Or": 5601,
      " those of the ": 5602,
      "courage ": 5603,
      "has ever ": 5604,
      "uthor ": 5605,
      " without": 5606,
      "you will ": 5607,
      "ty and ": 5608,
      "passion, ": 5609,
      "vanity": 5610,
      "causes and ": 5611,
      " there is a ": 5612,
      "ey are ": 5613,
      "instinct": 5614,
      "useful ": 5615,
      "refut": 5616,
      "persons": 5617,
      "what we ": 5618,
      ", he was ": 5619,
      "observe, ": 5620,
      "parts": 5621,
      "purchas": 5622,
      ". From": 5623,
      ", where he ": 5624,
      "hasten": 5625,
      "spiritu": 5626,
      "danger ": 5627,
      "sentence ": 5628,
      "only a ": 5629,
      "value ": 5630,
      "ready": 5631,
      "violent": 5632,
      "being a ": 5633,
      "body, ": 5634,
      " acquir": 5635,
      "But the ": 5636,
      "ER ": 5637,
      "examine ": 5638,
      "favourable to ": 5639,
      " always be ": 5640,
      "view of ": 5641,
      "ideas, ": 5642,
      ". We are ": 5643,
      " thinking": 5644,
      "Sir John ": 5645,
      "passage ": 5646,
      "extreme ": 5647,
      "voli": 5648,
      "morality": 5649,
      "idea of the ": 5650,
      "beauty ": 5651,
      " admit ": 5652,
      " admit of ": 5653,
      "duke of B": 5654,
      "power of the ": 5655,
      "philosophers ": 5656,
      "doubt ": 5657,
      "nearer": 5658,
      "frequent": 5659,
      "indeed": 5660,
      ", attend": 5661,
      "ignorant": 5662,
      "extravag": 5663,
      "companion": 5664,
      ". Con": 5665,
      "intelligence ": 5666,
      "either to ": 5667,
      "confine ": 5668,
      "misery": 5669,
      "scarcely": 5670,
      "prejudices": 5671,
      " arises from ": 5672,
      "serve to ": 5673,
      "connected with ": 5674,
      "correspondence ": 5675,
      " ascrib": 5676,
      "familiar": 5677,
      "struck": 5678,
      "against the ": 5679,
      "conversation": 5680,
      "mixture of ": 5681,
      "whether": 5682,
      "criminal": 5683,
      " antiqu": 5684,
      " toler": 5685,
      "obstin": 5686,
      "movement": 5687,
      ". Not to mention": 5688,
      "Divine ": 5689,
      "rouz": 5690,
      "frivol": 5691,
      "Br": 5692,
      "Gre": 5693,
      "Nav": 5694,
      "ft": 5695,
      "fan": 5696,
      "flu": 5697,
      "mother": 5698,
      "send": 5699,
      "while ": 5700,
      "e with ": 5701,
      " tan": 5702,
      " thy ": 5703,
      "instruc": 5704,
      "ers, and ": 5705,
      "s its ": 5706,
      "s for the ": 5707,
      ", by a ": 5708,
      ", says ": 5709,
      "re-": 5710,
      "rever": 5711,
      "reform": 5712,
      "reap": 5713,
      "resign": 5714,
      "ors, ": 5715,
      "orous ": 5716,
      "es and": 5717,
      "at a ": 5718,
      "alle": 5719,
      "ed her": 5720,
      "ed his": 5721,
      "assu": 5722,
      "convic": 5723,
      "stup": 5724,
      "stab": 5725,
      "forces ": 5726,
      "forget": 5727,
      "ing with ": 5728,
      "bell": 5729,
      "or less ": 5730,
      "unless ": 5731,
      "perver": 5732,
      "imprud": 5733,
      "accur": 5734,
      "ders": 5735,
      "comput": 5736,
      "e those ": 5737,
      "prove the ": 5738,
      ": W": 5739,
      "tru": 5740,
      "so un": 5741,
      ", the earl of ": 5742,
      "shel": 5743,
      "share ": 5744,
      ", that nothing ": 5745,
      " accompl": 5746,
      " activ": 5747,
      " as it ": 5748,
      " as we ": 5749,
      "idol": 5750,
      "passion of ": 5751,
      "solic": 5752,
      "feud": 5753,
      " at all": 5754,
      "tud": 5755,
      " that a ": 5756,
      "every one": 5757,
      "great and ": 5758,
      "? N": 5759,
      "castle": 5760,
      "distingu": 5761,
      ". Thus": 5762,
      ". Though ": 5763,
      "fine ": 5764,
      " at once ": 5765,
      "y of his ": 5766,
      "regarded as ": 5767,
      " there is ": 5768,
      "laws, ": 5769,
      "powers and ": 5770,
      "declin": 5771,
      "many other ": 5772,
      "refuse ": 5773,
      " which we ": 5774,
      "effects": 5775,
      "experience and ": 5776,
      "parts ": 5777,
      "absur": 5778,
      ", in all ": 5779,
      "liberty, ": 5780,
      "s in his ": 5781,
      "properly ": 5782,
      " themselves, ": 5783,
      "consequently": 5784,
      "company ": 5785,
      "relations": 5786,
      "satisfy ": 5787,
      "difficult ": 5788,
      "earls of ": 5789,
      "dependent ": 5790,
      "fortunate ": 5791,
      "years ": 5792,
      "remov": 5793,
      "daily ": 5794,
      "induc": 5795,
      "purpose ": 5796,
      "life and ": 5797,
      ", at least, ": 5798,
      "which we can ": 5799,
      " which they ": 5800,
      "deni": 5801,
      "derived ": 5802,
      "lost": 5803,
      "beauty and ": 5804,
      "precise ": 5805,
      "examination": 5806,
      "practice of ": 5807,
      "fallen ": 5808,
      "ement of ": 5809,
      "ignorant ": 5810,
      "convul": 5811,
      "preference ": 5812,
      "pride or ": 5813,
      " attend ": 5814,
      "In the ": 5815,
      "ATO": 5816,
      "risti": 5817,
      "ENGLISH": 5818,
      "numerous ": 5819,
      "busines": 5820,
      "circumstances ": 5821,
      "smallest ": 5822,
      "pernicious": 5823,
      "barbarous ": 5824,
      "essential": 5825,
      "confidence ": 5826,
      "instead ": 5827,
      "doubtful": 5828,
      "fancy ": 5829,
      " these, ": 5830,
      "SPAIN": 5831,
      " third ": 5832,
      "voluntary ": 5833,
      "quantity of ": 5834,
      "celebrated ": 5835,
      "satisfactory": 5836,
      "reconci": 5837,
      "e their": 5838,
      "resentment": 5839,
      "labour ": 5840,
      "broken ": 5841,
      ". Some ": 5842,
      "partizan": 5843,
      "leagu": 5844,
      "seldom ": 5845,
      "sublime ": 5846,
      "million": 5847,
      "Suffolk": 5848,
      "prospect of ": 5849,
      ",\" ": 5850,
      "; these ": 5851,
      "; they ": 5852,
      "; that the ": 5853,
      "As ": 5854,
      "All ": 5855,
      "ED": 5856,
      "Per": 5857,
      "Spain": 5858,
      "a, ": 5859,
      "bility": 5860,
      "cra": 5861,
      "clim": 5862,
      "dal": 5863,
      "hol": 5864,
      "jour": 5865,
      "les, ": 5866,
      "sedi": 5867,
      "top": 5868,
      "win": 5869,
      "in all": 5870,
      "ink ": 5871,
      "insurrec": 5872,
      "s our ": 5873,
      "s with the ": 5874,
      ", C": 5875,
      ", you ": 5876,
      ", she ": 5877,
      "off ": 5878,
      " annihil": 5879,
      "ories": 5880,
      "thought": 5881,
      "est of ": 5882,
      "army ": 5883,
      "ating the ": 5884,
      "atten": 5885,
      "ings": 5886,
      "ing an": 5887,
      "ala": 5888,
      "itable ": 5889,
      "ed a": 5890,
      "ed that": 5891,
      "ed, that he ": 5892,
      "ed in this ": 5893,
      "er or ": 5894,
      "lie": 5895,
      "living ": 5896,
      "in one ": 5897,
      "in itself": 5898,
      ", and by ": 5899,
      ", and render": 5900,
      ", and who ": 5901,
      "notion ": 5902,
      "ing in the ": 5903,
      " theolog": 5904,
      "perish": 5905,
      "ament": 5906,
      "imperfect ": 5907,
      "actu": 5908,
      "compassion": 5909,
      "s, is ": 5910,
      " that it ": 5911,
      "e there ": 5912,
      ", all": 5913,
      "in the universe": 5914,
      "by an ": 5915,
      "ly to the ": 5916,
      ", which is": 5917,
      ", which is the ": 5918,
      "where": 5919,
      "over to ": 5920,
      "ity in the ": 5921,
      "ously": 5922,
      "ousand": 5923,
      "y, by ": 5924,
      ". All the ": 5925,
      ". After ": 5926,
      "uphin": 5927,
      "element": 5928,
      "; and th": 5929,
      "; and, ": 5930,
      "; and to ": 5931,
      "other.": 5932,
      "to their ": 5933,
      "for some ": 5934,
      "infam": 5935,
      "reason wh": 5936,
      "reasonably ": 5937,
      "nature and ": 5938,
      "county ": 5939,
      "were the ": 5940,
      "tude ": 5941,
      ". Besid": 5942,
      "ance to ": 5943,
      " abo": 5944,
      "men's ": 5945,
      ", as is ": 5946,
      ", as far": 5947,
      ", in which": 5948,
      "selfish": 5949,
      "order of ": 5950,
      "? I": 5951,
      "has not ": 5952,
      "related ": 5953,
      "fact, ": 5954,
      " thought and ": 5955,
      "principle, ": 5956,
      ". How": 5957,
      " at last": 5958,
      "persec": 5959,
      "observe th": 5960,
      "pleasure and ": 5961,
      "surpris": 5962,
      "bring ": 5963,
      "broke ": 5964,
      "worship": 5965,
      "plausi": 5966,
      "into England": 5967,
      "human nature ": 5968,
      "will not ": 5969,
      "power, ": 5970,
      "both the ": 5971,
      "decay": 5972,
      "socie": 5973,
      "person who ": 5974,
      "nature, and ": 5975,
      "happy": 5976,
      "even in ": 5977,
      "manners": 5978,
      "interests of ": 5979,
      "recall": 5980,
      ", where they ": 5981,
      ", it must be ": 5982,
      "of this kind": 5983,
      "existence of ": 5984,
      "degree": 5985,
      "family, ": 5986,
      "Franc": 5987,
      " afterwards": 5988,
      "freed": 5989,
      ". Of": 5990,
      "encrease of ": 5991,
      " against him": 5992,
      "engagement": 5993,
      "possession of the ": 5994,
      ", at least ": 5995,
      "like": 5996,
      "resemblance": 5997,
      "profession": 5998,
      "much as ": 5999,
      "philosophers": 6000,
      "king of Scotland": 6001,
      "reality ": 6002,
      "; nor is it ": 6003,
      "except the ": 6004,
      "important": 6005,
      "fixed ": 6006,
      "delight": 6007,
      "affect": 6008,
      "when he ": 6009,
      "nearly ": 6010,
      "choly ": 6011,
      "appell": 6012,
      "honourable ": 6013,
      "off the ": 6014,
      "officer": 6015,
      "convince ": 6016,
      " arise from the ": 6017,
      "refined ": 6018,
      "certainty": 6019,
      "northern ": 6020,
      "of tast": 6021,
      "carry": 6022,
      "Charles": 6023,
      "because they ": 6024,
      "throne": 6025,
      "valuable ": 6026,
      "nobility ": 6027,
      "nobleman ": 6028,
      "refused to ": 6029,
      "house of common": 6030,
      ", after the ": 6031,
      "intended to ": 6032,
      "poly": 6033,
      "inconvenienci": 6034,
      "grief": 6035,
      "insisted on": 6036,
      "servant": 6037,
      " tendency to ": 6038,
      "royalist": 6039,
      ". On the other hand": 6040,
      "on account of the ": 6041,
      "Nature ": 6042,
      "BRITAIN": 6043,
      "reconcil": 6044,
      " assurance ": 6045,
      " at the same time ": 6046,
      "distribut": 6047,
      "transi": 6048,
      "infallible ": 6049,
      "Lei": 6050,
      "OSTHEN": 6051,
      "Lancaster": 6052,
      "gold and silver": 6053,
      "hesit": 6054,
      "Oxford": 6055,
      "chamber": 6056,
      "forfeit": 6057,
      "16": 6058,
      "AU": 6059,
      "Beck": 6060,
      "GER": 6061,
      "I would ": 6062,
      "Pro": 6063,
      "Virtu": 6064,
      "cle": 6065,
      "den ": 6066,
      "k of ": 6067,
      "l ": 6068,
      "spl": 6069,
      "skill": 6070,
      "temper": 6071,
      "vin": 6072,
      " avow": 6073,
      "incapac": 6074,
      "on account ": 6075,
      "s so ": 6076,
      "enli": 6077,
      "offre": 6078,
      "redi": 6079,
      " anger": 6080,
      "analog": 6081,
      "esp": 6082,
      "are the ": 6083,
      "ature": 6084,
      "ates the ": 6085,
      "ing all the ": 6086,
      "also": 6087,
      "chos": 6088,
      "ed and": 6089,
      "ed at the ": 6090,
      "ed more ": 6091,
      "ed in their ": 6092,
      ", would": 6093,
      ", while the ": 6094,
      "emul": 6095,
      "stric": 6096,
      "sig": 6097,
      "sight": 6098,
      "in such ": 6099,
      "in her ": 6100,
      "in vain": 6101,
      "see the ": 6102,
      " to a": 6103,
      " to all the ": 6104,
      "exha": 6105,
      "our attention": 6106,
      "detain": 6107,
      "depart": 6108,
      "depart ": 6109,
      " and authority": 6110,
      "or of the ": 6111,
      " writ": 6112,
      " art and ": 6113,
      "unhappy ": 6114,
      "preci": 6115,
      "it must be ": 6116,
      "cip": 6117,
      "cities": 6118,
      "qua": 6119,
      "intric": 6120,
      "ulous ": 6121,
      "s, had ": 6122,
      "s, I ": 6123,
      "dispers": 6124,
      "rich ": 6125,
      ", where": 6126,
      "; so": 6127,
      "leis": 6128,
      ", that their ": 6129,
      "truth": 6130,
      "due ": 6131,
      ", that his ": 6132,
      "had been": 6133,
      "rag": 6134,
      "ravag": 6135,
      "we must ": 6136,
      "we find": 6137,
      "senate ": 6138,
      "from our ": 6139,
      ". After": 6140,
      "elect": 6141,
      "election": 6142,
      "ate a ": 6143,
      "past": 6144,
      "modi": 6145,
      "add": 6146,
      "admir": 6147,
      "counse": 6148,
      "minute ": 6149,
      " advers": 6150,
      "supply": 6151,
      "descend": 6152,
      ", who had been ": 6153,
      ", in his ": 6154,
      "ed, he ": 6155,
      "objects of ": 6156,
      "objects, and ": 6157,
      "poor": 6158,
      "poetr": 6159,
      "ately": 6160,
      "magn": 6161,
      "ed by it": 6162,
      ", we have ": 6163,
      "brought": 6164,
      "present to the ": 6165,
      "illu": 6166,
      "seeming": 6167,
      "ure of the ": 6168,
      "his authority": 6169,
      "much less ": 6170,
      "human creature": 6171,
      "could never ": 6172,
      ". It was ": 6173,
      "eye ": 6174,
      "necessity of ": 6175,
      ". But what ": 6176,
      "give rise ": 6177,
      "ENO": 6178,
      "entered ": 6179,
      "succour": 6180,
      "ed together": 6181,
      "nations": 6182,
      "pursuit": 6183,
      "epith": 6184,
      " than to ": 6185,
      ", are not ": 6186,
      "Scotland ": 6187,
      " army of ": 6188,
      "preval": 6189,
      "prevent ": 6190,
      "compound": 6191,
      "ARIS": 6192,
      "strong and ": 6193,
      "causes of ": 6194,
      "employment": 6195,
      "qualities of ": 6196,
      " transac": 6197,
      "disposition of the ": 6198,
      ", there are ": 6199,
      "life, and ": 6200,
      "history ": 6201,
      "constrain": 6202,
      "which we are ": 6203,
      "Sir Thomas ": 6204,
      "proportion ": 6205,
      " trade": 6206,
      "object of the ": 6207,
      ", with regard to the ": 6208,
      "heart ": 6209,
      "events": 6210,
      ", would be ": 6211,
      "pretended ": 6212,
      "usually ": 6213,
      "universally": 6214,
      "support the ": 6215,
      "really": 6216,
      "exert": 6217,
      "examine the ": 6218,
      "fix ": 6219,
      "instances of ": 6220,
      ". Many ": 6221,
      "jealous ": 6222,
      "colon": 6223,
      "choice ": 6224,
      "prosp": 6225,
      " those, who ": 6226,
      "services": 6227,
      "company": 6228,
      "genius ": 6229,
      ". For this ": 6230,
      "ought to be ": 6231,
      ". If we ": 6232,
      "philosophical": 6233,
      "ATHENIANS": 6234,
      "a(1759": 6235,
      "openly ": 6236,
      "weaken": 6237,
      "appearance of ": 6238,
      "reacher": 6239,
      "preceding ": 6240,
      "horror": 6241,
      "citizens": 6242,
      "reduced to ": 6243,
      " true, ": 6244,
      "venture ": 6245,
      "zealous ": 6246,
      " title": 6247,
      "fancy": 6248,
      "primary ": 6249,
      "comprehensi": 6250,
      "; while ": 6251,
      "compared": 6252,
      "benefic": 6253,
      "PLUTARCH": 6254,
      "utility": 6255,
      "clergy": 6256,
      "love and hatred": 6257,
      "restored": 6258,
      "Somer": 6259,
      "conscious": 6260,
      ". Whatever ": 6261,
      "conformable ": 6262,
      "Irish ": 6263,
      "eminent ": 6264,
      "utterly ": 6265,
      "rational ": 6266,
      "season": 6267,
      "majest": 6268,
      "melancholy ": 6269,
      "Warwic": 6270,
      "DEMOSTHEN": 6271,
      "Second": 6272,
      "idolat": 6273,
      "12": 6274,
      "Coun": 6275,
      "Fri": 6276,
      "Ger": 6277,
      "Man": 6278,
      "OV": 6279,
      "SIC": 6280,
      "Wor": 6281,
      "What": 6282,
      "ath": 6283,
      "bott": 6284,
      "ean": 6285,
      "gam": 6286,
      "got": 6287,
      "ities, ": 6288,
      "mess": 6289,
      "per ": 6290,
      "s a": 6291,
      "s them": 6292,
      "smo": 6293,
      "s. But ": 6294,
      "ssex": 6295,
      "tors": 6296,
      "testimon": 6297,
      "ux": 6298,
      "wall": 6299,
      "want ": 6300,
      "ze": 6301,
      "inqu": 6302,
      "insist ": 6303,
      "erect": 6304,
      "ones": 6305,
      "s may ": 6306,
      "s itself ": 6307,
      "another": 6308,
      "three ": 6309,
      "oured": 6310,
      "isdom": 6311,
      "island": 6312,
      "ated by the ": 6313,
      "ing them ": 6314,
      "cha": 6315,
      "tion and ": 6316,
      "tion, and ": 6317,
      "itary": 6318,
      " to each other": 6319,
      "ed every ": 6320,
      "ask": 6321,
      "eced": 6322,
      "irregular": 6323,
      "cel": 6324,
      " towards the ": 6325,
      "betr": 6326,
      "dev": 6327,
      "defer": 6328,
      "made": 6329,
      "mathem": 6330,
      "persever": 6331,
      "al of the ": 6332,
      "utin": 6333,
      "with their ": 6334,
      "displa": 6335,
      "discourag": 6336,
      "dispens": 6337,
      "table": 6338,
      ", aff": 6339,
      "; his ": 6340,
      "vicious ": 6341,
      "ence or ": 6342,
      " assum": 6343,
      "and a ": 6344,
      ", which may ": 6345,
      ". The duke of ": 6346,
      "; and being ": 6347,
      ", that every ": 6348,
      "indul": 6349,
      "gil": 6350,
      "from being ": 6351,
      ". As the ": 6352,
      "formed ": 6353,
      "formid": 6354,
      "ose who ": 6355,
      "e the same ": 6356,
      "soil": 6357,
      " an equal ": 6358,
      " all its ": 6359,
      "for us to ": 6360,
      "ation in the ": 6361,
      "infer ": 6362,
      "advanc": 6363,
      "count of ": 6364,
      "genu": 6365,
      " that time ": 6366,
      "desper": 6367,
      "desire": 6368,
      ", to which": 6369,
      " abund": 6370,
      " abili": 6371,
      "it is certain": 6372,
      "it is impossible ": 6373,
      "veh": 6374,
      "generation": 6375,
      "? A": 6376,
      "? Wh": 6377,
      "differences": 6378,
      "such a": 6379,
      ", we find": 6380,
      "ty-": 6381,
      "croa": 6382,
      " at least": 6383,
      "tions.": 6384,
      "vances": 6385,
      "effic": 6386,
      "seemed to ": 6387,
      "place, ": 6388,
      "much greater ": 6389,
      "loose ": 6390,
      " affection ": 6391,
      " whom ": 6392,
      " whatever ": 6393,
      "supposed": 6394,
      "ency": 6395,
      "give them": 6396,
      "enters ": 6397,
      ", by his ": 6398,
      "ed to their ": 6399,
      "ed to them": 6400,
      "sentiments, ": 6401,
      "make us ": 6402,
      "nation, ": 6403,
      "partly ": 6404,
      "probable ": 6405,
      "00,000 ": 6406,
      "had a ": 6407,
      "upon us": 6408,
      "upon him": 6409,
      ". But as": 6410,
      "excus": 6411,
      " army, ": 6412,
      "able, and ": 6413,
      "evidence": 6414,
      "evidently ": 6415,
      "sense and ": 6416,
      "sent to ": 6417,
      "ed without ": 6418,
      "strongest ": 6419,
      "hands": 6420,
      "valour": 6421,
      "employed in ": 6422,
      ". Or": 6423,
      "IANS ": 6424,
      "encrease ": 6425,
      "leave the ": 6426,
      ", as well as the ": 6427,
      " attendant": 6428,
      " animos": 6429,
      "hatred ": 6430,
      "people were ": 6431,
      ", at present": 6432,
      "humility ": 6433,
      "CHIN": 6434,
      "answ": 6435,
      " territ": 6436,
      " terror": 6437,
      "GREAT": 6438,
      "industry and ": 6439,
      "king of France": 6440,
      "pain and ": 6441,
      "ordinary ": 6442,
      "exception": 6443,
      " triumph": 6444,
      "dominion ": 6445,
      "ement of the ": 6446,
      "prisoners": 6447,
      "honour and ": 6448,
      "sympt": 6449,
      "chiefly": 6450,
      "mentioned": 6451,
      "easily be ": 6452,
      "cident ": 6453,
      "intention of ": 6454,
      "magistrates ": 6455,
      "respect, ": 6456,
      "intelligence": 6457,
      "revenge ": 6458,
      "communicate ": 6459,
      ", will be ": 6460,
      "duty": 6461,
      "enterprize": 6462,
      "sympathy ": 6463,
      "boundari": 6464,
      "who are ": 6465,
      ", by their ": 6466,
      "balance of ": 6467,
      "ed them to ": 6468,
      "progress of the ": 6469,
      "one of the most ": 6470,
      "multipli": 6471,
      "arts and ": 6472,
      "credit ": 6473,
      "horse": 6474,
      "polit": 6475,
      "polite ": 6476,
      "endowed with ": 6477,
      "half ": 6478,
      "s of this kind": 6479,
      "catholic ": 6480,
      "probability ": 6481,
      "reign of ": 6482,
      "seems to have ": 6483,
      " these": 6484,
      "PHIL": 6485,
      "compatible ": 6486,
      "contiguous": 6487,
      "six ": 6488,
      "deformity": 6489,
      "recourse to ": 6490,
      "sacrific": 6491,
      "BRITISH ": 6492,
      "felt ": 6493,
      ", among ": 6494,
      "deemed ": 6495,
      "obstac": 6496,
      "fleet": 6497,
      "build": 6498,
      "merchant": 6499,
      "holy ": 6500,
      "knight": 6501,
      "stock of ": 6502,
      "gallantr": 6503,
      "spread": 6504,
      "civilized ": 6505,
      "Geoffre": 6506,
      " tangi": 6507,
      "solicit": 6508,
      "clear ": 6509,
      " BRITAIN": 6510,
      "AB": 6511,
      "Cas": 6512,
      "Cala": 6513,
      "Dan": 6514,
      "Dev": 6515,
      "Flan": 6516,
      "Ia(1762": 6517,
      "PIT": 6518,
      "Ro": 6519,
      "So ": 6520,
      "To": 6521,
      "aw": 6522,
      "ach ": 6523,
      "atic": 6524,
      "bul": 6525,
      "burn": 6526,
      "camp": 6527,
      "done ": 6528,
      "eir": 6529,
      "fas": 6530,
      "gag": 6531,
      "here": 6532,
      "las": 6533,
      "ming": 6534,
      "non": 6535,
      "ning ": 6536,
      "row ": 6537,
      "sou": 6538,
      "s this ": 6539,
      "ub": 6540,
      "vast ": 6541,
      " thre": 6542,
      " thousand": 6543,
      "insp": 6544,
      "indifference ": 6545,
      "incapable of ": 6546,
      "er and more ": 6547,
      "s not": 6548,
      "ensive ": 6549,
      "encroa": 6550,
      ", yet": 6551,
      ", if we ": 6552,
      " the more ": 6553,
      " the king ": 6554,
      "of argument": 6555,
      "report": 6556,
      "region": 6557,
      "orat": 6558,
      "ory, ": 6559,
      "anti": 6560,
      "ou'd ": 6561,
      "es that ": 6562,
      "artic": 6563,
      "army": 6564,
      "of our ": 6565,
      "att": 6566,
      "als": 6567,
      "alty": 6568,
      "alway": 6569,
      "chance ": 6570,
      "ed: ": 6571,
      "ed only ": 6572,
      "as a ": 6573,
      "asser": 6574,
      "assin": 6575,
      "assign": 6576,
      " a little ": 6577,
      "consist ": 6578,
      "emer": 6579,
      "studi": 6580,
      "ceas": 6581,
      "in other ": 6582,
      "for which ": 6583,
      "he is ": 6584,
      "he has ": 6585,
      ", and may ": 6586,
      "ing in ": 6587,
      "delu": 6588,
      "oppres": 6589,
      "es his ": 6590,
      "es from ": 6591,
      "unanim": 6592,
      "precep": 6593,
      "plan ": 6594,
      "it was": 6595,
      "imput": 6596,
      "acy, ": 6597,
      "s, or": 6598,
      "s, in order to ": 6599,
      " that of the ": 6600,
      "dismis": 6601,
      "discourse ": 6602,
      "; so ": 6603,
      "in the present ": 6604,
      " are more ": 6605,
      "have not ": 6606,
      ", that they are ": 6607,
      "trust": 6608,
      "troop": 6609,
      ", and to": 6610,
      "very same ": 6611,
      ", the more ": 6612,
      "; and in ": 6613,
      "; and having ": 6614,
      "caution": 6615,
      " act of ": 6616,
      "had never ": 6617,
      "lative ": 6618,
      "form the ": 6619,
      "king to ": 6620,
      " apply": 6621,
      "to any ": 6622,
      "fire": 6623,
      "for instance": 6624,
      "ister ": 6625,
      "subsequ": 6626,
      "sublim": 6627,
      "administr": 6628,
      "some of the ": 6629,
      "resour": 6630,
      "early ": 6631,
      "suppl": 6632,
      "fault": 6633,
      "men and ": 6634,
      "interpos": 6635,
      ". With": 6636,
      "it is evident": 6637,
      "vege": 6638,
      "order and ": 6639,
      "cases, ": 6640,
      "castl": 6641,
      "you are ": 6642,
      "tyran": 6643,
      "passions of ": 6644,
      "passions and ": 6645,
      "passions, and ": 6646,
      "passions are ": 6647,
      "pleased to ": 6648,
      "s of all ": 6649,
      "incess": 6650,
      "hered": 6651,
      "ves the ": 6652,
      "seems to be ": 6653,
      "into their ": 6654,
      "secure ": 6655,
      "could not": 6656,
      "requir": 6657,
      "supposed to be ": 6658,
      "every thing": 6659,
      "union ": 6660,
      "laws and ": 6661,
      "instance of ": 6662,
      "instantly ": 6663,
      "mind, and ": 6664,
      "if it be ": 6665,
      "my opinion": 6666,
      "many of the ": 6667,
      "perfection ": 6668,
      "even though ": 6669,
      "subjects ": 6670,
      "00 ": 6671,
      "abstr": 6672,
      "standard ": 6673,
      "ength ": 6674,
      "himself, ": 6675,
      "ephen": 6676,
      "extent": 6677,
      "interest and ": 6678,
      " appearances": 6679,
      "upon his ": 6680,
      "famous ": 6681,
      "ed by this ": 6682,
      "provision": 6683,
      "nothing but a ": 6684,
      "operation of ": 6685,
      "operations": 6686,
      " with regard to ": 6687,
      "sum ": 6688,
      "she was ": 6689,
      "existence, ": 6690,
      "correc": 6691,
      "sincer": 6692,
      "demand ": 6693,
      " acquired": 6694,
      "Henry, ": 6695,
      "render them ": 6696,
      "pope": 6697,
      "favourit": 6698,
      "favourite ": 6699,
      "upon a ": 6700,
      "begg": 6701,
      "nature has ": 6702,
      "restra": 6703,
      ", took ": 6704,
      "divis": 6705,
      " agreea": 6706,
      "formerly": 6707,
      "fication": 6708,
      "itself, ": 6709,
      " also be ": 6710,
      "species ": 6711,
      "height": 6712,
      "success, ": 6713,
      "〉〉{Va(1754), ": 6714,
      ". In order to ": 6715,
      ". In short": 6716,
      "ourselves, ": 6717,
      "deny": 6718,
      "practis": 6719,
      "heard ": 6720,
      "equality ": 6721,
      "idea of a ": 6722,
      "; whe": 6723,
      "profound ": 6724,
      "beauty, ": 6725,
      "precari": 6726,
      "myself ": 6727,
      "power or ": 6728,
      "command of ": 6729,
      ": That": 6730,
      "requisit": 6731,
      " above the ": 6732,
      "ve them": 6733,
      "commerce and ": 6734,
      "security ": 6735,
      "born": 6736,
      "borrow": 6737,
      "authority of the ": 6738,
      "neighbourh": 6739,
      "however, ": 6740,
      "change": 6741,
      " would be ": 6742,
      "successor": 6743,
      "We may ": 6744,
      "magistrate ": 6745,
      "magistrates": 6746,
      "penser": 6747,
      "duty ": 6748,
      ". You": 6749,
      "contradict": 6750,
      "prejudice": 6751,
      "sympathy": 6752,
      "desire of ": 6753,
      "province": 6754,
      "language ": 6755,
      "gentr": 6756,
      "explained": 6757,
      "pretty ": 6758,
      "Deity ": 6759,
      "ENGLISH ": 6760,
      "Cleanthes, ": 6761,
      "definition ": 6762,
      "does not ": 6763,
      "strange ": 6764,
      "eloquence ": 6765,
      "Elizabeth ": 6766,
      "manufactur": 6767,
      "wenty-": 6768,
      "controvers": 6769,
      "innov": 6770,
      "contempt": 6771,
      "Roman ": 6772,
      "clear and ": 6773,
      "mount": 6774,
      "partial": 6775,
      "intelligible": 6776,
      "scepticism": 6777,
      "If we ": 6778,
      "retired ": 6779,
      "procured ": 6780,
      "pride and humility": 6781,
      "Nature": 6782,
      "ecclesiastic": 6783,
      "necessities of ": 6784,
      "scene ": 6785,
      "began to ": 6786,
      "positive ": 6787,
      "prerogative": 6788,
      ": Yet ": 6789,
      "short ": 6790,
      "willingly ": 6791,
      "third ": 6792,
      "Northumberland": 6793,
      " ancestors": 6794,
      "frugal": 6795,
      "totally ": 6796,
      ", appear": 6797,
      "inseparable ": 6798,
      "plenty of ": 6799,
      "innocent ": 6800,
      "convulsion": 6801,
      "Leicester": 6802,
      "Becket": 6803,
      "exhaust": 6804,
      "GREAT BRITAIN": 6805,
      "symptom": 6806,
      ", any ": 6807,
      ", aris": 6808,
      "0,000": 6809,
      "; that": 6810,
      "Ber": 6811,
      "Da": 6812,
      "DES": 6813,
      "EG": 6814,
      "First": 6815,
      "Ham": 6816,
      "How ": 6817,
      "Ital": 6818,
      "Li": 6819,
      "Now": 6820,
      "New": 6821,
      "Philosop": 6822,
      "Paris": 6823,
      "Rog": 6824,
      "RIA": 6825,
      "Ver": 6826,
      "[ ]": 6827,
      "ay ": 6828,
      "bi": 6829,
      "chim": 6830,
      "eter": 6831,
      "fy the ": 6832,
      "heir ": 6833,
      "ien": 6834,
      "lest ": 6835,
      "lately ": 6836,
      "mouth": 6837,
      "nin": 6838,
      "pag": 6839,
      "sl": 6840,
      "s any ": 6841,
      "s at ": 6842,
      "s them ": 6843,
      "s, a ": 6844,
      "s. He ": 6845,
      "t appear": 6846,
      "told": 6847,
      "toward": 6848,
      "ution, ": 6849,
      " aston": 6850,
      "incident": 6851,
      "s would ": 6852,
      "s may be ": 6853,
      ", may be ": 6854,
      ", upon the ": 6855,
      "of another": 6856,
      "rem": 6857,
      "rein": 6858,
      "refr": 6859,
      "repa": 6860,
      "reproach": 6861,
      "reviv": 6862,
      "research": 6863,
      "orbit": 6864,
      "tir": 6865,
      "tible": 6866,
      "an, ": 6867,
      "angu": 6868,
      "esu": 6869,
      " and C": 6870,
      "is also ": 6871,
      "is another ": 6872,
      "atom": 6873,
      "ated to ": 6874,
      "attempt": 6875,
      "ing to": 6876,
      "al, and ": 6877,
      "ched ": 6878,
      "tion.": 6879,
      "itz": 6880,
      "ed any ": 6881,
      "ed as the ": 6882,
      "ed against": 6883,
      "ed through": 6884,
      "as to ": 6885,
      "associ": 6886,
      ", whil": 6887,
      "is here ": 6888,
      "ose": 6889,
      "ost ": 6890,
      "stone ": 6891,
      "liti": 6892,
      "in of ": 6893,
      "in Scotland": 6894,
      "forbear ": 6895,
      "set, ": 6896,
      ", and be ": 6897,
      ", and more ": 6898,
      "noti": 6899,
      "ing it ": 6900,
      "ing her ": 6901,
      "exag": 6902,
      "be not ": 6903,
      "oppression": 6904,
      "use and ": 6905,
      "it has ": 6906,
      "ght, ": 6907,
      "action ": 6908,
      "from an ": 6909,
      "en in ": 6910,
      "manag": 6911,
      "on our ": 6912,
      "obsc": 6913,
      "e that the ": 6914,
      ", amid": 6915,
      "paralle": 6916,
      "ity to the ": 6917,
      "s of government": 6918,
      "by which ": 6919,
      "prohibit": 6920,
      "in the most ": 6921,
      "ly and ": 6922,
      " as an ": 6923,
      "so long": 6924,
      "carel": 6925,
      "had ever ": 6926,
      "la ": 6927,
      "laud": 6928,
      "senate": 6929,
      "ages, ": 6930,
      "age and ": 6931,
      ". Among": 6932,
      "ever so ": 6933,
      "princes ": 6934,
      "to this ": 6935,
      "diffid": 6936,
      "infir": 6937,
      "county": 6938,
      "ance to the ": 6939,
      " ador": 6940,
      " admit": 6941,
      "odg": 6942,
      "on the same ": 6943,
      ", to have ": 6944,
      "ical": 6945,
      "men, and ": 6946,
      ", who is ": 6947,
      "intercourse ": 6948,
      ", as we ": 6949,
      "s of the same ": 6950,
      "veter": 6951,
      "? Y": 6952,
      " those which ": 6953,
      "courti": 6954,
      "poison": 6955,
      "distres": 6956,
      "youth": 6957,
      " though this ": 6958,
      ". Thus, ": 6959,
      "only by ": 6960,
      " appeal": 6961,
      "place of ": 6962,
      "locester": 6963,
      "requires": 6964,
      "ful, ": 6965,
      "price of ": 6966,
      "philosopher ": 6967,
      "possibl": 6968,
      "uniform ": 6969,
      "mind to ": 6970,
      "virtues, ": 6971,
      "virtue and ": 6972,
      "persons of ": 6973,
      "imagination, ": 6974,
      "whole, ": 6975,
      "happens": 6976,
      "charg": 6977,
      "each other ": 6978,
      " am ": 6979,
      "effectu": 6980,
      "nations ": 6981,
      ", though they ": 6982,
      ", they would ": 6983,
      "y than": 6984,
      "meaning": 6985,
      "warm": 6986,
      " than any ": 6987,
      "interest, ": 6988,
      "put to ": 6989,
      "ably": 6990,
      "provok": 6991,
      "shall be ": 6992,
      "conclude ": 6993,
      ", it was ": 6994,
      ", it may be ": 6995,
      "establish ": 6996,
      "operation of the ": 6997,
      "able.": 6998,
      "consequent": 6999,
      "relation to ": 7000,
      "difficult": 7001,
      "spirits": 7002,
      "establishment": 7003,
      "cribe ": 7004,
      "hands of the ": 7005,
      "severe ": 7006,
      "ready to ": 7007,
      "oke": 7008,
      "determined ": 7009,
      "received the ": 7010,
      "invari": 7011,
      "pope ": 7012,
      "favour of ": 7013,
      "gros": 7014,
      "enemies ": 7015,
      "upon this ": 7016,
      "public good": 7017,
      "divor": 7018,
      " against his ": 7019,
      "purpose, ": 7020,
      "defend ": 7021,
      "producing ": 7022,
      "honour ": 7023,
      "custom ": 7024,
      "constant": 7025,
      "Sir William ": 7026,
      "extremities": 7027,
      " trade ": 7028,
      ". In a ": 7029,
      "doubt, ": 7030,
      "inclined to ": 7031,
      "deliver ": 7032,
      "nearly": 7033,
      "proportion to the ": 7034,
      "choice": 7035,
      "ricult": 7036,
      "ignorance": 7037,
      " arise from ": 7038,
      " assist ": 7039,
      "service ": 7040,
      "circumstances, ": 7041,
      "assembl": 7042,
      "prudence": 7043,
      "successful ": 7044,
      "ally the ": 7045,
      "diminish ": 7046,
      "subjection": 7047,
      "learning": 7048,
      "pride ": 7049,
      "observe, that": 7050,
      "advantages ": 7051,
      "united ": 7052,
      "left": 7053,
      "evil ": 7054,
      "allowed ": 7055,
      " arises from the ": 7056,
      " addres": 7057,
      " address": 7058,
      "jealousy": 7059,
      "patr": 7060,
      "independent ": 7061,
      "commodities ": 7062,
      "benevolence": 7063,
      "external objects": 7064,
      "medit": 7065,
      "strang": 7066,
      " true": 7067,
      "disapprob": 7068,
      ". Such": 7069,
      " acquaintance": 7070,
      "essential to ": 7071,
      "persuas": 7072,
      "physic": 7073,
      "innocent": 7074,
      "son of the ": 7075,
      "planet": 7076,
      "clearly ": 7077,
      "theism": 7078,
      "betwixt them": 7079,
      "pain or ": 7080,
      "hinder": 7081,
      "whether ": 7082,
      "convincing": 7083,
      "conjunction": 7084,
      "criminal ": 7085,
      "on account of ": 7086,
      "condition of ": 7087,
      "    ": 7088,
      "among ": 7089,
      "obedience": 7090,
      "posterity": 7091,
      "substance": 7092,
      "is there any ": 7093,
      "wrong": 7094,
      "Christi": 7095,
      "susceptible of ": 7096,
      "deceiv": 7097,
      "female ": 7098,
      "satisfied with ": 7099,
      "gradually ": 7100,
      " additional ": 7101,
      "contrariety of ": 7102,
      "birth": 7103,
      "identity": 7104,
      "falsehood ": 7105,
      "understood": 7106,
      "scrutin": 7107,
      "rash": 7108,
      "queen of Scot": 7109,
      "speech": 7110,
      "competit": 7111,
      "subordinate ": 7112,
      "JUPIT": 7113,
      "dark": 7114,
      "feeble ": 7115,
      "{VIa(1757), 2": 7116,
      "discern": 7117,
      "spiritual ": 7118,
      "stupid": 7119,
      "feudal ": 7120,
      "topic": 7121,
      " above": 7122,
      ", as far as ": 7123,
      "GERMAN": 7124,
      "enliven": 7125,
      "espous": 7126,
      "exagger": 7127,
      ", are the ": 7128,
      "ACH": 7129,
      "Dr": 7130,
      "Der": 7131,
      "Fitz": 7132,
      "Glocester": 7133,
      "Here": 7134,
      "Let ": 7135,
      "MEN": 7136,
      "Pol": 7137,
      "SC": 7138,
      "Suppos": 7139,
      "Spenser": 7140,
      "Tow": 7141,
      "YPT": 7142,
      "ay, ": 7143,
      "bre": 7144,
      "bread": 7145,
      "ctu": 7146,
      "ek": 7147,
      "eth": 7148,
      "fond": 7149,
      "gel": 7150,
      "ix": 7151,
      "ling": 7152,
      "lest": 7153,
      "loy": 7154,
      "lodg": 7155,
      "nigh": 7156,
      "rose ": 7157,
      "s their ": 7158,
      "s. This ": 7159,
      "s. And ": 7160,
      "ture ": 7161,
      "town": 7162,
      " till ": 7163,
      " air": 7164,
      " a thousand ": 7165,
      " avoid": 7166,
      "insol": 7167,
      "intim": 7168,
      "insensible ": 7169,
      "inanim": 7170,
      "injustice": 7171,
      "incapable ": 7172,
      "on all ": 7173,
      "one, and ": 7174,
      "s by the ": 7175,
      "s in their ": 7176,
      "s should be ": 7177,
      "enact": 7178,
      "enrag": 7179,
      ", may ": 7180,
      ", must ": 7181,
      ", on the ": 7182,
      ", is the ": 7183,
      "remon": 7184,
      "ank": 7185,
      "ard of ": 7186,
      "is this ": 7187,
      "is, in ": 7188,
      "ing those ": 7189,
      "chol": 7190,
      "chment": 7191,
      "chain": 7192,
      "tions ": 7193,
      "tions of the ": 7194,
      "it; ": 7195,
      "ed, that, ": 7196,
      "as the ": 7197,
      "lling": 7198,
      "pray": 7199,
      "conform": 7200,
      "station": 7201,
      "sic": 7202,
      "sip": 7203,
      "sight ": 7204,
      "in it": 7205,
      "for w": 7206,
      "fore the ": 7207,
      "forbear": 7208,
      "sear": 7209,
      "seat ": 7210,
      ", and of the ": 7211,
      "ing our ": 7212,
      "ing on the ": 7213,
      "ing of a ": 7214,
      "exi": 7215,
      "exorbit": 7216,
      "es its ": 7217,
      "frame ": 7218,
      "predec": 7219,
      "it would ": 7220,
      "it is the ": 7221,
      "cians": 7222,
      "permitt": 7223,
      "amb": 7224,
      ". Thus ": 7225,
      "s, in the ": 7226,
      "dissen": 7227,
      "dispat": 7228,
      "parad": 7229,
      "parties ": 7230,
      "s of nature": 7231,
      ": E": 7232,
      ": It ": 7233,
      "e, but ": 7234,
      " to the crown": 7235,
      ", that any ": 7236,
      "him.": 7237,
      "peas": 7238,
      ", which were ": 7239,
      " them a ": 7240,
      "our present ": 7241,
      ". The only ": 7242,
      "very little ": 7243,
      "overlook": 7244,
      "shar": 7245,
      " action ": 7246,
      " action, ": 7247,
      "labor": 7248,
      "one of these ": 7249,
      " as his ": 7250,
      "easy and ": 7251,
      "eak": 7252,
      "we to ": 7253,
      "may safe": 7254,
      "with some ": 7255,
      "princess": 7256,
      "serious": 7257,
      "sati": 7258,
      "not, ": 7259,
      "fear ": 7260,
      "differ ": 7261,
      "mechan": 7262,
      "ation of a ": 7263,
      "subtil": 7264,
      " they have ": 7265,
      "must still ": 7266,
      "every day ": 7267,
      "desired ": 7268,
      "faul": 7269,
      "fatigu": 7270,
      " abroad": 7271,
      "ed, or ": 7272,
      "objects are ": 7273,
      "court ": 7274,
      "court, ": 7275,
      "cases ": 7276,
      "castle of ": 7277,
      "poor ": 7278,
      "distress": 7279,
      "governor": 7280,
      " at hom": 7281,
      "sure to ": 7282,
      "herself": 7283,
      " appell": 7284,
      "s the most ": 7285,
      "vener": 7286,
      "plain the ": 7287,
      "know the ": 7288,
      "loath": 7289,
      "apprehen": 7290,
      "requires ": 7291,
      " afflic": 7292,
      " affect ": 7293,
      "aries": 7294,
      "ity, or ": 7295,
      "if these ": 7296,
      "expli": 7297,
      "possess ": 7298,
      "lawy": 7299,
      "mind and ": 7300,
      "mind, which ": 7301,
      "solem": 7302,
      "ation of his ": 7303,
      "entertain ": 7304,
      ". So": 7305,
      "him in ": 7306,
      "sentiments and ": 7307,
      "make it ": 7308,
      "ustri": 7309,
      "ity of his ": 7310,
      "experience of ": 7311,
      "subjects, ": 7312,
      "find a ": 7313,
      "use of": 7314,
      "influenc": 7315,
      " than that ": 7316,
      ". This is the ": 7317,
      ", therefore, to ": 7318,
      ". But though ": 7319,
      "objections": 7320,
      "fortres": 7321,
      ", were the ": 7322,
      "relations, ": 7323,
      "sensibly ": 7324,
      "difficulties ": 7325,
      "sentence of ": 7326,
      "curious ": 7327,
      "strongly ": 7328,
      "determination": 7329,
      "invent": 7330,
      "begin ": 7331,
      ", to a ": 7332,
      "gain ": 7333,
      "rules": 7334,
      " throw ": 7335,
      "highly ": 7336,
      "produced ": 7337,
      ", there is ": 7338,
      ". And though ": 7339,
      "custod": 7340,
      "road ": 7341,
      "expected ": 7342,
      "calm ": 7343,
      "of them.": 7344,
      "heat": 7345,
      ", or to ": 7346,
      "prince was ": 7347,
      " trad": 7348,
      "object is ": 7349,
      "houses, ": 7350,
      "; when ": 7351,
      "profan": 7352,
      "love or ": 7353,
      "society.": 7354,
      "supported by ": 7355,
      "industry ": 7356,
      "marriage": 7357,
      "which he was ": 7358,
      "fully": 7359,
      "flam": 7360,
      ": His ": 7361,
      "practice": 7362,
      "falla": 7363,
      "ve their ": 7364,
      "sword": 7365,
      "sooner ": 7366,
      "authority": 7367,
      "authority of ": 7368,
      ". Lord ": 7369,
      "crime ": 7370,
      "enquiries": 7371,
      "male ": 7372,
      "grant ": 7373,
      "mixed ": 7374,
      "name": 7375,
      "intentions": 7376,
      " thousand men": 7377,
      "gives us a ": 7378,
      " absurd ": 7379,
      "strike ": 7380,
      "bodies ": 7381,
      "There are ": 7382,
      "desirous of ": 7383,
      " animals, ": 7384,
      "bank": 7385,
      "level": 7386,
      "balanc": 7387,
      "juris": 7388,
      "appearance ": 7389,
      "course of nature": 7390,
      "business ": 7391,
      "figure ": 7392,
      "opinion of ": 7393,
      "prevent the ": 7394,
      "lower ": 7395,
      "in the same manner": 7396,
      "parliament was ": 7397,
      "benevolence ": 7398,
      "precedent": 7399,
      "punishment ": 7400,
      "providence": 7401,
      "homage ": 7402,
      " advantages ": 7403,
      "happiness and ": 7404,
      "essential ": 7405,
      "converted ": 7406,
      "sense of the ": 7407,
      "perpetual": 7408,
      "theist": 7409,
      " transfer": 7410,
      "victory ": 7411,
      "shall we ": 7412,
      "favour of the ": 7413,
      "produces a ": 7414,
      "; while the ": 7415,
      "qualities of the ": 7416,
      "voluntary": 7417,
      "prerogative ": 7418,
      "comparison of ": 7419,
      "ELL": 7420,
      " tempor": 7421,
      "have the same ": 7422,
      "sudden ": 7423,
      "monarch ": 7424,
      "furnit": 7425,
      "midd": 7426,
      "felt": 7427,
      "e than the ": 7428,
      " transition ": 7429,
      "hostili": 7430,
      "Guien": 7431,
      " arbitrary": 7432,
      "mortgag": 7433,
      "teen ": 7434,
      "attended with ": 7435,
      "POLYB": 7436,
      "dream": 7437,
      "drew ": 7438,
      "invention": 7439,
      "remedy": 7440,
      "strictly ": 7441,
      "falsehood": 7442,
      "machin": 7443,
      "beautiful": 7444,
      "singular": 7445,
      "fronti": 7446,
      "conjecture": 7447,
      "urbulent ": 7448,
      "enthusiasm": 7449,
      "Canter": 7450,
      "Mortim": 7451,
      "politician": 7452,
      "carefully ": 7453,
      "despair": 7454,
      " amusement": 7455,
      "impressions and ideas": 7456,
      "chain of ": 7457,
      "shelter ": 7458,
      "freedom": 7459,
      "likely to ": 7460,
      "sign ": 7461,
      "smooth": 7462,
      "indulge ": 7463,
      "desperate ": 7464,
      "PHILIP": 7465,
      "subsequent ": 7466,
      "predecess": 7467,
      "paradox": 7468,
      " his ": 7469,
      "&c": 7470,
      "'T": 7471,
      "/3": 7472,
      "Great ": 7473,
      "GUST": 7474,
      "HOL": 7475,
      "Lord ": 7476,
      "Men ": 7477,
      "Nothing ": 7478,
      "RI": 7479,
      "TON": 7480,
      "Wel": 7481,
      "bad": 7482,
      "border": 7483,
      "een ": 7484,
      "fit": 7485,
      "fer ": 7486,
      "fit ": 7487,
      "flo": 7488,
      "hors": 7489,
      "ies of ": 7490,
      "mist": 7491,
      "pon": 7492,
      "rin": 7493,
      "rog": 7494,
      "s there ": 7495,
      "s; and the ": 7496,
      "s, which are ": 7497,
      "slow": 7498,
      "two": 7499,
      "ving the ": 7500,
      " twenty ": 7501,
      " audi": 7502,
      "indiffer": 7503,
      "in this": 7504,
      "inspir": 7505,
      "indiv": 7506,
      "insul": 7507,
      "instru": 7508,
      "infidel": 7509,
      "incomprehensi": 7510,
      "er and ": 7511,
      "ers and ": 7512,
      "s must ": 7513,
      "s which": 7514,
      "s himself ": 7515,
      ", every ": 7516,
      ", upon ": 7517,
      " the mind ": 7518,
      "of themselves": 7519,
      "revi": 7520,
      "reply": 7521,
      "remember": 7522,
      "resid": 7523,
      " annex": 7524,
      "orm": 7525,
      "oud": 7526,
      "arri": 7527,
      "ise": 7528,
      "is any ": 7529,
      "ates, ": 7530,
      "ing, that the ": 7531,
      "alogi": 7532,
      ".  ": 7533,
      ". Edward ": 7534,
      "it to be ": 7535,
      "ed not ": 7536,
      "emble ": 7537,
      "stand ": 7538,
      "forward": 7539,
      "ses of ": 7540,
      "he would ": 7541,
      "ation; and ": 7542,
      "ing its ": 7543,
      "of the world": 7544,
      "exter": 7545,
      "beget ": 7546,
      "deta": 7547,
      "defe": 7548,
      "es more ": 7549,
      " word": 7550,
      "unite ": 7551,
      "unless": 7552,
      "divers": 7553,
      "acy of ": 7554,
      "on every ": 7555,
      "on both ": 7556,
      "uten": 7557,
      "utmost": 7558,
      "obli": 7559,
      "post": 7560,
      "s, not ": 7561,
      "tax": 7562,
      "river": 7563,
      "rigi": 7564,
      "tern ": 7565,
      "by some ": 7566,
      "by mean": 7567,
      ": B": 7568,
      "peti": 7569,
      " as their ": 7570,
      "so long ": 7571,
      "ought, ": 7572,
      "very much ": 7573,
      "; and where ": 7574,
      "; and it was ": 7575,
      "shock": 7576,
      ", that she ": 7577,
      "cable": 7578,
      " acknowledge ": 7579,
      "was no ": 7580,
      ". Its ": 7581,
      "with him": 7582,
      "with regard": 7583,
      "else ": 7584,
      "umul": 7585,
      "sail": 7586,
      "saw ": 7587,
      " approach ": 7588,
      "fiel": 7589,
      "for its ": 7590,
      "inflic": 7591,
      "can have no ": 7592,
      "minister ": 7593,
      "desp": 7594,
      "man is ": 7595,
      "ic ": 7596,
      ", who was": 7597,
      "ed the same ": 7598,
      "generous": 7599,
      "generosity": 7600,
      "? But ": 7601,
      "? This ": 7602,
      "e and un": 7603,
      "orders to ": 7604,
      "relish ": 7605,
      "great number of ": 7606,
      "judic": 7607,
      "ed by some ": 7608,
      "principles of the ": 7609,
      "paper": 7610,
      ". Thus the ": 7611,
      "y of our ": 7612,
      "passion.": 7613,
      "passionate ": 7614,
      "geom": 7615,
      "king himself": 7616,
      "got ": 7617,
      "seeming ": 7618,
      "into that ": 7619,
      "for the same ": 7620,
      " where ": 7621,
      " when ": 7622,
      "ty of the ": 7623,
      "law, ": 7624,
      "lawful ": 7625,
      "both to ": 7626,
      "under a ": 7627,
      ". But when ": 7628,
      "imaginary ": 7629,
      ", by its ": 7630,
      " which he ": 7631,
      "happi": 7632,
      "charge ": 7633,
      "ed to take ": 7634,
      "empire ": 7635,
      "well-": 7636,
      "probable, ": 7637,
      "subject.": 7638,
      "retreat": 7639,
      "war, ": 7640,
      "made him ": 7641,
      "concerning": 7642,
      "extent of ": 7643,
      "ed by that ": 7644,
      "ed by their ": 7645,
      "either by ": 7646,
      "exclaim": 7647,
      " armies": 7648,
      "property, ": 7649,
      "EST": 7650,
      "has the ": 7651,
      "society, and ": 7652,
      "ers, who ": 7653,
      "ucking": 7654,
      "friend ": 7655,
      "becomes": 7656,
      "become the ": 7657,
      ", without being ": 7658,
      "willing to ": 7659,
      "degree, ": 7660,
      "equip": 7661,
      "joy ": 7662,
      "joy, ": 7663,
      " account of the ": 7664,
      "friends and ": 7665,
      " than in the ": 7666,
      ", than that ": 7667,
      "It is": 7668,
      " after a ": 7669,
      "dependence ": 7670,
      "example ": 7671,
      "feel a ": 7672,
      "feeling ": 7673,
      "possessor": 7674,
      "upon any ": 7675,
      "market": 7676,
      "states ": 7677,
      "of any other ": 7678,
      "generality of ": 7679,
      "harm": 7680,
      " agreeable": 7681,
      "rule": 7682,
      "discover the ": 7683,
      "day, ": 7684,
      "dauphin": 7685,
      "encrease the ": 7686,
      "ed in the same ": 7687,
      "impossibl": 7688,
      "grad": 7689,
      "questions": 7690,
      ", there is a ": 7691,
      ", there is no ": 7692,
      ". And the ": 7693,
      "expected": 7694,
      "science ": 7695,
      "heigh": 7696,
      "constant and ": 7697,
      "constantly ": 7698,
      "volum": 7699,
      "emperor ": 7700,
      "reason of the ": 7701,
      "originally ": 7702,
      "humility, ": 7703,
      ", with regard to ": 7704,
      "equality of ": 7705,
      "force of the ": 7706,
      "universal": 7707,
      "enjoyment ": 7708,
      "profit": 7709,
      " terr": 7710,
      "execution ": 7711,
      "king of Nav": 7712,
      "; nor can": 7713,
      "preserve the ": 7714,
      "except": 7715,
      ". I shall ": 7716,
      "affections": 7717,
      "affirm": 7718,
      "instances ": 7719,
      "liberty and ": 7720,
      "liberty, and ": 7721,
      "IIa(1762": 7722,
      "born ": 7723,
      "sacred": 7724,
      "weak ": 7725,
      "malice ": 7726,
      "office": 7727,
      "countrymen": 7728,
      " also the ": 7729,
      "prudent ": 7730,
      "contrivance": 7731,
      "name of ": 7732,
      "revenue ": 7733,
      "promise": 7734,
      "phenomenon ": 7735,
      "education": 7736,
      ". Yet ": 7737,
      ". If you ": 7738,
      "prejudice ": 7739,
      "ideas of the ": 7740,
      "conclusions ": 7741,
      "neither": 7742,
      "gentle ": 7743,
      "connexion with ": 7744,
      "breach ": 7745,
      "mutual": 7746,
      "pretence of ": 7747,
      " attempt ": 7748,
      "jealousy ": 7749,
      "future": 7750,
      "rather than ": 7751,
      "confessed": 7752,
      "on this head": 7753,
      "dignity": 7754,
      " alliance": 7755,
      "step ": 7756,
      "doctrine ": 7757,
      "doctrine": 7758,
      "mountain": 7759,
      " actually ": 7760,
      "escape ": 7761,
      "side of the ": 7762,
      "accounted ": 7763,
      "comprehension": 7764,
      "submit to the ": 7765,
      "PHON": 7766,
      "SPART": 7767,
      "sentiment or ": 7768,
      "notwithstanding his ": 7769,
      " world": 7770,
      " attack ": 7771,
      "disagreeable ": 7772,
      "transfer": 7773,
      " according to the ": 7774,
      ". Un": 7775,
      "errone": 7776,
      "mortal ": 7777,
      "distribu": 7778,
      "steady ": 7779,
      "hundred thousand ": 7780,
      "fatal": 7781,
      "is nothing but a ": 7782,
      " applause": 7783,
      "decisive ": 7784,
      "fruitless ": 7785,
      "Irish": 7786,
      "impulse": 7787,
      "impulse ": 7788,
      "invasion": 7789,
      "prosecut": 7790,
      "ALEXANDER": 7791,
      "repose ": 7792,
      "held ": 7793,
      "vengeance": 7794,
      "proprietor": 7795,
      "breast": 7796,
      "useless": 7797,
      "commenc": 7798,
      "fluctu": 7799,
      " accomplishment": 7800,
      "experience and observation": 7801,
      "absurd": 7802,
      "journe": 7803,
      "strict ": 7804,
      "counsellor": 7805,
      "venture to": 7806,
      "Friend": 7807,
      "bottom": 7808,
      "betray": 7809,
      "answer": 7810,
      "chimer": 7811,
      "instrument": 7812,
      "(and ": 7813,
      "19": 7814,
      "; to ": 7815,
      "; what ": 7816,
      "; though the ": 7817,
      "Dur": 7818,
      "Dut": 7819,
      "Her": 7820,
      "HOR": 7821,
      "Jesu": 7822,
      "Mal": 7823,
      "Nor ": 7824,
      "On": 7825,
      "Pembr": 7826,
      "Re": 7827,
      "Sal": 7828,
      "TUR": 7829,
      "UN": 7830,
      "Y, ": 7831,
      "ace": 7832,
      "ball": 7833,
      "dow": 7834,
      "egr": 7835,
      "hour": 7836,
      "held": 7837,
      "ities ": 7838,
      "ious and ": 7839,
      "next": 7840,
      "nourish": 7841,
      "oce": 7842,
      "pesti": 7843,
      "ren ": 7844,
      "s all ": 7845,
      "s through": 7846,
      "sword ": 7847,
      "ull": 7848,
      "us of the ": 7849,
      "vey ": 7850,
      "ving a ": 7851,
      "went ": 7852,
      "were, ": 7853,
      "y; ": 7854,
      " two": 7855,
      " treacher": 7856,
      "ins": 7857,
      "ind ": 7858,
      "intimate ": 7859,
      "incompatible ": 7860,
      "one th": 7861,
      "on these ": 7862,
      "s in a ": 7863,
      ", \"": 7864,
      ", must be ": 7865,
      ", say": 7866,
      ", Sir ": 7867,
      "t in the ": 7868,
      "of affair": 7869,
      "tious": 7870,
      "any thing ": 7871,
      "that": 7872,
      "ess, ": 7873,
      "isha": 7874,
      "is too ": 7875,
      "ing and": 7876,
      "tions, and ": 7877,
      "edu": 7878,
      "edic": 7879,
      " to us ": 7880,
      "ed of": 7881,
      "ed over": 7882,
      "ed over ": 7883,
      "ascrib": 7884,
      " a priori": 7885,
      "constitut": 7886,
      "stre": 7887,
      "sieg": 7888,
      "in EUROPE": 7889,
      "forth ": 7890,
      ", and so ": 7891,
      ", and has ": 7892,
      "nox": 7893,
      " to an": 7894,
      " took": 7895,
      " to that of ": 7896,
      " to think": 7897,
      "ations, and ": 7898,
      "ing such ": 7899,
      "ing his": 7900,
      "of the universe": 7901,
      "explain ": 7902,
      "explain the ": 7903,
      "our thought": 7904,
      "dear": 7905,
      "defi": 7906,
      "devot": 7907,
      "unable to ": 7908,
      "previ": 7909,
      "it will ": 7910,
      "imprison": 7911,
      "implic": 7912,
      "from what ": 7913,
      "ders, ": 7914,
      "derive ": 7915,
      "discours": 7916,
      "s of her ": 7917,
      "by which": 7918,
      "as well": 7919,
      "provi": 7920,
      "proces": 7921,
      "more the ": 7922,
      ", that, as ": 7923,
      ", that, in ": 7924,
      ", and an": 7925,
      "pet": 7926,
      "not of ": 7927,
      " asp": 7928,
      " as to": 7929,
      ", which had been ": 7930,
      "presence ": 7931,
      ". The first ": 7932,
      ", the only ": 7933,
      "; and no ": 7934,
      "; and if ": 7935,
      ", that is ": 7936,
      "caval": 7937,
      " active ": 7938,
      "ray": 7939,
      "may not ": 7940,
      "age, and ": 7941,
      "space ": 7942,
      "elud": 7943,
      "serious ": 7944,
      "pass ": 7945,
      " an end": 7946,
      "not a": 7947,
      "not to": 7948,
      "rank ": 7949,
      "infl": 7950,
      "infirm": 7951,
      "I cannot ": 7952,
      "wick": 7953,
      "can have ": 7954,
      "can ever ": 7955,
      ". By this ": 7956,
      "despo": 7957,
      "design ": 7958,
      "desires": 7959,
      " age and ": 7960,
      ", in other ": 7961,
      "veget": 7962,
      "generos": 7963,
      "greatest": 7964,
      "ed, by the ": 7965,
      "The same ": 7966,
      "poet ": 7967,
      ", that the king ": 7968,
      "considered ": 7969,
      ", we should ": 7970,
      "nowise ": 7971,
      " all the other ": 7972,
      "s of those ": 7973,
      "surrender": 7974,
      "survey ": 7975,
      "herself ": 7976,
      "presented to ": 7977,
      "marti": 7978,
      "effect of ": 7979,
      "seems": 7980,
      "seem to have ": 7981,
      "ure to ": 7982,
      " we may ": 7983,
      "into any ": 7984,
      "renoun": 7985,
      "human ra": 7986,
      "could not be ": 7987,
      "found to be ": 7988,
      "appea": 7989,
      "And": 7990,
      " when": 7991,
      ". It may ": 7992,
      "ary and ": 7993,
      "That": 7994,
      "suppose, ": 7995,
      "eyes ": 7996,
      " taking": 7997,
      "union of ": 7998,
      "power, and ": 7999,
      "ency ": 8000,
      "necessity, ": 8001,
      ", or rather ": 8002,
      "imagined": 8003,
      " trac": 8004,
      "ENCE": 8005,
      "entered into ": 8006,
      "happily ": 8007,
      ". Sh": 8008,
      ". Suppos": 8009,
      ", he had ": 8010,
      "ed to that ": 8011,
      "effects ": 8012,
      "observable": 8013,
      "y than ": 8014,
      "had already ": 8015,
      "find the ": 8016,
      "entirely to ": 8017,
      "tion of his ": 8018,
      "himself to the ": 8019,
      "made an ": 8020,
      ", in any ": 8021,
      " the same manner": 8022,
      "extort": 8023,
      "liberty of ": 8024,
      "oppose ": 8025,
      "ed by these ": 8026,
      "nothing but the ": 8027,
      ", where a ": 8028,
      ", it is": 8029,
      "like a ": 8030,
      "operation ": 8031,
      "operates ": 8032,
      " with regard to the ": 8033,
      "certainly": 8034,
      "complic": 8035,
      "satisfy": 8036,
      "difficult, ": 8037,
      ", when it ": 8038,
      "line": 8039,
      "itude": 8040,
      "danger of ": 8041,
      "ARD": 8042,
      "join ": 8043,
      "both of them ": 8044,
      "natural to ": 8045,
      "invisible ": 8046,
      "enemy ": 8047,
      "fortune, ": 8048,
      "heav": 8049,
      "justly": 8050,
      "justly be ": 8051,
      "situation, ": 8052,
      "years, ": 8053,
      "rule of ": 8054,
      "esteemed a ": 8055,
      "varice": 8056,
      "industri": 8057,
      "leaves ": 8058,
      "question, ": 8059,
      "defence ": 8060,
      "militi": 8061,
      "humanity, ": 8062,
      "creature ": 8063,
      "ness of": 8064,
      "engaged the ": 8065,
      "moderation": 8066,
      "may add": 8067,
      "successive": 8068,
      ". Even ": 8069,
      ". Each ": 8070,
      " take the ": 8071,
      "likely": 8072,
      "equally": 8073,
      "found in the ": 8074,
      "in his own ": 8075,
      "monarchy, ": 8076,
      "myth": 8077,
      "married ": 8078,
      "ed with the same ": 8079,
      "which he had ": 8080,
      "enquire ": 8081,
      "difference between ": 8082,
      "remarkable": 8083,
      ": And he ": 8084,
      "do not": 8085,
      "imagination, and ": 8086,
      "younger ": 8087,
      "delight ": 8088,
      "contrary to the ": 8089,
      "proceeds ": 8090,
      "for a moment": 8091,
      "elder ": 8092,
      "burgh": 8093,
      "soon after": 8094,
      "suspend": 8095,
      "merely": 8096,
      " those": 8097,
      " also a ": 8098,
      "obvious and ": 8099,
      "still the ": 8100,
      "preferable ": 8101,
      "superstition ": 8102,
      "comple": 8103,
      "magistrate": 8104,
      "reveng": 8105,
      "observe, that ": 8106,
      "gives rise ": 8107,
      " absurdi": 8108,
      "under the command of ": 8109,
      " account for the ": 8110,
      "scarcely be ": 8111,
      "council of ": 8112,
      "language": 8113,
      "IAS": 8114,
      "barons": 8115,
      "break ": 8116,
      "Stephen": 8117,
      "narrow": 8118,
      "receive a ": 8119,
      "receive the ": 8120,
      "; that is": 8121,
      "patri": 8122,
      "surprize ": 8123,
      " truth and ": 8124,
      "besides the ": 8125,
      "impose ": 8126,
      "capacity": 8127,
      "stranger": 8128,
      "hypothesis ": 8129,
      "Supreme ": 8130,
      "inconveniences": 8131,
      "offered to ": 8132,
      "inhabitants": 8133,
      "uneasiness ": 8134,
      "so far as ": 8135,
      " assistance": 8136,
      "nothing to ": 8137,
      "for that purpose": 8138,
      "desert": 8139,
      "son of ": 8140,
      "plan of ": 8141,
      " advantageous": 8142,
      "victor": 8143,
      "support of ": 8144,
      "lords ": 8145,
      "believe": 8146,
      "facilit": 8147,
      "facility": 8148,
      " tempt": 8149,
      "conjunction ": 8150,
      "made the ": 8151,
      "obedience ": 8152,
      "domestic": 8153,
      "piece of ": 8154,
      "safet": 8155,
      "eternal ": 8156,
      "capitul": 8157,
      "countries": 8158,
      "drop": 8159,
      " arrive ": 8160,
      "urgund": 8161,
      " ascribe to ": 8162,
      "disappointment": 8163,
      "curios": 8164,
      "master of ": 8165,
      "Normandy": 8166,
      "watch": 8167,
      "metal": 8168,
      ", together with the ": 8169,
      "health": 8170,
      "woman": 8171,
      "so great a ": 8172,
      "resolved to ": 8173,
      "fundament": 8174,
      "prepared ": 8175,
      "brid": 8176,
      " amount": 8177,
      "representatives": 8178,
      "doctrine of ": 8179,
      "Europe": 8180,
      " archbishop of ": 8181,
      "enough to ": 8182,
      "PERS": 8183,
      "neglig": 8184,
      "force and vivacity": 8185,
      "LONDON": 8186,
      "; and therefore": 8187,
      "DEMOSTHENES": 8188,
      "display ": 8189,
      "genuine ": 8190,
      "vehem": 8191,
      "Devon": 8192,
      "supply the ": 8193,
      "refract": 8194,
      "jurisdic": 8195,
      "detail": 8196,
      "pestil": 8197,
      " {": 8198,
      " had ": 8199,
      " of a ": 8200,
      "'ti": 8201,
      ", another ": 8202,
      "; as": 8203,
      "Ad": 8204,
      "A, ": 8205,
      "All the ": 8206,
      "AUL": 8207,
      "Both": 8208,
      "BER": 8209,
      "Di": 8210,
      "EM": 8211,
      "EP": 8212,
      "Epic": 8213,
      "Essex": 8214,
      "For ": 8215,
      "From": 8216,
      "Here ": 8217,
      "HOM": 8218,
      "Jud": 8219,
      "King": 8220,
      "LES": 8221,
      "MAR": 8222,
      "No ": 8223,
      "Pal": 8224,
      "RAT": 8225,
      "SY": 8226,
      "S and ": 8227,
      "UM": 8228,
      "Val": 8229,
      "XENO": 8230,
      "Y ": 8231,
      "YDI": 8232,
      "bind": 8233,
      "back ": 8234,
      "cow": 8235,
      "cam": 8236,
      "cloath": 8237,
      "din": 8238,
      "dare ": 8239,
      "een": 8240,
      "eel": 8241,
      "gy": 8242,
      "gone ": 8243,
      "hang": 8244,
      "ian ": 8245,
      "ices": 8246,
      "les of ": 8247,
      "ner": 8248,
      "o'": 8249,
      "oil": 8250,
      "ogn": 8251,
      "pill": 8252,
      "sop": 8253,
      "s, without ": 8254,
      "s against ": 8255,
      "s, as": 8256,
      "s against the ": 8257,
      "turn": 8258,
      "ught": 8259,
      "vac": 8260,
      "ved in ": 8261,
      "wind": 8262,
      "wound": 8263,
      "were": 8264,
      "wit, ": 8265,
      "e for ": 8266,
      " treat ": 8267,
      " ali": 8268,
      "in-": 8269,
      "inti": 8270,
      "inev": 8271,
      "inward ": 8272,
      "injustice ": 8273,
      "inveter": 8274,
      "ery": 8275,
      "ery ": 8276,
      "eni": 8277,
      "enorm": 8278,
      ", for": 8279,
      ", of the ": 8280,
      ", our ": 8281,
      ", should ": 8282,
      ", could ": 8283,
      ", because ": 8284,
      ", instead of ": 8285,
      ", notwithstanding": 8286,
      "of thinking": 8287,
      "recep": 8288,
      "revers": 8289,
      "tist": 8290,
      "thing": 8291,
      "thel": 8292,
      "therefore ": 8293,
      "es; ": 8294,
      "arre": 8295,
      "hir": 8296,
      "of mankind": 8297,
      "ated by": 8298,
      "ing an ": 8299,
      "ing that": 8300,
      "ing this": 8301,
      "ing that the ": 8302,
      "che": 8303,
      "it as a ": 8304,
      "ed these ": 8305,
      "ed; and": 8306,
      "ed their": 8307,
      " to its ": 8308,
      " to give ": 8309,
      "ed it ": 8310,
      "ection of the ": 8311,
      " a very ": 8312,
      " a new ": 8313,
      " a greater ": 8314,
      "have": 8315,
      "is found": 8316,
      "is still ": 8317,
      "is entirely ": 8318,
      "confir": 8319,
      "contain ": 8320,
      "iron": 8321,
      "emb": 8322,
      "steri": 8323,
      "ce the ": 8324,
      "in so ": 8325,
      "at last ": 8326,
      "for them": 8327,
      "seen": 8328,
      "seven ": 8329,
      "verac": 8330,
      ", and would ": 8331,
      ", and without ": 8332,
      " together ": 8333,
      " towards": 8334,
      "blem": 8335,
      "ation, which ": 8336,
      "of the kingdom": 8337,
      "exemp": 8338,
      "below": 8339,
      "deities": 8340,
      "may th": 8341,
      "be more ": 8342,
      "us.": 8343,
      " we th": 8344,
      "frail": 8345,
      "his own": 8346,
      "ung": 8347,
      "plenti": 8348,
      "dilig": 8349,
      "dialogu": 8350,
      "que ": 8351,
      "integr": 8352,
      "iment ": 8353,
      "implac": 8354,
      "impracti": 8355,
      "imperfection": 8356,
      "acr": 8357,
      "acces": 8358,
      "accustom": 8359,
      "man who ": 8360,
      "utter ": 8361,
      "combat": 8362,
      " that is ": 8363,
      "disinterest": 8364,
      "e three ": 8365,
      "taint": 8366,
      "tain the ": 8367,
      ", allow": 8368,
      "parent ": 8369,
      "; or": 8370,
      "; by ": 8371,
      "prove th": 8372,
      " of our ": 8373,
      "vice, ": 8374,
      ": We ": 8375,
      "tract ": 8376,
      " any such ": 8377,
      " any particular ": 8378,
      " as this ": 8379,
      "so great ": 8380,
      ", which he had ": 8381,
      "our reasoning": 8382,
      "whence ": 8383,
      "; and by ": 8384,
      "; and when": 8385,
      "over-": 8386,
      " accession": 8387,
      " accompani": 8388,
      "gic": 8389,
      "giving": 8390,
      " allies": 8391,
      "rare": 8392,
      "rati": 8393,
      "send ": 8394,
      "was now ": 8395,
      "no less ": 8396,
      " alarm": 8397,
      " altogether": 8398,
      "spor": 8399,
      "other, ": 8400,
      "sav": 8401,
      "passes ": 8402,
      "so as to ": 8403,
      "which it is ": 8404,
      "to them": 8405,
      "for ever": 8406,
      "rance ": 8407,
      "diffus": 8408,
      "infest": 8409,
      "submis": 8410,
      "I know ": 8411,
      " at that time ": 8412,
      "wif": 8413,
      "counties": 8414,
      "can never": 8415,
      "minor": 8416,
      "most of the ": 8417,
      "genc": 8418,
      "from the same ": 8419,
      " adop": 8420,
      " admi": 8421,
      "some time ": 8422,
      "strok": 8423,
      "must have a ": 8424,
      "rest of ": 8425,
      "glas": 8426,
      "glory": 8427,
      "descrip": 8428,
      ", to whom": 8429,
      "guardi": 8430,
      "men, who ": 8431,
      ", in order to": 8432,
      "? W": 8433,
      "uthor of ": 8434,
      "difference of ": 8435,
      "contest": 8436,
      "atever": 8437,
      "governed by ": 8438,
      " thought, ": 8439,
      ", we must": 8440,
      "foresee": 8441,
      "pap": 8442,
      ". That": 8443,
      "finer ": 8444,
      "passion, and ": 8445,
      "marry": 8446,
      " appeas": 8447,
      "illeg": 8448,
      "goes ": 8449,
      "human reason": 8450,
      "could ever ": 8451,
      "her own ": 8452,
      "loos": 8453,
      "load": 8454,
      "appoint": 8455,
      "approach": 8456,
      "ful and ": 8457,
      "Anj": 8458,
      "kinds, ": 8459,
      "ity, but ": 8460,
      "supposes": 8461,
      "expence": 8462,
      "still continu": 8463,
      "medium": 8464,
      "mistake ": 8465,
      " times of ": 8466,
      "mighty": 8467,
      "person, ": 8468,
      " them in ": 8469,
      "even w": 8470,
      "him by the ": 8471,
      "even of ": 8472,
      " ami": 8473,
      "make him ": 8474,
      ", they had ": 8475,
      "reader": 8476,
      "present impression": 8477,
      "himself, and ": 8478,
      "made by ": 8479,
      ", in that ": 8480,
      ", in their ": 8481,
      " appearance of ": 8482,
      ". But as the ": 8483,
      "general law": 8484,
      "Scots ": 8485,
      "during his ": 8486,
      "cloth": 8487,
      "ion of the ": 8488,
      "relations ": 8489,
      ". A man ": 8490,
      "ers.": 8491,
      "spirit, ": 8492,
      "little or ": 8493,
      "people.": 8494,
      "ed with this ": 8495,
      "sink": 8496,
      "degrees ": 8497,
      "shilling": 8498,
      "ence of his ": 8499,
      "valid": 8500,
      "of these two ": 8501,
      "violence and ": 8502,
      "determinate ": 8503,
      "received a ": 8504,
      "demer": 8505,
      "render the ": 8506,
      "; but as ": 8507,
      "grow": 8508,
      "grand": 8509,
      "possesses": 8510,
      "enemies, ": 8511,
      "upon that ": 8512,
      "upon them": 8513,
      "public interest": 8514,
      "IAN, ": 8515,
      "heap": 8516,
      "head of ": 8517,
      "dangerous to ": 8518,
      "disposition ": 8519,
      "situation of ": 8520,
      "situation of the ": 8521,
      " agreement": 8522,
      "ideas are ": 8523,
      ". We shall ": 8524,
      "discovered ": 8525,
      "variation": 8526,
      "purposes": 8527,
      ". And this ": 8528,
      ". And though": 8529,
      "honest": 8530,
      "e them to ": 8531,
      "distinction of ": 8532,
      ". It is certain": 8533,
      "cool": 8534,
      " animosity": 8535,
      "historians": 8536,
      "calm": 8537,
      "possesses ": 8538,
      "of them, ": 8539,
      ", acqu": 8540,
      "heat ": 8541,
      "succession ": 8542,
      ", I shall ": 8543,
      ", that he was ": 8544,
      "reason or ": 8545,
      "original": 8546,
      "voice ": 8547,
      "sensible of ": 8548,
      "s in the same ": 8549,
      "morality ": 8550,
      " termin": 8551,
      "ed from his ": 8552,
      "execution of ": 8553,
      "occasion ": 8554,
      "conduct and ": 8555,
      "mysteri": 8556,
      "riches and ": 8557,
      "become a ": 8558,
      "joined the ": 8559,
      "place in ": 8560,
      "philosophers, ": 8561,
      "carries ": 8562,
      "evident, that ": 8563,
      "do we ": 8564,
      "perceptions are ": 8565,
      "title ": 8566,
      "pathe": 8567,
      " too much ": 8568,
      "entertained ": 8569,
      "choi": 8570,
      "consists in the ": 8571,
      "interest of the ": 8572,
      "excite the ": 8573,
      "malcontent": 8574,
      "grande": 8575,
      "granted": 8576,
      "said to ": 8577,
      "composed of ": 8578,
      " assassin": 8579,
      "maxim ": 8580,
      "ed on a ": 8581,
      "courage": 8582,
      "courage, ": 8583,
      "superstitious ": 8584,
      "revenge": 8585,
      "raise the ": 8586,
      "promises": 8587,
      "of ancient ": 8588,
      "either the ": 8589,
      "friendship ": 8590,
      "north": 8591,
      "conduct of the ": 8592,
      "queen's ": 8593,
      "military": 8594,
      "ruin ": 8595,
      "education, ": 8596,
      "enterprize ": 8597,
      "break": 8598,
      "speaking, ": 8599,
      "says he, ": 8600,
      "revolutions": 8601,
      "well known": 8602,
      " always the ": 8603,
      "late king": 8604,
      "motives ": 8605,
      "speculation": 8606,
      "multitude": 8607,
      "faculty": 8608,
      "faculties ": 8609,
      "sometimes": 8610,
      "contradiction ": 8611,
      "same, ": 8612,
      "blame": 8613,
      "correspondent ": 8614,
      "on this occasion": 8615,
      "dignity of ": 8616,
      "fall into ": 8617,
      "gods": 8618,
      "so far as to ": 8619,
      "keep ": 8620,
      "controversi": 8621,
      "confidence": 8622,
      "indulgence ": 8623,
      "Being ": 8624,
      "side of ": 8625,
      "infinitum": 8626,
      "victory": 8627,
      "navig": 8628,
      "Ormond": 8629,
      "direction": 8630,
      "without a ": 8631,
      "guilty of ": 8632,
      "suppose a ": 8633,
      "SPAN": 8634,
      "interrupted ": 8635,
      "mistaken": 8636,
      "conclude, that ": 8637,
      "Mont": 8638,
      ". On the contrary": 8639,
      "utility ": 8640,
      "perceive the ": 8641,
      "by that means ": 8642,
      "settled ": 8643,
      "censure": 8644,
      "may, perhaps, ": 8645,
      "soldiers": 8646,
      "transaction": 8647,
      "auder": 8648,
      "yourself": 8649,
      "spectator": 8650,
      "Some ": 8651,
      "fifty ": 8652,
      "replied Philo": 8653,
      "fatal ": 8654,
      "preparations ": 8655,
      "express ": 8656,
      "performance": 8657,
      "implies ": 8658,
      " allegiance": 8659,
      "presumption": 8660,
      "member ": 8661,
      ". Though the ": 8662,
      "daughter of ": 8663,
      "daughter of the ": 8664,
      "VID": 8665,
      "cardinal": 8666,
      "disciplin": 8667,
      "beautiful ": 8668,
      "singular ": 8669,
      "magnificent ": 8670,
      "Lewis": 8671,
      "UCYDI": 8672,
      "detect": 8673,
      " application": 8674,
      "absolute ": 8675,
      "crown of England": 8676,
      ". Even the ": 8677,
      ", till the ": 8678,
      " ambassador": 8679,
      "inherit": 8680,
      "good or evil": 8681,
      "viz. the ": 8682,
      "note]} ": 8683,
      "conviction": 8684,
      "plausible ": 8685,
      "epithet": 8686,
      "a(1759), ": 8687,
      "arts and sciences": 8688,
      "southern ": 8689,
      "hereditary ": 8690,
      "controversy ": 8691,
      "EGYPT": 8692,
      "Roger ": 8693,
      "reinforc": 8694,
      "Fitz-": 8695,
      "inanimate ": 8696,
      "search ": 8697,
      "uckingham": 8698,
      "Salis": 8699,
      "TURK": 8700,
      "mytholog": 8701,
      "Devonshi": 8702,
      "XENOPHON": 8703,
      " de ": 8704,
      "(for ": 8705,
      "15": 8706,
      ": the ": 8707,
      "; an ": 8708,
      "All": 8709,
      "BO": 8710,
      "CON": 8711,
      "Du": 8712,
      "Dis": 8713,
      "Every ": 8714,
      "Fa": 8715,
      "GAUL": 8716,
      "HE": 8717,
      "Ha": 8718,
      "Hum": 8719,
      "Hunt": 8720,
      "IO": 8721,
      "I w": 8722,
      "ION": 8723,
      "I think": 8724,
      "I ask": 8725,
      "Lauder": 8726,
      "Ral": 8727,
      "Reas": 8728,
      "Sto": 8729,
      "Un": 8730,
      "West": 8731,
      "bos": 8732,
      "bot": 8733,
      "dres": 8734,
      "flight": 8735,
      "hort": 8736,
      "hunt": 8737,
      "iard": 8738,
      "ld ": 8739,
      "list": 8740,
      "lare ": 8741,
      "mb": 8742,
      "otr": 8743,
      "rud": 8744,
      "s an ": 8745,
      "s. A ": 8746,
      "scal": 8747,
      "s: But ": 8748,
      "s and the ": 8749,
      "s, t": 8750,
      "s among the ": 8751,
      "s, which they ": 8752,
      "soften": 8753,
      "treas": 8754,
      "teced": 8755,
      "vex": 8756,
      "yr": 8757,
      "yric": 8758,
      " author ": 8759,
      "in an": 8760,
      "inconsiderable ": 8761,
      "inburgh": 8762,
      "erc": 8763,
      "once": 8764,
      "on that": 8765,
      "on which": 8766,
      "one that ": 8767,
      "s him": 8768,
      "s should ": 8769,
      "s into ": 8770,
      "s will ": 8771,
      "s will": 8772,
      ", is a ": 8773,
      ", lord ": 8774,
      ", if the ": 8775,
      " the one ": 8776,
      "of thought ": 8777,
      "remor": 8778,
      "repub": 8779,
      "represent ": 8780,
      " an additional ": 8781,
      "tiqu": 8782,
      "oub": 8783,
      "ess of ": 8784,
      "es as ": 8785,
      "ary of ": 8786,
      "arbitr": 8787,
      "argument ": 8788,
      "of which ": 8789,
      "is a": 8790,
      "ise, and ": 8791,
      "atter": 8792,
      "attach": 8793,
      "ing all ": 8794,
      "ing themselves ": 8795,
      "ingredi": 8796,
      "chall": 8797,
      "chuse ": 8798,
      "chances": 8799,
      "it? ": 8800,
      "omp": 8801,
      "ed, would ": 8802,
      "ed themselves": 8803,
      "ed among ": 8804,
      " to one ": 8805,
      "ective ": 8806,
      "prol": 8807,
      "haz": 8808,
      "consp": 8809,
      "liable to ": 8810,
      "in very ": 8811,
      "in many ": 8812,
      "in such a ": 8813,
      "for an ": 8814,
      "very thing ": 8815,
      "he should ": 8816,
      "he will ": 8817,
      ", and his ": 8818,
      ", and shall ": 8819,
      "bles": 8820,
      "blish": 8821,
      "excommunication": 8822,
      "exhort": 8823,
      "beast": 8824,
      "behold": 8825,
      "depra": 8826,
      "delay": 8827,
      "oppress": 8828,
      " and affection": 8829,
      " theologi": 8830,
      " ard": 8831,
      " argu": 8832,
      "unaccoun": 8833,
      "unacquaint": 8834,
      "unfortunate ": 8835,
      "precious ": 8836,
      "it were ": 8837,
      "perus": 8838,
      "impu": 8839,
      "imply": 8840,
      "implant": 8841,
      "acit": 8842,
      "act, ": 8843,
      "man's ": 8844,
      "obnox": 8845,
      "oler": 8846,
[...]
